<pad>	0
<unk>	0
<s>	0
</s>	0
一个	-0
我们	-1
他们	-2
可以	-3
▁在	-4
▁这	-5
没有	-6
如果	-7
可能	-8
自己	-9
▁我	-10
▁他	-11
这个	-12
但是	-13
因为	-14
他的	-15
一种	-16
这些	-17
的人	-18
问题	-19
美国	-20
不是	-21
已经	-22
一些	-23
进行	-24
公司	-25
什么	-26
研究	-27
工作	-28
▁如果	-29
的时	-30
你的	-31
使用	-32
需要	-33
现在	-34
..	-35
就是	-36
的一	-37
中国	-38
开始	-39
通过	-40
所有	-41
▁当	-42
中的	-43
认为	-44
这样	-45
我的	-46
知道	-47
任何	-48
这种	-49
方法	-50
系统	-51
世界	-52
部分	-53
人的	-54
▁我们	-55
▁“	-56
大的	-57
是一个	-58
。”	-59
其他	-60
或者	-61
国家	-62
发现	-63
经济	-64
影响	-65
生活	-66
时间	-67
那些	-68
的时候	-69
成为	-70
上的	-71
非常	-72
自己的	-73
提供	-74
以及	-75
到了	-76
重要	-77
它们	-78
不会	-79
人们	-80
一样	-81
00	-82
必须	-83
的是	-84
对于	-85
能够	-86
▁你	-87
起来	-88
了一	-89
——	-90
▁但是	-91
政府	-92
好的	-93
不能	-94
这一	-95
不同	-96
▁她	-97
作为	-98
然后	-99
那么	-100
发生	-101
所以	-102
结果	-103
▁但	-104
应该	-105
孩子	-106
表示	-107
情况	-108
希望	-109
而且	-110
▁不	-111
许多	-112
数据	-113
▁一	-114
看到	-115
因此	-116
他们的	-117
并且	-118
服务	-119
设计	-120
你们	-121
技术	-122
方式	-123
是一	-124
由于	-125
为了	-126
应用	-127
发展	-128
主要	-129
:“	-130
市场	-131
来的	-132
她的	-133
的事	-134
分析	-135
具有	-136
选择	-137
同时	-138
社会	-139
还是	-140
一次	-141
”。	-142
之一	-143
地方	-144
方面	-145
很多	-146
控制	-147
▁有	-148
存在	-149
之间	-150
帮助	-151
来说	-152
过程	-153
包括	-154
性的	-155
新的	-156
然而	-157
正在	-158
我们的	-159
关系	-160
▁他们	-161
是在	-162
信息	-163
东西	-164
一直	-165
主义	-166
如何	-167
一起	-168
告诉	-169
是否	-170
管理	-171
产生	-172
产品	-173
要求	-174
计划	-175
两个	-176
得到	-177
喜欢	-178
组织	-179
出现	-180
之后	-181
都是	-182
还有	-183
处理	-184
作用	-185
决定	-186
只是	-187
,“	-188
程序	-189
行为	-190
似乎	-191
如此	-192
,”	-193
能力	-194
目的	-195
尽管	-196
地区	-197
安全	-198
用于	-199
的话	-200
英国	-201
活动	-202
获得	-203
甚至	-204
通常	-205
er	-206
有一	-207
运动	-208
这是	-209
它的	-210
银行	-211
无法	-212
每个	-213
企业	-214
环境	-215
完全	-216
那个	-217
的一个	-218
的大	-219
▁然而	-220
之前	-221
并不	-222
支持	-223
虽然	-224
朋友	-225
目前	-226
”,	-227
感到	-228
出了	-229
过去	-230
其中	-231
学家	-232
更多	-233
生产	-234
人员	-235
准备	-236
显示	-237
也是	-238
就会	-239
投资	-240
觉得	-241
利用	-242
解决	-243
原因	-244
增加	-245
)。	-246
就像	-247
感觉	-248
目标	-249
容易	-250
也许	-251
治疗	-252
结构	-253
导致	-254
关于	-255
学生	-256
定的	-257
▁这些	-258
表明	-259
令人	-260
了一个	-261
▁该	-262
▁这个	-263
最后	-264
▁从	-265
▁它	-266
出来	-267
继续	-268
接受	-269
不要	-270
▁而	-271
城市	-272
的小	-273
人类	-274
至少	-275
有效	-276
这里	-277
实现	-278
来自	-279
可能会	-280
变化	-281
计算	-282
改变	-283
那里	-284
时候	-285
实际	-286
成的	-287
▁对	-288
努力	-289
只有	-290
多数	-291
量的	-292
--	-293
动物	-294
政治	-295
19	-296
保持	-297
将会	-298
是个	-299
简单	-300
拥有	-301
保护	-302
提高	-303
先生	-304
第二	-305
进入	-306
出的	-307
文件	-308
受到	-309
▁一个	-310
随着	-311
项目	-312
表现	-313
第一	-314
历史	-315
不可	-316
色的	-317
下来	-318
建立	-319
整个	-320
特别	-321
不过	-322
身体	-323
成了	-324
的问题	-325
今天	-326
中心	-327
▁如果你	-328
▁因此	-329
生命	-330
价值	-331
一定	-332
文化	-333
即使	-334
有关	-335
面的	-336
考虑	-337
200	-338
这样的	-339
变得	-340
仍然	-341
细胞	-342
是一种	-343
用户	-344
国际	-345
生物	-346
几个	-347
全球	-348
相信	-349
那样	-350
采用	-351
了解	-352
20	-353
一下	-354
同样	-355
离开	-356
....	-357
▁此	-358
精神	-359
相关	-360
事实	-361
大学	-362
健康	-363
者的	-364
一位	-365
几乎	-366
自由	-367
机会	-368
根据	-369
自然	-370
的时间	-371
美元	-372
状态	-373
意义	-374
年的	-375
网络	-376
总是	-377
欧洲	-378
的最	-379
有一个	-380
总统	-381
in	-382
▁由于	-383
an	-384
测试	-385
也不	-386
所有的	-387
▁他说	-388
力的	-389
注意	-390
真正	-391
试图	-392
on	-393
重新	-394
里的	-395
为什么	-396
教育	-397
更加	-398
汽车	-399
意识	-400
怎么	-401
一点	-402
▁大	-403
基础	-404
▁现在	-405
减少	-406
传统	-407
反应	-408
年轻	-409
▁尽管	-410
),	-411
理论	-412
程度	-413
的地方	-414
形式	-415
家庭	-416
艺术	-417
开发	-418
各种	-419
实验	-420
他说	-421
10	-422
行动	-423
▁对于	-424
▁这种	-425
个人	-426
机构	-427
有些	-428
政策	-429
学习	-430
内容	-431
确定	-432
语言	-433
不断	-434
不得	-435
增长	-436
比较	-437
唯一	-438
的影响	-439
价格	-440
标准	-441
经常	-442
意味	-443
情况下	-444
设备	-445
电影	-446
理解	-447
重要的	-448
基本	-449
工具	-450
严重	-451
在一	-452
日本	-453
空间	-454
想要	-455
这么	-456
客户	-457
材料	-458
星期	-459
模型	-460
调查	-461
因素	-462
而不是	-463
错误	-464
故事	-465
找到	-466
引起	-467
▁那	-468
多少	-469
母亲	-470
比赛	-471
让我	-472
条件	-473
音乐	-474
证明	-475
明显	-476
效果	-477
仅仅	-478
行的	-479
直接	-480
子的	-481
操作	-482
电话	-483
无论	-484
其它	-485
一步	-486
建议	-487
模式	-488
最终	-489
世纪	-490
看起来	-491
风险	-492
完成	-493
法律	-494
水平	-495
制造	-496
解释	-497
结束	-498
事情	-499
太阳	-500
持续	-501
用的	-502
允许	-503
带来	-504
位置	-505
▁不过	-506
之间的	-507
▁虽然	-508
不同的	-509
的事情	-510
小时	-511
真的	-512
事件	-513
建筑	-514
曾经	-515
人都	-516
食物	-517
度的	-518
领导	-519
代表	-520
交易	-521
眼睛	-522
资源	-523
行业	-524
意味着	-525
下的	-526
科学	-527
体的	-528
▁为了	-529
创造	-530
电子	-531
以前	-532
学校	-533
现代	-534
▁因为	-535
...	-536
检查	-537
领域	-538
女人	-539
另一	-540
有的	-541
报告	-542
ar	-543
消息	-544
到的	-545
▁通过	-546
十分	-547
声音	-548
避免	-549
类型	-550
经过	-551
▁美国	-552
执行	-553
在一个	-554
您的	-555
观察	-556
▁所以	-557
用来	-558
除了	-559
形成	-560
参加	-561
讨论	-562
一般	-563
而是	-564
压力	-565
思想	-566
造成	-567
合作	-568
死亡	-569
游戏	-570
医生	-571
另外	-572
采取	-573
范围	-574
工程	-575
一切	-576
疾病	-577
有人	-578
复杂	-579
的工作	-580
金融	-581
充满	-582
战争	-583
小的	-584
男人	-585
速度	-586
会议	-587
愿意	-588
父亲	-589
在一起	-590
才能	-591
另一个	-592
物质	-593
长期	-594
都会	-595
方案	-596
表面	-597
力量	-598
消费	-599
竞争	-600
印度	-601
区域	-602
相当	-603
任务	-604
地球	-605
危险	-606
▁目的	-607
关键	-608
他在	-609
大多数	-610
的东西	-611
措施	-612
可能是	-613
不再	-614
利亚	-615
业务	-616
经历	-617
需求	-618
连接	-619
的方式	-620
过程中	-621
的新	-622
未来	-623
危机	-624
某些	-625
网站	-626
正确	-627
不知道	-628
最近	-629
吸引	-630
永远	-631
看见	-632
必要	-633
有点	-634
放在	-635
的方法	-636
并不是	-637
使得	-638
达到	-639
的研究	-640
只能	-641
人民	-642
并没有	-643
or	-644
应用程序	-645
电视	-646
记录	-647
女性	-648
质量	-649
成员	-650
或许	-651
试验	-652
公司的	-653
性能	-654
超过	-655
而言	-656
描述	-657
可是	-658
突然	-659
以后	-660
联系	-661
认识	-662
如果你	-663
介绍	-664
化的	-665
多的	-666
或是	-667
也会	-668
植物	-669
说明	-670
表达	-671
降低	-672
好像	-673
反对	-674
首先	-675
期间	-676
成本	-677
称为	-678
提出	-679
尝试	-680
高的	-681
▁与	-682
责任	-683
经验	-684
方向	-685
变成	-686
▁要	-687
于是	-688
及其	-689
我想	-690
上帝	-691
位于	-692
运行	-693
是不	-694
直到	-695
结论	-696
联合	-697
担心	-698
▁其	-699
稳定	-700
类似	-701
一只	-702
关注	-703
当时	-704
大家	-705
想法	-706
清楚	-707
更多的	-708
很快	-709
飞机	-710
当地	-711
罗斯	-712
en	-713
▁每	-714
在这	-715
足够	-716
以来	-717
包含	-718
知识	-719
一名	-720
商业	-721
别人	-722
你可以	-723
参与	-724
妈妈	-725
父母	-726
定义	-727
限制	-728
销售	-729
长的	-730
就可以	-731
附近	-732
空气	-733
爱的	-734
寻找	-735
部的	-736
神经	-737
官员	-738
系列	-739
作品	-740
保证	-741
进行了	-742
恢复	-743
做的	-744
照片	-745
妻子	-746
广泛	-747
探讨	-748
德国	-749
不到	-750
快速	-751
时代	-752
实际上	-753
对象	-754
往往	-755
加入	-756
法国	-757
进一步	-758
看看	-759
软件	-760
面对	-761
处于	-762
现实	-763
三个	-764
观点	-765
设置	-766
今年	-767
有着	-768
让你	-769
尤其	-770
创建	-771
阶段	-772
越来	-773
代码	-774
后的	-775
越来越	-776
时期	-777
le	-778
回到	-779
正常	-780
▁这是	-781
特征	-782
难以	-783
科学家	-784
怎样	-785
专业	-786
部门	-787
at	-788
满足	-789
上去	-790
例如	-791
不得不	-792
名字	-793
失去	-794
就在	-795
破坏	-796
从而	-797
年前	-798
报道	-799
身上	-800
一条	-801
确保	-802
数字	-803
困难	-804
食品	-805
女孩	-806
我在	-807
患者	-808
的主要	-809
一天	-810
规模	-811
心理	-812
概念	-813
▁然后	-814
文章	-815
肯定	-816
毫无	-817
民主	-818
电脑	-819
分钟	-820
办公	-821
让人	-822
的地	-823
坐在	-824
基因	-825
巨大的	-826
攻击	-827
时的	-828
▁他的	-829
拒绝	-830
确实	-831
她们	-832
只要	-833
事实上	-834
痛苦	-835
自动	-836
威胁	-837
根本	-838
有可能	-839
机器	-840
自我	-841
资金	-842
独立	-843
共同	-844
名的	-845
体系	-846
公共	-847
al	-848
伦敦	-849
常常	-850
那种	-851
分子	-852
▁研究	-853
现象	-854
移动	-855
周围	-856
?”	-857
广告	-858
兴趣	-859
贸易	-860
儿子	-861
负责	-862
组成	-863
再次	-864
特殊	-865
▁以	-866
快乐	-867
高兴	-868
的不	-869
▁第	-870
坚持	-871
化学	-872
▁据	-873
大量	-874
的主	-875
▁上	-876
把它	-877
取得	-878
英语	-879
挑战	-880
▁随着	-881
新闻	-882
50	-883
金属	-884
一个人	-885
承认	-886
心的	-887
斯坦	-888
也可以	-889
收入	-890
......	-891
检测	-892
手术	-893
普通	-894
真实	-895
房间	-896
团队	-897
子里	-898
访问	-899
后来	-900
衣服	-901
训练	-902
病毒	-903
办法	-904
很难	-905
装置	-906
这次	-907
媒体	-908
结合	-909
指出	-910
上了	-911
一家	-912
系统的	-913
委员	-914
听到	-915
习惯	-916
面临	-917
当然	-918
失败	-919
最大的	-920
想象	-921
基于	-922
纽约	-923
员工	-924
的高	-925
的生活	-926
▁当然	-927
儿童	-928
皮肤	-929
欢迎	-930
工业	-931
给我	-932
缺乏	-933
迅速	-934
专家	-935
打开	-936
动力	-937
属于	-938
应当	-939
巴马	-940
性和	-941
带着	-942
尼亚	-943
协议	-944
制作	-945
年来	-946
看来	-947
相同	-948
葡萄	-949
如今	-950
12	-951
某种	-952
以为	-953
▁结果	-954
的一部分	-955
制度	-956
es	-957
有时	-958
是因为	-959
见的	-960
明白	-961
你会	-962
本身	-963
安装	-964
混合	-965
物的	-966
大部分	-967
我会	-968
看着	-969
每天	-970
西方	-971
元素	-972
回答	-973
可以在	-974
人士	-975
生的	-976
警察	-977
土地	-978
服务器	-979
购买	-980
一年	-981
说的	-982
权利	-983
晚上	-984
改革	-985
规定	-986
相对	-987
美丽	-988
孩子们	-989
▁同时	-990
数量	-991
放弃	-992
状况	-993
适合	-994
让我们	-995
针对	-996
人在	-997
▁为	-998
意思	-999
情绪	-1000
职业	-1001
里面	-1002
ic	-1003
在于	-1004
最好的	-1005
之中	-1006
妇女	-1007
信号	-1008
规则	-1009
丰富	-1010
平衡	-1011
不仅	-1012
也没有	-1013
调整	-1014
这位	-1015
临床	-1016
俄罗斯	-1017
的重要	-1018
建设	-1019
内的	-1020
比如	-1021
积极	-1022
工艺	-1023
感染	-1024
基督	-1025
强烈	-1026
图像	-1027
添加	-1028
奥巴马	-1029
停止	-1030
能量	-1031
计算机	-1032
内部	-1033
都有	-1034
我不	-1035
供应	-1036
委员会	-1037
利益	-1038
就能	-1039
也有	-1040
国的	-1041
拉克	-1042
角色	-1043
氧化	-1044
的原因	-1045
30	-1046
是由	-1047
并非	-1048
怀疑	-1049
站在	-1050
做出	-1051
面前	-1052
合理	-1053
态度	-1054
展示	-1055
外的	-1056
真正的	-1057
特点	-1058
值得	-1059
实施	-1060
下降	-1061
世界上	-1062
el	-1063
▁我的	-1064
手机	-1065
提供了	-1066
污染	-1067
个月	-1068
斯特	-1069
▁此外	-1070
蛋白	-1071
从来	-1072
▁所	-1073
将在	-1074
过的	-1075
全部	-1076
药物	-1077
▁这样	-1078
对我	-1079
玻璃	-1080
改善	-1081
男孩	-1082
出去	-1083
一致	-1084
同意	-1085
都在	-1086
给你	-1087
邮件	-1088
投资者	-1089
距离	-1090
完美	-1091
刺激	-1092
颜色	-1093
策略	-1094
中国的	-1095
卫生	-1096
多么	-1097
旅行	-1098
道德	-1099
伤害	-1100
在我	-1101
▁用	-1102
咖啡	-1103
预测	-1104
但我	-1105
资产	-1106
18	-1107
it	-1108
理想	-1109
上面	-1110
格兰	-1111
接触	-1112
参数	-1113
的一种	-1114
货币	-1115
出口	-1116
是我	-1117
▁一些	-1118
北京	-1119
特性	-1120
来到	-1121
式的	-1122
约翰	-1123
色列	-1124
基金	-1125
明的	-1126
国内	-1127
石油	-1128
发出	-1129
▁小	-1130
相比	-1131
费用	-1132
民族	-1133
会在	-1134
问题的	-1135
宗教	-1136
理由	-1137
办公室	-1138
很少	-1139
温度	-1140
年代	-1141
角度	-1142
▁根据	-1143
早期	-1144
黑暗	-1145
酒店	-1146
▁您	-1147
是对	-1148
ac	-1149
下去	-1150
测量	-1151
15	-1152
上升	-1153
思考	-1154
器的	-1155
相反	-1156
第一次	-1157
的心	-1158
的水	-1159
资料	-1160
在他	-1161
依然	-1162
件事	-1163
我就	-1164
享受	-1165
和平	-1166
丈夫	-1167
和其他	-1168
亚洲	-1169
证据	-1170
批评	-1171
在这个	-1172
和华	-1173
请求	-1174
耶稣	-1175
手段	-1176
公众	-1177
的结果	-1178
名称	-1179
头发	-1180
相互	-1181
地的	-1182
穿着	-1183
女儿	-1184
是最	-1185
评价	-1186
申请	-1187
自身	-1188
适应	-1189
数据库	-1190
道路	-1191
中间	-1192
风格	-1193
▁将	-1194
等待	-1195
是什么	-1196
的天	-1197
阅读	-1198
老师	-1199
评估	-1200
资本	-1201
很好	-1202
贷款	-1203
很容易	-1204
纤维	-1205
国家的	-1206
接近	-1207
飞行	-1208
病人	-1209
气候	-1210
逐渐	-1211
幸福	-1212
普遍	-1213
的前	-1214
▁目前	-1215
医疗	-1216
而不	-1217
▁即使	-1218
动的	-1219
11	-1220
不足	-1221
某个	-1222
课程	-1223
财政	-1224
集团	-1225
地位	-1226
支付	-1227
选举	-1228
很有	-1229
简单的	-1230
大利	-1231
安排	-1232
每一个	-1233
开放	-1234
方的	-1235
了他	-1236
这一点	-1237
消失	-1238
集中	-1239
的外	-1240
补充	-1241
会有	-1242
传播	-1243
am	-1244
将其	-1245
这项	-1246
第一个	-1247
保险	-1248
其实	-1249
还没有	-1250
▁是	-1251
苹果	-1252
▁结论	-1253
▁第二	-1254
他是	-1255
来看	-1256
机制	-1257
都不	-1258
意识到	-1259
的海	-1260
我是	-1261
发布	-1262
家的	-1263
岁的	-1264
冲突	-1265
债务	-1266
ro	-1267
为止	-1268
呼吸	-1269
两种	-1270
记者	-1271
耶和华	-1272
更为	-1273
依赖	-1274
损失	-1275
is	-1276
医院	-1277
机械	-1278
留下	-1279
宣布	-1280
▁而且	-1281
充分	-1282
方面的	-1283
特的	-1284
经理	-1285
形象	-1286
算法	-1287
合同	-1288
一场	-1289
分布	-1290
说话	-1291
准确	-1292
发表	-1293
我要	-1294
原则	-1295
显得	-1296
100	-1297
意大利	-1298
武器	-1299
生长	-1300
非洲	-1301
看上去	-1302
它是	-1303
优势	-1304
明确	-1305
过来	-1306
说道	-1307
记忆	-1308
良好的	-1309
诊断	-1310
型的	-1311
eb	-1312
你在	-1313
一段	-1314
▁今天	-1315
使用的	-1316
▁没有	-1317
有限	-1318
教学	-1319
能源	-1320
大约	-1321
▁人们	-1322
想到	-1323
组合	-1324
给他	-1325
很大	-1326
它们的	-1327
比亚	-1328
让他	-1329
交通	-1330
公开	-1331
共和	-1332
恐惧	-1333
以色列	-1334
显然	-1335
▁新	-1336
一项	-1337
几天	-1338
对手	-1339
紧张	-1340
▁许多	-1341
学院	-1342
阳光	-1343
赢得	-1344
梦想	-1345
承诺	-1346
营养	-1347
身份	-1348
助于	-1349
固定	-1350
配置	-1351
防止	-1352
以便	-1353
房子	-1354
旅游	-1355
军队	-1356
评论	-1357
加工	-1358
et	-1359
最好	-1360
核心	-1361
实践	-1362
提升	-1363
符合	-1364
一份	-1365
商品	-1366
希腊	-1367
美国的	-1368
▁请	-1369
提出了	-1370
球员	-1371
出现在	-1372
标志	-1373
对此	-1374
▁另外	-1375
!”	-1376
即将	-1377
方便	-1378
当前	-1379
给予	-1380
犯罪	-1381
教授	-1382
详细	-1383
转换	-1384
差异	-1385
告诉我	-1386
命令	-1387
输入	-1388
障碍	-1389
到达	-1390
模拟	-1391
警告	-1392
感谢	-1393
举行	-1394
人口	-1395
趋势	-1396
垃圾	-1397
接着	-1398
打算	-1399
完整	-1400
覆盖	-1401
军事	-1402
人和	-1403
会的	-1404
最大	-1405
促进	-1406
还要	-1407
经营	-1408
不可能	-1409
动作	-1410
引发	-1411
联邦	-1412
住在	-1413
▁就	-1414
回来	-1415
存储	-1416
有了	-1417
陷入	-1418
记得	-1419
心脏	-1420
背景	-1421
居民	-1422
的那	-1423
品牌	-1424
显著	-1425
之外	-1426
▁可	-1427
老板	-1428
更好	-1429
森林	-1430
地说	-1431
战略	-1432
物理	-1433
综合	-1434
的情况下	-1435
阻止	-1436
被认为	-1437
表演	-1438
寻求	-1439
释放	-1440
交流	-1441
在地	-1442
大脑	-1443
恐怖	-1444
加强	-1445
红色	-1446
来源	-1447
有所	-1448
效率	-1449
动机	-1450
意见	-1451
你就	-1452
oo	-1453
反映	-1454
可靠	-1455
公园	-1456
在那里	-1457
不管	-1458
全国	-1459
否则	-1460
装饰	-1461
正是	-1462
其他的	-1463
一张	-1464
消费者	-1465
一边	-1466
灵魂	-1467
统治	-1468
做了	-1469
的日	-1470
边缘	-1471
的行为	-1472
函数	-1473
带来的	-1474
的国家	-1475
▁事实上	-1476
家里	-1477
热情	-1478
涉及	-1479
博士	-1480
袭击	-1481
▁无论	-1482
是有	-1483
培养	-1484
鼓励	-1485
强调	-1486
▁这一	-1487
渴望	-1488
流行	-1489
体育	-1490
维持	-1491
她说	-1492
巨大	-1493
的经济	-1494
工厂	-1495
属性	-1496
版本	-1497
循环	-1498
你知道	-1499
十年	-1500
的人们	-1501
追求	-1502
指导	-1503
本书	-1504
在的	-1505
权力	-1506
一件	-1507
路上	-1508
给了	-1509
倾向	-1510
▁高	-1511
学的	-1512
生存	-1513
亮的	-1514
单位	-1515
成熟	-1516
绝对	-1517
视为	-1518
出来的	-1519
产生的	-1520
运用	-1521
例子	-1522
指定	-1523
科技	-1524
▁首先	-1525
收集	-1526
满意	-1527
过了	-1528
连续	-1529
改进	-1530
利的	-1531
阿拉	-1532
宇宙	-1533
每年	-1534
假如	-1535
搜索	-1536
国王	-1537
去了	-1538
大量的	-1539
除非	-1540
▁下	-1541
害怕	-1542
秘密	-1543
糟糕	-1544
好了	-1545
多个	-1546
航空	-1547
的一切	-1548
创新	-1549
的情况	-1550
出版	-1551
起了	-1552
转移	-1553
句话	-1554
具体	-1555
几年	-1556
的能力	-1557
男性	-1558
修改	-1559
▁《	-1560
产业	-1561
战斗	-1562
发言	-1563
一块	-1564
症状	-1565
立即	-1566
遇到	-1567
有效的	-1568
斯的	-1569
社区	-1570
▁当你	-1571
不错	-1572
▁马	-1573
可怕	-1574
生态	-1575
伟大的	-1576
教堂	-1577
设施	-1578
制定	-1579
天的	-1580
合适	-1581
奇怪	-1582
班牙	-1583
年龄	-1584
西班牙	-1585
别的	-1586
女士	-1587
一旦	-1588
分配	-1589
法院	-1590
和一个	-1591
圣诞	-1592
声明	-1593
样的	-1594
il	-1595
re	-1596
相似	-1597
杰克	-1598
尤其是	-1599
去年	-1600
绿色	-1601
▁其中	-1602
在这里	-1603
as	-1604
做法	-1605
男子	-1606
很好的	-1607
分离	-1608
回家	-1609
和我	-1610
▁也许	-1611
走了	-1612
▁我想	-1613
代理	-1614
以上	-1615
出生	-1616
婚姻	-1617
图片	-1618
终于	-1619
球队	-1620
同事	-1621
如同	-1622
婴儿	-1623
?。	-1624
旋转	-1625
伊拉克	-1626
得到了	-1627
禁止	-1628
验证	-1629
类的	-1630
不需要	-1631
规范	-1632
谈判	-1633
爆炸	-1634
的关系	-1635
还在	-1636
对其	-1637
打击	-1638
40	-1639
慢慢	-1640
吸收	-1641
在你	-1642
我也	-1643
伊朗	-1644
正如	-1645
的成	-1646
特别是	-1647
重复	-1648
获取	-1649
▁使用	-1650
▁有些	-1651
作出	-1652
有趣	-1653
保留	-1654
海洋	-1655
正确的	-1656
造成的	-1657
从未	-1658
但他	-1659
你是	-1660
律师	-1661
▁所有	-1662
州的	-1663
第三	-1664
财富	-1665
麻烦	-1666
的信息	-1667
就要	-1668
工作的	-1669
判断	-1670
抑制	-1671
按照	-1672
细节	-1673
的声音	-1674
他们在	-1675
盛顿	-1676
边的	-1677
百万	-1678
包装	-1679
投入	-1680
带有	-1681
统计	-1682
者们	-1683
是为了	-1684
双方	-1685
测定	-1686
▁不要	-1687
发挥	-1688
股票	-1689
的发展	-1690
严格	-1691
推动	-1692
你们的	-1693
工人	-1694
纪念	-1695
期望	-1696
灾难	-1697
有什么	-1698
上述	-1699
形状	-1700
小说	-1701
平均	-1702
礼物	-1703
维护	-1704
的手	-1705
子上	-1706
生活的	-1707
和他	-1708
%。	-1709
流动	-1710
白色	-1711
有助于	-1712
兄弟	-1713
联盟	-1714
私人	-1715
199	-1716
强的	-1717
爱情	-1718
将是	-1719
杂志	-1720
革命	-1721
愤怒	-1722
在美国	-1723
程度上	-1724
没有任何	-1725
加拿	-1726
刚刚	-1727
周期	-1728
▁于是	-1729
特定	-1730
的感觉	-1731
伙伴	-1732
象征	-1733
把他	-1734
色彩	-1735
那儿	-1736
外国	-1737
实在	-1738
并在	-1739
监管	-1740
统一	-1741
和他的	-1742
主题	-1743
整体	-1744
着一	-1745
空中	-1746
面包	-1747
般的	-1748
不想	-1749
制的	-1750
当你	-1751
种族	-1752
的所有	-1753
异常	-1754
返回	-1755
文学	-1756
我们在	-1757
住了	-1758
兴奋	-1759
法的	-1760
休息	-1761
能在	-1762
最佳	-1763
通知	-1764
的信	-1765
适当	-1766
华盛顿	-1767
成为一个	-1768
体验	-1769
罗马	-1770
估计	-1771
大型	-1772
效应	-1773
来了	-1774
▁你们	-1775
领导人	-1776
国会	-1777
最高	-1778
观众	-1779
塑料	-1780
农民	-1781
小心	-1782
情感	-1783
有个	-1784
结婚	-1785
不起	-1786
脂肪	-1787
▁两	-1788
。“	-1789
分享	-1790
逻辑	-1791
土壤	-1792
的基础	-1793
不知	-1794
地震	-1795
扩展	-1796
气体	-1797
事业	-1798
投票	-1799
敏感	-1800
转变	-1801
俱乐	-1802
顾客	-1803
的确	-1804
运输	-1805
不在	-1806
克斯	-1807
后面	-1808
更好的	-1809
布什	-1810
关闭	-1811
承担	-1812
年轻人	-1813
中央	-1814
好处	-1815
启动	-1816
翻译	-1817
感情	-1818
真是	-1819
随后	-1820
清洁	-1821
少数	-1822
正式	-1823
农业	-1824
▁她说	-1825
所谓	-1826
16	-1827
期待	-1828
了一些	-1829
会上	-1830
神秘	-1831
重的	-1832
对他	-1833
被称为	-1834
那时	-1835
心里	-1836
ion	-1837
▁一位	-1838
埃及	-1839
朝鲜	-1840
混乱	-1841
熟悉	-1842
邀请	-1843
马上	-1844
扩大	-1845
视频	-1846
文本	-1847
智慧	-1848
构成	-1849
议员	-1850
轻松	-1851
美国人	-1852
商店	-1853
答案	-1854
都要	-1855
事务	-1856
仿佛	-1857
行星	-1858
到底	-1859
一片	-1860
预期	-1861
有多	-1862
部队	-1863
传统的	-1864
不用	-1865
免疫	-1866
时刻	-1867
也就是	-1868
这场	-1869
暴力	-1870
高度	-1871
移民	-1872
▁例如	-1873
对你	-1874
这个问题	-1875
ML	-1876
因为他	-1877
作家	-1878
彻底	-1879
驾驶	-1880
互联	-1881
我认为	-1882
即便	-1883
取决	-1884
世界的	-1885
▁若	-1886
应对	-1887
花园	-1888
抗议	-1889
进了	-1890
上海	-1891
穿过	-1892
预计	-1893
天然	-1894
可能性	-1895
不久	-1896
教师	-1897
是一位	-1898
演讲	-1899
作为一个	-1900
疑问	-1901
技能	-1902
欧盟	-1903
的家	-1904
预防	-1905
▁那些	-1906
印象	-1907
更新	-1908
肌肉	-1909
花费	-1910
调用	-1911
你要	-1912
左右	-1913
模糊	-1914
发送	-1915
机的	-1916
长时间	-1917
含量	-1918
建造	-1919
取决于	-1920
样子	-1921
清晰	-1922
缺陷	-1923
生成	-1924
▁可以	-1925
联合国	-1926
一直在	-1927
其他人	-1928
途径	-1929
不安	-1930
会儿	-1931
欧元	-1932
声称	-1933
少年	-1934
进展	-1935
的光	-1936
胜利	-1937
仅仅是	-1938
的重	-1939
这样做	-1940
微笑	-1941
黑色	-1942
公平	-1943
确认	-1944
面上	-1945
进程	-1946
还可以	-1947
亿美元	-1948
动态	-1949
形态	-1950
组件	-1951
▁一种	-1952
严重的	-1953
展开	-1954
质的	-1955
到一个	-1956
▁我们的	-1957
士兵	-1958
始终	-1959
文档	-1960
自行	-1961
假设	-1962
演员	-1963
燃料	-1964
不了	-1965
免费	-1966
增强	-1967
成功	-1968
▁这位	-1969
含有	-1970
字符	-1971
报纸	-1972
拍摄	-1973
主义者	-1974
平台	-1975
感受	-1976
损害	-1977
证实	-1978
血管	-1979
还会	-1980
那是	-1981
每次	-1982
下一	-1983
当中	-1984
地区的	-1985
沿着	-1986
现场	-1987
编辑	-1988
的机会	-1989
传递	-1990
消除	-1991
燃烧	-1992
回忆	-1993
分别	-1994
25	-1995
告诉你	-1996
预算	-1997
发现了	-1998
各个	-1999
法庭	-2000
互联网	-2001
火车	-2002
▁人	-2003
;;	-2004
衰退	-2005
说法	-2006
优化	-2007
作者	-2008
至于	-2009
识别	-2010
▁英国	-2011
观念	-2012
间的	-2013
属行业	-2014
ch	-2015
om	-2016
前的	-2017
没有人	-2018
▁所属行业	-2019
哪里	-2020
▁每个	-2021
愉快	-2022
成分	-2023
▁如	-2024
运动员	-2025
外交	-2026
小组	-2027
让他们	-2028
很大的	-2029
强度	-2030
也在	-2031
▁除了	-2032
两年	-2033
使他	-2034
学会	-2035
毕业	-2036
对待	-2037
幸运	-2038
节目	-2039
敌人	-2040
良好	-2041
水的	-2042
说他	-2043
里斯	-2044
▁它们	-2045
成长	-2046
爆发	-2047
你能	-2048
有很多	-2049
尔斯	-2050
探索	-2051
看法	-2052
点的	-2053
共和党	-2054
优秀	-2055
海岸	-2056
见到	-2057
人物	-2058
提醒	-2059
服装	-2060
细菌	-2061
血液	-2062
的设计	-2063
事故	-2064
天气	-2065
比例	-2066
介绍了	-2067
大小	-2068
宣传	-2069
争议	-2070
下面	-2071
▁一旦	-2072
做到	-2073
不太	-2074
发生在	-2075
舒适	-2076
身边	-2077
几个月	-2078
加拿大	-2079
味道	-2080
技巧	-2081
▁还有	-2082
ad	-2083
呈现	-2084
子和	-2085
记住	-2086
中最	-2087
奥运	-2088
对话	-2089
一样的	-2090
天空	-2091
地上	-2092
规划	-2093
足以	-2094
意的	-2095
都没有	-2096
这是一个	-2097
每一	-2098
发生了	-2099
培训	-2100
构建	-2101
过去的	-2102
放松	-2103
月份	-2104
饮食	-2105
这就是	-2106
信任	-2107
了他的	-2108
形的	-2109
忘记	-2110
▁方法	-2111
复制	-2112
相应	-2113
古老	-2114
尔的	-2115
的世界	-2116
夫人	-2117
从事	-2118
他就	-2119
也不会	-2120
过于	-2121
存在的	-2122
解决方案	-2123
出售	-2124
所需	-2125
遗传	-2126
公民	-2127
利润	-2128
和你	-2129
是不是	-2130
足够的	-2131
之处	-2132
本文	-2133
出于	-2134
指标	-2135
在他的	-2136
掌握	-2137
的作用	-2138
都可以	-2139
疯狂	-2140
av	-2141
协调	-2142
数学	-2143
进步	-2144
民主党	-2145
▁由	-2146
都能	-2147
仔细	-2148
列表	-2149
▁多	-2150
抱怨	-2151
▁公司	-2152
可能的	-2153
太多	-2154
提取	-2155
深入	-2156
达成	-2157
注意到	-2158
灵活	-2159
之下	-2160
的老	-2161
原始	-2162
发明	-2163
彼此	-2164
驱动	-2165
输出	-2166
的数据	-2167
60	-2168
上一	-2169
太太	-2170
我们可以	-2171
练习	-2172
读者	-2173
肿瘤	-2174
000	-2175
17	-2176
的可	-2177
▁当我	-2178
us	-2179
ter	-2180
失望	-2181
董事	-2182
参考	-2183
会被	-2184
保存	-2185
Web	-2186
▁到	-2187
主义的	-2188
有机	-2189
贵的	-2190
当我	-2191
流程	-2192
发生的	-2193
复杂的	-2194
叫做	-2195
收益	-2196
我们将	-2197
韩国	-2198
道的	-2199
定位	-2200
大利亚	-2201
信仰	-2202
机场	-2203
唯一的	-2204
地下	-2205
我可以	-2206
居住	-2207
▁他在	-2208
澳大利亚	-2209
也能	-2210
拉斯	-2211
爸爸	-2212
有利	-2213
警方	-2214
▁前	-2215
创作	-2216
查看	-2217
俱乐部	-2218
浪费	-2219
这类	-2220
争论	-2221
像是	-2222
富有	-2223
得以	-2224
知的	-2225
发射	-2226
最初	-2227
明显的	-2228
必要的	-2229
保守	-2230
收到	-2231
框架	-2232
深刻	-2233
犹太	-2234
那就是	-2235
留在	-2236
矛盾	-2237
使其	-2238
足球	-2239
图书	-2240
她在	-2241
公路	-2242
医学	-2243
的任何	-2244
这样一个	-2245
乐观	-2246
分之一	-2247
二十	-2248
原子	-2249
原理	-2250
首次	-2251
思维	-2252
试着	-2253
▁不管	-2254
看到了	-2255
单独	-2256
四个	-2257
家人	-2258
谈论	-2259
了我	-2260
论文	-2261
加上	-2262
屏幕	-2263
强大的	-2264
同样的	-2265
NA	-2266
早上	-2267
还不	-2268
信心	-2269
修复	-2270
冲击	-2271
是很	-2272
政府的	-2273
合物	-2274
更改	-2275
您可以	-2276
▁近	-2277
游客	-2278
下来的	-2279
我觉得	-2280
下了	-2281
遭受	-2282
▁你的	-2283
体现	-2284
债券	-2285
大陆	-2286
无疑	-2287
物品	-2288
调节	-2289
英雄	-2290
13	-2291
我说	-2292
电池	-2293
因为它	-2294
极端	-2295
人说	-2296
行政	-2297
多种	-2298
发展的	-2299
ol	-2300
南部	-2301
惊讶	-2302
相关的	-2303
▁可是	-2304
摄影	-2305
权的	-2306
头上	-2307
标记	-2308
种植	-2309
14	-2310
疼痛	-2311
你所	-2312
关心	-2313
担忧	-2314
文字	-2315
而非	-2316
的故事	-2317
损伤	-2318
阶级	-2319
▁你可以	-2320
这一切	-2321
似的	-2322
精确	-2323
重大	-2324
决策	-2325
出现了	-2326
生活中	-2327
交换	-2328
信用	-2329
削减	-2330
部长	-2331
高速	-2332
命运	-2333
”(	-2334
类型的	-2335
专门	-2336
膨胀	-2337
走向	-2338
适用于	-2339
使我	-2340
劳动	-2341
激烈	-2342
下一个	-2343
实验室	-2344
取消	-2345
同一	-2346
香港	-2347
ing	-2348
名为	-2349
摆脱	-2350
步骤	-2351
的气	-2352
把我	-2353
马克	-2354
▁(	-2355
开了	-2356
谨慎	-2357
受伤	-2358
头的	-2359
完善	-2360
层的	-2361
规律	-2362
贡献	-2363
工资	-2364
结果表明	-2365
平静	-2366
下午	-2367
冒险	-2368
竞选	-2369
美的	-2370
▁任何	-2371
前面	-2372
我很	-2373
我知道	-2374
▁利用	-2375
上下	-2376
等等	-2377
旁边	-2378
分类	-2379
因而	-2380
轨道	-2381
他人	-2382
成就	-2383
替代	-2384
辐射	-2385
他会	-2386
他对	-2387
力和	-2388
各国	-2389
出一	-2390
扮演	-2391
排放	-2392
进口	-2393
市场的	-2394
是非常	-2395
采访	-2396
80	-2397
睡眠	-2398
著名的	-2399
不多	-2400
的热	-2401
艰难	-2402
ur	-2403
对方	-2404
故障	-2405
游泳	-2406
而已	-2407
感兴趣	-2408
依据	-2409
在此	-2410
▁在这	-2411
未来的	-2412
的目标	-2413
品质	-2414
墨西	-2415
是你	-2416
找到了	-2417
是如何	-2418
▁海	-2419
物种	-2420
选项	-2421
▁很多	-2422
跟踪	-2423
后果	-2424
日常	-2425
单元	-2426
提到	-2427
目录	-2428
转向	-2429
墨西哥	-2430
聪明	-2431
超级	-2432
全面	-2433
火山	-2434
靠近	-2435
阿拉伯	-2436
一定要	-2437
关节	-2438
复合	-2439
指控	-2440
是从	-2441
沟通	-2442
网上	-2443
脸上	-2444
在大	-2445
夏天	-2446
还能	-2447
基地	-2448
温暖	-2449
▁在这个	-2450
抓住	-2451
的好	-2452
更大的	-2453
岩石	-2454
影片	-2455
谈话	-2456
谷歌	-2457
餐厅	-2458
伊斯	-2459
冠军	-2460
当作	-2461
立刻	-2462
相同的	-2463
美丽的	-2464
姑娘	-2465
民众	-2466
指示	-2467
黄金	-2468
受欢迎	-2469
原来	-2470
复苏	-2471
注册	-2472
但它	-2473
实例	-2474
英里	-2475
远的	-2476
区的	-2477
批准	-2478
利率	-2479
厨房	-2480
得多	-2481
房屋	-2482
高级	-2483
依靠	-2484
清单	-2485
打电话	-2486
英格兰	-2487
新鲜	-2488
玉米	-2489
满了	-2490
候选	-2491
性质	-2492
斯科	-2493
缓慢	-2494
需要的	-2495
着的	-2496
讨厌	-2497
▁采用	-2498
庆祝	-2499
产品的	-2500
有一些	-2501
和谐	-2502
回应	-2503
频率	-2504
在中国	-2505
内心	-2506
成立	-2507
▁布	-2508
场景	-2509
玩具	-2510
不好	-2511
外面	-2512
引导	-2513
蓝色	-2514
设计的	-2515
心灵	-2516
富汗	-2517
手指	-2518
检验	-2519
提供的	-2520
代价	-2521
法官	-2522
过度	-2523
阿富汗	-2524
本质	-2525
▁卡	-2526
惩罚	-2527
部件	-2528
威尔	-2529
引擎	-2530
疫苗	-2531
▁她的	-2532
上涨	-2533
不良	-2534
做好	-2535
和一	-2536
隐藏	-2537
暗示	-2538
更有	-2539
▁如今	-2540
财产	-2541
很可能	-2542
时间的	-2543
以下	-2544
▁关于	-2545
购物	-2546
一周	-2547
地面	-2548
将被	-2549
浪漫	-2550
财务	-2551
丰富的	-2552
ed	-2553
同性	-2554
却是	-2555
围绕	-2556
斗争	-2557
考试	-2558
主席	-2559
处的	-2560
极其	-2561
的爱	-2562
官方	-2563
临时	-2564
现金	-2565
睡觉	-2566
自信	-2567
视觉	-2568
迹象	-2569
到来	-2570
的无	-2571
泡沫	-2572
走到	-2573
我对	-2574
援助	-2575
立法	-2576
每个人都	-2577
地产	-2578
英尺	-2579
链接	-2580
全世界	-2581
哪些	-2582
尊重	-2583
线的	-2584
▁通常	-2585
司机	-2586
出一个	-2587
不停	-2588
外部	-2589
干燥	-2590
取代	-2591
回报	-2592
太空	-2593
▁三	-2594
情的	-2595
及时	-2596
台湾	-2597
尽量	-2598
扫描	-2599
液体	-2600
从来没有	-2601
▁克	-2602
头脑	-2603
遭到	-2604
铁路	-2605
使你	-2606
约束	-2607
日益	-2608
远离	-2609
尺寸	-2610
毫不	-2611
通用	-2612
孩子的	-2613
走进	-2614
▁就像	-2615
帝国	-2616
意外	-2617
承受	-2618
指责	-2619
失业	-2620
支撑	-2621
部位	-2622
哲学	-2623
期的	-2624
病的	-2625
老人	-2626
娱乐	-2627
层次	-2628
开展	-2629
本地	-2630
紧急	-2631
作业	-2632
巴基	-2633
气的	-2634
▁假如	-2635
年轻的	-2636
公布	-2637
我能	-2638
让她	-2639
▁那么	-2640
床上	-2641
得很	-2642
担任	-2643
聚集	-2644
谢谢	-2645
车辆	-2646
但在	-2647
小孩	-2648
我将	-2649
已经被	-2650
有一种	-2651
掉了	-2652
页面	-2653
独特的	-2654
un	-2655
农村	-2656
随时	-2657
领袖	-2658
因为他们	-2659
保障	-2660
标签	-2661
死了	-2662
博物	-2663
否认	-2664
是他	-2665
是我们	-2666
区别	-2667
提交	-2668
透露	-2669
通信	-2670
主人	-2671
讲话	-2672
我国	-2673
▁和	-2674
合成	-2675
团体	-2676
干净	-2677
超越	-2678
可以通过	-2679
愚蠢	-2680
教练	-2681
北部	-2682
的一些	-2683
巴基斯坦	-2684
理念	-2685
▁如果您	-2686
各地	-2687
长度	-2688
▁很	-2689
圣经	-2690
场的	-2691
大概	-2692
法案	-2693
克尔	-2694
加速	-2695
周末	-2696
不幸	-2697
匹配	-2698
困境	-2699
性格	-2700
蔬菜	-2701
繁荣	-2702
巴西	-2703
没有什么	-2704
仪式	-2705
压缩	-2706
管道	-2707
群体	-2708
人生	-2709
前往	-2710
同学	-2711
的神	-2712
干扰	-2713
激光	-2714
贫困	-2715
ow	-2716
说过	-2717
▁经过	-2718
动脉	-2719
收购	-2720
牛奶	-2721
成为了	-2722
们的	-2723
则是	-2724
数的	-2725
欣赏	-2726
货物	-2727
在其	-2728
我所	-2729
石头	-2730
赛季	-2731
看到的	-2732
咨询	-2733
说服	-2734
的环境	-2735
小姐	-2736
格式	-2737
牧师	-2738
变成了	-2739
玛丽	-2740
明天	-2741
简直	-2742
关联	-2743
明星	-2744
美洲	-2745
进的	-2746
重点	-2747
应用于	-2748
多年	-2749
的位置	-2750
功能	-2751
已被	-2752
是指	-2753
▁哈	-2754
互相	-2755
博客	-2756
查询	-2757
案件	-2758
但这	-2759
分裂	-2760
只会	-2761
日的	-2762
id	-2763
对抗	-2764
职位	-2765
引起的	-2766
该公司	-2767
90	-2768
为你	-2769
项目的	-2770
对比	-2771
尚未	-2772
轻轻	-2773
青年	-2774
多样	-2775
在线	-2776
机器人	-2777
st	-2778
▁好	-2779
▁更	-2780
不必	-2781
前景	-2782
打破	-2783
电子邮件	-2784
勇气	-2785
博物馆	-2786
去看	-2787
深深	-2788
毫无疑问	-2789
勇敢	-2790
阿尔	-2791
▁这里	-2792
的形式	-2793
人体	-2794
水果	-2795
温和	-2796
社交	-2797
诉讼	-2798
认真	-2799
选民	-2800
但是我	-2801
接下来	-2802
的风险	-2803
构造	-2804
酒吧	-2805
至今	-2806
运作	-2807
生命的	-2808
疗效	-2809
中有	-2810
乔治	-2811
减轻	-2812
忽视	-2813
的书	-2814
金钱	-2815
会计	-2816
教会	-2817
注射	-2818
给她	-2819
St	-2820
尔德	-2821
精力	-2822
西亚	-2823
卫星	-2824
既然	-2825
时尚	-2826
邻居	-2827
错误的	-2828
70	-2829
人群	-2830
必然	-2831
进行的	-2832
%,	-2833
激励	-2834
许可	-2835
都很	-2836
给我们	-2837
写作	-2838
观看	-2839
过滤	-2840
向前	-2841
早晨	-2842
饮料	-2843
拯救	-2844
获得了	-2845
也要	-2846
优先	-2847
合并	-2848
所在	-2849
一个小	-2850
发电	-2851
学术	-2852
审查	-2853
密切	-2854
虚拟	-2855
贝尔	-2856
段时间	-2857
另一种	-2858
成年	-2859
广泛的	-2860
决心	-2861
接收	-2862
通道	-2863
开心	-2864
护理	-2865
智能	-2866
面积	-2867
---	-2868
安静	-2869
携带	-2870
监督	-2871
▁后来	-2872
人工	-2873
冷却	-2874
发育	-2875
久的	-2876
广播	-2877
生素	-2878
重建	-2879
生活在	-2880
不少	-2881
地址	-2882
一部分	-2883
具备	-2884
啤酒	-2885
因为我	-2886
的关键	-2887
▁实际上	-2888
中所	-2889
家族	-2890
转化	-2891
的中	-2892
准备好	-2893
平等	-2894
设法	-2895
一些人	-2896
▁大多数	-2897
众多	-2898
海军	-2899
▁我在	-2900
的内容	-2901
目的是	-2902
自行车	-2903
受害	-2904
尼斯	-2905
板上	-2906
继承	-2907
缺少	-2908
非法	-2909
人类的	-2910
尽可能	-2911
或其他	-2912
底部	-2913
消化	-2914
讲述	-2915
ot	-2916
场所	-2917
无限	-2918
要在	-2919
▁相反	-2920
喜欢的	-2921
季节	-2922
离子	-2923
颗粒	-2924
▁那个	-2925
激素	-2926
牺牲	-2927
到处	-2928
神的	-2929
阻碍	-2930
加以	-2931
孤独	-2932
引用	-2933
消耗	-2934
那就	-2935
范围内	-2936
响应	-2937
水中	-2938
资格	-2939
都被	-2940
伊斯兰	-2941
或者是	-2942
一半	-2943
大幅	-2944
尔夫	-2945
就业	-2946
本来	-2947
主要的	-2948
被认为是	-2949
室内	-2950
的孩子	-2951
负担	-2952
门口	-2953
以至于	-2954
强烈的	-2955
▁天	-2956
变的	-2957
婚礼	-2958
密的	-2959
打印	-2960
是如此	-2961
一座	-2962
制品	-2963
总结	-2964
AP	-2965
大大	-2966
退休	-2967
充满了	-2968
大规模	-2969
▁再	-2970
成果	-2971
推荐	-2972
物体	-2973
经典	-2974
已经在	-2975
容器	-2976
模块	-2977
致命	-2978
这只	-2979
锻炼	-2980
长大	-2981
其中的	-2982
特定的	-2983
艺术家	-2984
▁这是一个	-2985
生意	-2986
传输	-2987
▁无	-2988
尸体	-2989
▁今年	-2990
实的	-2991
探测	-2992
癌症	-2993
美联	-2994
常规	-2995
不应该	-2996
更容易	-2997
认识到	-2998
许多人	-2999
忍受	-3000
遭遇	-3001
顾问	-3002
首席	-3003
的过程	-3004
出发	-3005
做什么	-3006
地点	-3007
听起来	-3008
的力量	-3009
考虑到	-3010
流感	-3011
生涯	-3012
基督教	-3013
的变化	-3014
传感	-3015
公寓	-3016
监狱	-3017
西部	-3018
魅力	-3019
SO	-3020
▁罗	-3021
当局	-3022
条款	-3023
与其	-3024
不够	-3025
▁像	-3026
零售	-3027
》,	-3028
但却	-3029
巴黎	-3030
老鼠	-3031
▁同样	-3032
▁在此	-3033
潜在	-3034
电力	-3035
带来了	-3036
推进	-3037
白宫	-3038
首都	-3039
黄色	-3040
在我们	-3041
葡萄酒	-3042
▁目的探讨	-3043
巧克	-3044
展现	-3045
用品	-3046
事物	-3047
幽默	-3048
一段时间	-3049
尔兰	-3050
共享	-3051
▁第一	-3052
附近的	-3053
我们必须	-3054
上周	-3055
忽略	-3056
戏剧	-3057
种子	-3058
伯特	-3059
XML	-3060
照顾	-3061
产生了	-3062
反射	-3063
姆斯	-3064
学者	-3065
并未	-3066
要么	-3067
十二	-3068
文明	-3069
玫瑰	-3070
古代	-3071
边界	-3072
常见的	-3073
浏览	-3074
真理	-3075
着他	-3076
这家	-3077
透明	-3078
的时刻	-3079
的选择	-3080
扩张	-3081
线性	-3082
并将	-3083
一系列	-3084
▁结果表明	-3085
夫妇	-3086
也不是	-3087
感觉到	-3088
总理	-3089
脱离	-3090
的事实	-3091
这件事	-3092
共产	-3093
台上	-3094
它在	-3095
将来	-3096
曲线	-3097
的状态	-3098
▁我认为	-3099
发动机	-3100
女子	-3101
情形	-3102
监测	-3103
形成的	-3104
我们会	-3105
▁他们的	-3106
未能	-3107
也就	-3108
分为	-3109
暂时	-3110
渗透	-3111
突出	-3112
两次	-3113
慈善	-3114
荷兰	-3115
失去了	-3116
我们就	-3117
的部分	-3118
不愿	-3119
合法	-3120
斯林	-3121
暴露	-3122
此同时	-3123
代替	-3124
的想法	-3125
漂亮	-3126
进化	-3127
的社会	-3128
可怜	-3129
客人	-3130
送到	-3131
味的	-3132
指数	-3133
不喜欢	-3134
组织的	-3135
说是	-3136
麦克	-3137
光的	-3138
在她	-3139
热的	-3140
神圣	-3141
同步	-3142
破产	-3143
车的	-3144
▁是的	-3145
去做	-3146
当他	-3147
意志	-3148
究竟	-3149
街道	-3150
不过是	-3151
制造商	-3152
放射	-3153
欺骗	-3154
混凝	-3155
同情	-3156
沮丧	-3157
表现出	-3158
▁这就是	-3159
司法	-3160
每周	-3161
原料	-3162
夜晚	-3163
插入	-3164
渐渐	-3165
编码	-3166
人们的	-3167
武装	-3168
环保	-3169
有一天	-3170
大众	-3171
幻想	-3172
汤姆	-3173
看作	-3174
应该是	-3175
义务	-3176
之内	-3177
也没	-3178
远远	-3179
采购	-3180
苏格兰	-3181
十字	-3182
指挥	-3183
宣称	-3184
运营	-3185
同性恋	-3186
术语	-3187
的美	-3188
也很	-3189
活跃	-3190
供应商	-3191
im	-3192
th	-3193
接口	-3194
日子	-3195
邪恶	-3196
▁这次	-3197
特殊的	-3198
现在的	-3199
呼吁	-3200
活性	-3201
亲爱的	-3202
发言人	-3203
把自己	-3204
体内	-3205
实行	-3206
寿命	-3207
注意力	-3208
仿真	-3209
发达	-3210
▁他还	-3211
移植	-3212
营销	-3213
这条	-3214
变形	-3215
生气	-3216
走出	-3217
起的	-3218
遗憾	-3219
稳定的	-3220
央行	-3221
放置	-3222
施工	-3223
是无	-3224
补偿	-3225
进去	-3226
社会的	-3227
导弹	-3228
个性	-3229
和不	-3230
回归	-3231
审判	-3232
崩溃	-3233
大学的	-3234
▁老	-3235
伟大	-3236
克服	-3237
农场	-3238
强制	-3239
股东	-3240
他们会	-3241
企图	-3242
易于	-3243
难道	-3244
交谈	-3245
提示	-3246
用作	-3247
舒服	-3248
配合	-3249
风暴	-3250
写的	-3251
的一位	-3252
的支持	-3253
▁水	-3254
控件	-3255
讽刺	-3256
你必须	-3257
增加了	-3258
▁当他	-3259
华尔	-3260
大声	-3261
干预	-3262
度和	-3263
符号	-3264
议会	-3265
粮食	-3266
经济的	-3267
商务	-3268
引入	-3269
而又	-3270
股市	-3271
威廉	-3272
赋予	-3273
也不能	-3274
想起	-3275
▁在我	-3276
倾向于	-3277
条件下	-3278
双手	-3279
延长	-3280
推广	-3281
窗口	-3282
▁当时	-3283
这两个	-3284
科学家们	-3285
优点	-3286
协助	-3287
愿望	-3288
队伍	-3289
如果我	-3290
的价格	-3291
主动	-3292
单一	-3293
焦虑	-3294
认可	-3295
▁几	-3296
品种	-3297
大气	-3298
可怕的	-3299
的第一	-3300
穆斯林	-3301
类似的	-3302
ag	-3303
明智	-3304
了起来	-3305
安全的	-3306
清理	-3307
告诉他	-3308
爱尔兰	-3309
组成部分	-3310
以外	-3311
传染	-3312
安慰	-3313
▁他表示	-3314
上有	-3315
缓解	-3316
融合	-3317
寻常	-3318
最为	-3319
混凝土	-3320
利比亚	-3321
为何	-3322
主教	-3323
国民	-3324
心中	-3325
协会	-3326
迄今	-3327
一直是	-3328
河流	-3329
目光	-3330
了这个	-3331
的公司	-3332
组成的	-3333
平面	-3334
活力	-3335
有时候	-3336
才是	-3337
房地产	-3338
三角	-3339
偶尔	-3340
危害	-3341
振动	-3342
沉默	-3343
被迫	-3344
地图	-3345
最后一	-3346
他将	-3347
均匀	-3348
电路	-3349
解放	-3350
部署	-3351
无所	-3352
观的	-3353
弱的	-3354
见过	-3355
这座	-3356
分析了	-3357
工程师	-3358
In	-3359
删除	-3360
2008	-3361
保罗	-3362
单词	-3363
自杀	-3364
还没	-3365
我们所	-3366
所谓的	-3367
便宜	-3368
克林	-3369
形容	-3370
手的	-3371
重视	-3372
也可能	-3373
我希望	-3374
有效地	-3375
来自于	-3376
给他们	-3377
24	-3378
为他	-3379
着一个	-3380
密码	-3381
健康的	-3382
▁在一个	-3383
哪个	-3384
遵守	-3385
尔顿	-3386
的速度	-3387
土耳	-3388
强迫	-3389
整天	-3390
着我	-3391
这将	-3392
ent	-3393
一定会	-3394
税收	-3395
土耳其	-3396
▁说	-3397
仍在	-3398
现有	-3399
真相	-3400
透过	-3401
悲伤	-3402
清除	-3403
牙齿	-3404
能否	-3405
落在	-3406
词汇	-3407
成绩	-3408
▁第三	-3409
立场	-3410
议院	-3411
问题是	-3412
合理的	-3413
形式的	-3414
微生物	-3415
漂亮的	-3416
ec	-3417
更大	-3418
激情	-3419
者和	-3420
食用	-3421
提出的	-3422
升级	-3423
这份	-3424
出现的	-3425
得到的	-3426
的一项	-3427
分之	-3428
欲望	-3429
装备	-3430
违反	-3431
有许多	-3432
器官	-3433
常见	-3434
研究人员	-3435
小型	-3436
通常是	-3437
放大	-3438
爱好	-3439
节点	-3440
质疑	-3441
不见	-3442
率的	-3443
瑞士	-3444
蛋白质	-3445
低的	-3446
在那	-3447
此次	-3448
▁它的	-3449
为一个	-3450
两国	-3451
主要是	-3452
完美的	-3453
服务的	-3454
为主	-3455
也将	-3456
发行	-3457
现状	-3458
耳朵	-3459
▁过去	-3460
乘客	-3461
加热	-3462
是的	-3463
生理	-3464
别人的	-3465
把它们	-3466
实用	-3467
毁灭	-3468
ip	-3469
没人	-3470
基本上	-3471
青少年	-3472
会使	-3473
手中	-3474
礼貌	-3475
了很多	-3476
候选人	-3477
▁你知道	-3478
路径	-3479
的历史	-3480
中的一个	-3481
目前为止	-3482
大楼	-3483
腐败	-3484
我已经	-3485
从中	-3486
度过	-3487
询问	-3488
技术的	-3489
公正	-3490
参观	-3491
向他	-3492
描绘	-3493
波动	-3494
短暂	-3495
的一次	-3496
变量	-3497
屋顶	-3498
所述	-3499
队的	-3500
很高兴	-3501
的日子	-3502
模仿	-3503
青春	-3504
中国人	-3505
妙的	-3506
弯曲	-3507
我和	-3508
支出	-3509
是要	-3510
角落	-3511
从一个	-3512
印刷	-3513
螺旋	-3514
了的	-3515
进来	-3516
▁日本	-3517
有力的	-3518
公里	-3519
月的	-3520
路线	-3521
▁我知道	-3522
举办	-3523
各自	-3524
吸烟	-3525
序列	-3526
树木	-3527
清洗	-3528
的两	-3529
的内	-3530
一开始	-3531
极为	-3532
震惊	-3533
是一名	-3534
不受	-3535
会对	-3536
入侵	-3537
切尔	-3538
激动	-3539
祈祷	-3540
谴责	-3541
在你的	-3542
友好	-3543
得出	-3544
ind	-3545
真实的	-3546
为此	-3547
延伸	-3548
的同时	-3549
▁如果我	-3550
经济学家	-3551
回收	-3552
是以	-3553
巧克力	-3554
伴侣	-3555
日期	-3556
纪录	-3557
这两	-3558
▁有时	-3559
21	-3560
Ch	-3561
一生	-3562
典型	-3563
认知	-3564
按钮	-3565
本人	-3566
骄傲	-3567
意义的	-3568
告诉我们	-3569
发的	-3570
可见	-3571
歌曲	-3572
不是一个	-3573
初始	-3574
可用	-3575
沙漠	-3576
差不多	-3577
一群	-3578
分泌	-3579
才会	-3580
把她	-3581
电流	-3582
对他们	-3583
不住	-3584
之为	-3585
付出	-3586
以此	-3587
强大	-3588
传感器	-3589
分解	-3590
加州	-3591
绝望	-3592
这时	-3593
马拉	-3594
▁亚	-3595
了几	-3596
回顾	-3597
困扰	-3598
热带	-3599
顺利	-3600
排除	-3601
无线	-3602
生日	-3603
授权	-3604
老年	-3605
通讯	-3606
附加	-3607
▁或者	-3608
一辆	-3609
体重	-3610
中的应用	-3611
他所	-3612
国外	-3613
将要	-3614
性别	-3615
持有	-3616
▁基于	-3617
历史上	-3618
气候变化	-3619
一把	-3620
一阵	-3621
密度	-3622
了一种	-3623
方程	-3624
了一下	-3625
ul	-3626
分散	-3627
宠物	-3628
本周	-3629
表情	-3630
言论	-3631
躺在	-3632
黑人	-3633
图书馆	-3634
对我们	-3635
天堂	-3636
数值	-3637
独自	-3638
华尔街	-3639
重要的是	-3640
ay	-3641
全身	-3642
垂直	-3643
ook	-3644
优雅	-3645
你想	-3646
奴隶	-3647
无人	-3648
某一	-3649
辅助	-3650
有机会	-3651
的概念	-3652
反复	-3653
天使	-3654
短期	-3655
你需要	-3656
这个词	-3657
2010	-3658
奇的	-3659
人民币	-3660
只是一个	-3661
你不	-3662
笔记	-3663
▁另一	-3664
▁这项	-3665
你自己	-3666
厚的	-3667
太平	-3668
扩散	-3669
贫穷	-3670
场合	-3671
是用	-3672
了个	-3673
密封	-3674
无关	-3675
殖民	-3676
永恒	-3677
航天	-3678
诱惑	-3679
隔离	-3680
合适的	-3681
初步	-3682
怀孕	-3683
看出	-3684
致力	-3685
▁政府	-3686
会导致	-3687
的态度	-3688
原本	-3689
字母	-3690
证券	-3691
辩论	-3692
就开始	-3693
系统中	-3694
不像	-3695
著名	-3696
吃饭	-3697
设计师	-3698
信贷	-3699
图形	-3700
心情	-3701
相机	-3702
的时代	-3703
丧失	-3704
前进	-3705
场上	-3706
开支	-3707
玩笑	-3708
使我们	-3709
发现的	-3710
篇文章	-3711
IP	-3712
之上	-3713
从不	-3714
即可	-3715
杀死	-3716
▁并且	-3717
的最佳	-3718
什么时候	-3719
严肃	-3720
任意	-3721
布鲁	-3722
放到	-3723
▁一天	-3724
听见	-3725
在海	-3726
就不	-3727
火箭	-3728
让它	-3729
感激	-3730
眼镜	-3731
的基本	-3732
中心的	-3733
的技术	-3734
形势	-3735
野生	-3736
陌生	-3737
任何人	-3738
ation	-3739
家伙	-3740
少的	-3741
os	-3742
ut	-3743
什麽	-3744
告知	-3745
度假	-3746
弹性	-3747
登记	-3748
进攻	-3749
我们要	-3750
的计划	-3751
让自己	-3752
布朗	-3753
德里	-3754
者在	-3755
随机	-3756
苏联	-3757
作为一种	-3758
em	-3759
》。	-3760
向上	-3761
星球	-3762
更高	-3763
诚实	-3764
古老的	-3765
体制	-3766
它会	-3767
改造	-3768
赔偿	-3769
的那样	-3770
学位	-3771
设立	-3772
集合	-3773
怎么样	-3774
不论	-3775
同时也	-3776
活动的	-3777
的美国	-3778
定期	-3779
签署	-3780
典型的	-3781
美联储	-3782
会员	-3783
▁并	-3784
演出	-3785
的花	-3786
衡量	-3787
and	-3788
修正	-3789
多次	-3790
奇迹	-3791
提前	-3792
提议	-3793
缺点	-3794
198	-3795
与他	-3796
加快	-3797
必需	-3798
突破	-3799
不出	-3800
在了	-3801
节奏	-3802
想想	-3803
消防	-3804
述了	-3805
适用	-3806
使他们	-3807
的政治	-3808
作物	-3809
所示	-3810
权威	-3811
王子	-3812
集成	-3813
吃惊	-3814
开车	-3815
微软	-3816
瞬间	-3817
风景	-3818
建立了	-3819
SA	-3820
总体	-3821
住宅	-3822
写道	-3823
冬天	-3824
源于	-3825
演奏	-3826
窗户	-3827
世界上最	-3828
储存	-3829
向我	-3830
地带	-3831
被人	-3832
在我的	-3833
不满	-3834
炸弹	-3835
牛仔	-3836
界面	-3837
背后	-3838
有些人	-3839
的要求	-3840
示例	-3841
轻易	-3842
稳定性	-3843
架构	-3844
约会	-3845
是通过	-3846
上市	-3847
以往	-3848
合金	-3849
此类	-3850
▁一名	-3851
但是他	-3852
可以用	-3853
的学生	-3854
有益	-3855
柔软	-3856
那一	-3857
分析师	-3858
ap	-3859
ig	-3860
千万	-3861
化合物	-3862
美好的	-3863
下跌	-3864
个体	-3865
慢性	-3866
旨在	-3867
对他的	-3868
时代的	-3869
的效果	-3870
适当的	-3871
产物	-3872
家具	-3873
寒冷	-3874
局部	-3875
拿着	-3876
▁让	-3877
乡村	-3878
手里	-3879
超声	-3880
500	-3881
已成为	-3882
美好	-3883
耐心	-3884
▁就在	-3885
圆形	-3886
治理	-3887
粒子	-3888
的事件	-3889
称之为	-3890
任何一个	-3891
CD	-3892
▁西	-3893
学科	-3894
教徒	-3895
些时候	-3896
似乎是	-3897
危险的	-3898
吸引力	-3899
的需求	-3900
iv	-3901
争取	-3902
名单	-3903
奥斯	-3904
注入	-3905
激发	-3906
画面	-3907
等级	-3908
二氧化	-3909
低于	-3910
离开了	-3911
昨天	-3912
有害	-3913
远程	-3914
放入	-3915
完整的	-3916
研究的	-3917
街上	-3918
酒精	-3919
你将	-3920
特色	-3921
而被	-3922
力学	-3923
找出	-3924
温柔	-3925
鸡蛋	-3926
能够在	-3927
将军	-3928
开的	-3929
急性	-3930
玩家	-3931
这部	-3932
DNA	-3933
▁接着	-3934
不断地	-3935
银行的	-3936
的可能性	-3937
图案	-3938
布莱	-3939
恒星	-3940
鉴于	-3941
受到了	-3942
南方	-3943
醒来	-3944
一会儿	-3945
致力于	-3946
我们需要	-3947
羽毛	-3948
麻醉	-3949
也许会	-3950
火星	-3951
有多少	-3952
比赛中	-3953
保健	-3954
占据	-3955
制备	-3956
应力	-3957
抵押	-3958
焦点	-3959
视图	-3960
这是一	-3961
友谊	-3962
较为	-3963
之所以	-3964
布斯	-3965
旅馆	-3966
最新	-3967
马斯	-3968
使人	-3969
侵犯	-3970
大卫	-3971
至关	-3972
成一个	-3973
的最大	-3974
▁与此同时	-3975
ID	-3976
代谢	-3977
了下来	-3978
主管	-3979
▁其次	-3980
不愿意	-3981
所有这些	-3982
接下来的	-3983
之时	-3984
我们都	-3985
有没有	-3986
环境中	-3987
的使用	-3988
忠诚	-3989
祝福	-3990
经济增长	-3991
监控	-3992
竟然	-3993
▁其他	-3994
▁甚至	-3995
就不会	-3996
▁斯	-3997
产量	-3998
并发	-3999
死去	-4000
餐馆	-4001
一定的	-4002
的名字	-4003
IT	-4004
of	-4005
坚定	-4006
好好	-4007
看了	-4008
舞蹈	-4009
与你	-4010
单击	-4011
抵抗	-4012
顺序	-4013
美元的	-4014
午餐	-4015
名叫	-4016
和她	-4017
困惑	-4018
抑郁	-4019
它将	-4020
就被	-4021
染色	-4022
语法	-4023
路易	-4024
乐趣	-4025
了对	-4026
再生	-4027
室里	-4028
宪法	-4029
菜单	-4030
▁针对	-4031
他们是	-4032
储备	-4033
团结	-4034
肥胖	-4035
钢琴	-4036
预言	-4037
的安全	-4038
他也	-4039
夏季	-4040
歧视	-4041
腐蚀	-4042
自主	-4043
▁但在	-4044
企业的	-4045
潜在的	-4046
还需要	-4047
丽莎	-4048
只需	-4049
回去	-4050
带到	-4051
播放	-4052
用了	-4053
每个人	-4054
之地	-4055
犹豫	-4056
网页	-4057
:「	-4058
处在	-4059
最低	-4060
逐步	-4061
的唯一	-4062
主意	-4063
明年	-4064
集体	-4065
没什么	-4066
不如	-4067
将它	-4068
标题	-4069
独特	-4070
跑步	-4071
过渡	-4072
些什么	-4073
2009	-4074
.5	-4075
听说	-4076
火焰	-4077
节日	-4078
部落	-4079
高于	-4080
魔法	-4081
ava	-4082
一大	-4083
一套	-4084
严厉	-4085
商人	-4086
斯顿	-4087
案例	-4088
额外	-4089
一本	-4090
传说	-4091
开关	-4092
彼得	-4093
折磨	-4094
正当	-4095
沃尔	-4096
过分	-4097
了我的	-4098
现有的	-4099
被视为	-4100
地在	-4101
很多人	-4102
的电	-4103
▁或许	-4104
帮助你	-4105
帽子	-4106
的反	-4107
的头	-4108
她是	-4109
汇率	-4110
签名	-4111
把他们	-4112
已经开始	-4113
这种情况	-4114
要比	-4115
的产品	-4116
的食物	-4117
额外的	-4118
宝石	-4119
用途	-4120
镜头	-4121
鼻子	-4122
▁一般	-4123
为自己	-4124
挖掘	-4125
操纵	-4126
终止	-4127
花了	-4128
血压	-4129
你可能	-4130
并不能	-4131
第二天	-4132
▁介绍了	-4133
专利	-4134
制成	-4135
沉积	-4136
这么做	-4137
卡车	-4138
崇拜	-4139
广场	-4140
搅拌	-4141
是可	-4142
那天	-4143
完成了	-4144
▁研究人员	-4145
um	-4146
主张	-4147
好象	-4148
尊敬	-4149
引人	-4150
整理	-4151
新型	-4152
太平洋	-4153
其中一个	-4154
人数	-4155
球迷	-4156
而在	-4157
职责	-4158
重量	-4159
队员	-4160
▁除	-4161
不及	-4162
克的	-4163
永久	-4164
的有效	-4165
三年	-4166
话题	-4167
越南	-4168
城市的	-4169
下载	-4170
为人	-4171
无可	-4172
病例	-4173
在他们	-4174
所以我	-4175
原谅	-4176
含义	-4177
监视	-4178
这对	-4179
是中国	-4180
有能力	-4181
。(	-4182
不大	-4183
出租	-4184
政党	-4185
何时	-4186
去世	-4187
政权	-4188
有权	-4189
树林	-4190
欢乐	-4191
朋友们	-4192
南非	-4193
把你	-4194
流的	-4195
融资	-4196
默认	-4197
的消息	-4198
一声	-4199
余的	-4200
区分	-4201
晚餐	-4202
橄榄	-4203
道歉	-4204
面试	-4205
▁实验	-4206
很不	-4207
收缩	-4208
糖尿	-4209
脚本	-4210
中的一	-4211
的临床	-4212
金融危机	-4213
一部	-4214
乐队	-4215
摧毁	-4216
摩托	-4217
此时	-4218
蛋糕	-4219
难题	-4220
举行的	-4221
蒸汽	-4222
促使	-4223
内存	-4224
清醒	-4225
观测	-4226
通货	-4227
但他们	-4228
有利于	-4229
▁另一个	-4230
称作	-4231
艾滋	-4232
这儿	-4233
圣诞节	-4234
发光	-4235
很久	-4236
样品	-4237
豪华	-4238
了许多	-4239
导航	-4240
我还	-4241
点击	-4242
要是	-4243
多少钱	-4244
交叉	-4245
加坡	-4246
喜爱	-4247
尴尬	-4248
推出	-4249
做一个	-4250
可用于	-4251
的人生	-4252
的危险	-4253
相应的	-4254
研究了	-4255
群岛	-4256
萨斯	-4257
道理	-4258
富裕	-4259
巴勒	-4260
懂得	-4261
揭示	-4262
爵士	-4263
的多	-4264
节省	-4265
露出	-4266
的最后	-4267
ab	-4268
收获	-4269
教训	-4270
关系的	-4271
红色的	-4272
不敢	-4273
倾斜	-4274
厌恶	-4275
哥伦	-4276
的山	-4277
遵循	-4278
那位	-4279
错了	-4280
防御	-4281
不上	-4282
深度	-4283
迫使	-4284
你应该	-4285
▁第二天	-4286
一对	-4287
两者	-4288
悲剧	-4289
新兴	-4290
证书	-4291
▁来自	-4292
更高的	-4293
问题上	-4294
实质	-4295
恐怕	-4296
恶化	-4297
标识	-4298
真诚	-4299
确信	-4300
维修	-4301
编程	-4302
而易	-4303
杰克逊	-4304
的样子	-4305
为我	-4306
史蒂	-4307
救援	-4308
气管	-4309
狮子	-4310
发出的	-4311
的观点	-4312
社会主义	-4313
竞争对手	-4314
22	-4315
▁二	-4316
家长	-4317
把这	-4318
退出	-4319
了她	-4320
他还	-4321
光线	-4322
公主	-4323
命名	-4324
嘲笑	-4325
疗法	-4326
药品	-4327
雇员	-4328
的权利	-4329
墙上	-4330
故意	-4331
白的	-4332
碎片	-4333
跟着	-4334
▁其实	-4335
一支	-4336
依旧	-4337
实体	-4338
都将	-4339
▁在这种	-4340
狭窄	-4341
不确定	-4342
可以被	-4343
小小的	-4344
是多么	-4345
昆虫	-4346
是被	-4347
理性	-4348
穿越	-4349
设定	-4350
价值的	-4351
人才	-4352
抽象	-4353
福音	-4354
聚会	-4355
行走	-4356
必须要	-4357
我们已经	-4358
ir	-4359
情报	-4360
诗歌	-4361
顶部	-4362
高效	-4363
!!	-4364
口袋	-4365
差别	-4366
损坏	-4367
有用	-4368
的和	-4369
阴影	-4370
第二个	-4371
行为的	-4372
一根	-4373
填充	-4374
润滑	-4375
一个新的	-4376
机关	-4377
脑袋	-4378
发现自己	-4379
做得	-4380
着手	-4381
自豪	-4382
致的	-4383
过敏	-4384
通胀	-4385
▁有人	-4386
最后的	-4387
特别的	-4388
▁为什么	-4389
ob	-4390
佛罗	-4391
充足	-4392
向你	-4393
等到	-4394
偶然	-4395
当地的	-4396
是这样	-4397
已经成为	-4398
之际	-4399
会让	-4400
宝宝	-4401
就有	-4402
忘了	-4403
诸如	-4404
存在着	-4405
类似于	-4406
拥抱	-4407
旅程	-4408
状的	-4409
种种	-4410
字符串	-4411
录音	-4412
电压	-4413
荣誉	-4414
贵族	-4415
所需的	-4416
Java	-4417
扎菲	-4418
穿上	-4419
英寸	-4420
丽的	-4421
摩擦	-4422
档案	-4423
流量	-4424
赤字	-4425
频繁	-4426
▁世界	-4427
在水	-4428
宁静	-4429
最多	-4430
洪水	-4431
设想	-4432
我没有	-4433
也被	-4434
只好	-4435
死的	-4436
我们对	-4437
极大的	-4438
的大小	-4439
例外	-4440
快的	-4441
早已	-4442
的对	-4443
起诉	-4444
以上的	-4445
奥运会	-4446
是由于	-4447
▁又	-4448
春天	-4449
脆弱	-4450
2007	-4451
一颗	-4452
地理	-4453
男女	-4454
订单	-4455
控制的	-4456
法规	-4457
的开	-4458
纯粹	-4459
蔓延	-4460
静脉	-4461
的上	-4462
离婚	-4463
谈到	-4464
▁这时	-4465
尾巴	-4466
望着	-4467
正好	-4468
马里	-4469
像一个	-4470
受害者	-4471
书中	-4472
北极	-4473
和大	-4474
意图	-4475
种类	-4476
维亚	-4477
▁去年	-4478
只需要	-4479
欧元区	-4480
▁金	-4481
地板	-4482
增大	-4483
整合	-4484
烦恼	-4485
生育	-4486
由此	-4487
的女	-4488
皇家	-4489
硬件	-4490
动物的	-4491
感受到	-4492
改变了	-4493
独立的	-4494
今后	-4495
和对	-4496
意愿	-4497
无需	-4498
早餐	-4499
繁殖	-4500
谋杀	-4501
专注	-4502
复活	-4503
政客	-4504
秩序	-4505
形成了	-4506
不动	-4507
出席	-4508
加利	-4509
展览	-4510
▁在他	-4511
od	-4512
发性	-4513
旧的	-4514
是为	-4515
紧缩	-4516
英文	-4517
是否有	-4518
▁我希望	-4519
尽力	-4520
志愿	-4521
抛弃	-4522
样本	-4523
橡胶	-4524
港口	-4525
猜测	-4526
站点	-4527
精度	-4528
的价值	-4529
的努力	-4530
的女人	-4531
管理员	-4532
一道	-4533
后者	-4534
翅膀	-4535
随之	-4536
个人的	-4537
却没有	-4538
质量的	-4539
造成了	-4540
35	-4541
主持	-4542
这就	-4543
的照片	-4544
工作人员	-4545
削弱	-4546
年度	-4547
浓度	-4548
灌木	-4549
存在于	-4550
惊人的	-4551
的主题	-4552
不堪	-4553
付款	-4554
便是	-4555
散步	-4556
诗人	-4557
骑士	-4558
但她	-4559
国防	-4560
战士	-4561
电动	-4562
编写	-4563
患者的	-4564
迈克尔	-4565
今晚	-4566
但我们	-4567
的存在	-4568
一组	-4569
冷静	-4570
城镇	-4571
简化	-4572
的核心	-4573
不可避免	-4574
,《	-4575
催化	-4576
日志	-4577
残酷	-4578
太阳能	-4579
可以看到	-4580
▁外	-4581
患有	-4582
术后	-4583
树脂	-4584
等着	-4585
蒙古	-4586
把这些	-4587
是一件	-4588
白色的	-4589
▁在美国	-4590
因为我们	-4591
iP	-4592
善良	-4593
局面	-4594
曾在	-4595
泰国	-4596
眼前	-4597
你就会	-4598
的表现	-4599
▁该公司	-4600
ub	-4601
单纯	-4602
尼克	-4603
只有一	-4604
建筑物	-4605
这意味着	-4606
BA	-4607
仪器	-4608
作战	-4609
使它	-4610
健身	-4611
发酵	-4612
大地	-4613
拿出	-4614
敏捷	-4615
汽油	-4616
深处	-4617
瑞典	-4618
紧紧	-4619
纳米	-4620
衬衫	-4621
人们对	-4622
导致了	-4623
所说的	-4624
的事物	-4625
的活动	-4626
书籍	-4627
入口	-4628
几周	-4629
反而	-4630
船只	-4631
首相	-4632
各种各	-4633
同一个	-4634
必须在	-4635
意思是	-4636
是可以	-4637
的男人	-4638
主体	-4639
秘书	-4640
稍微	-4641
认证	-4642
影响的	-4643
维生素	-4644
动画	-4645
。」	-4646
停车	-4647
地球上	-4648
对自己	-4649
▁四	-4650
分歧	-4651
受益	-4652
妹妹	-4653
纳税	-4654
逮捕	-4655
刚才	-4656
大多	-4657
未经	-4658
领先	-4659
就好像	-4660
当代	-4661
暴风	-4662
楼梯	-4663
独裁	-4664
选手	-4665
的数量	-4666
势力	-4667
号码	-4668
和水	-4669
方法的	-4670
是美国	-4671
疾病的	-4672
▁我们在	-4673
信的	-4674
弥补	-4675
这点	-4676
为我们	-4677
的中国	-4678
的人物	-4679
的基础上	-4680
▁换	-4681
▁李	-4682
不利	-4683
影像	-4684
木材	-4685
来临	-4686
的长	-4687
轻微	-4688
取得了	-4689
An	-4690
予以	-4691
休闲	-4692
冲动	-4693
奖励	-4694
抵达	-4695
数目	-4696
洛杉	-4697
福利	-4698
相当于	-4699
不应	-4700
大胆	-4701
履行	-4702
随意	-4703
一头	-4704
加拉	-4705
正义	-4706
灭绝	-4707
线程	-4708
考察	-4709
资助	-4710
追踪	-4711
的精神	-4712
史密	-4713
持久	-4714
海外	-4715
潮湿	-4716
ie	-4717
上来	-4718
口气	-4719
可爱	-4720
大战	-4721
月球	-4722
盯着	-4723
破裂	-4724
编译	-4725
表格	-4726
它可以	-4727
的城市	-4728
波兰	-4729
给出	-4730
闪烁	-4731
高中	-4732
的不同	-4733
举动	-4734
化妆	-4735
座位	-4736
恶性	-4737
原因是	-4738
克莱	-4739
女王	-4740
帐户	-4741
灰色	-4742
可以使用	-4743
总会	-4744
有过	-4745
西洋	-4746
论坛	-4747
优秀的	-4748
自然的	-4749
巴勒斯坦	-4750
的过程中	-4751
▁花	-4752
大使	-4753
模板	-4754
因为她	-4755
结构的	-4756
这些人	-4757
在上	-4758
他那	-4759
切除	-4760
去除	-4761
想像	-4762
示威	-4763
祖先	-4764
钥匙	-4765
更好地	-4766
▁有时候	-4767
不清	-4768
中被	-4769
五年	-4770
精彩	-4771
饥饿	-4772
可能在	-4773
周围的	-4774
经历了	-4775
经济学	-4776
一小	-4777
强化	-4778
征服	-4779
所能	-4780
海滩	-4781
淋巴	-4782
灵感	-4783
而来	-4784
洛杉矶	-4785
▁凯	-4786
头部	-4787
对付	-4788
水和	-4789
疲劳	-4790
行李	-4791
197	-4792
糖尿病	-4793
这本书	-4794
交互	-4795
因子	-4796
对她	-4797
情人	-4798
毒品	-4799
运转	-4800
erv	-4801
可爱的	-4802
的其他	-4803
▁如果我们	-4804
PC	-4805
▁长	-4806
准则	-4807
包裹	-4808
古怪	-4809
四周	-4810
委托	-4811
我去	-4812
护士	-4813
招聘	-4814
考验	-4815
舞台	-4816
西斯	-4817
这也	-4818
完成的	-4819
的决定	-4820
的市场	-4821
慷慨	-4822
数千	-4823
是一项	-4824
不去	-4825
举措	-4826
分辨	-4827
灯光	-4828
球场	-4829
信息的	-4830
因为你	-4831
就没有	-4832
上万	-4833
为一	-4834
古典	-4835
子女	-4836
局限	-4837
扭曲	-4838
数十	-4839
热量	-4840
级别	-4841
给人	-4842
认同	-4843
与其他	-4844
停下来	-4845
基础上	-4846
▁拉	-4847
冰箱	-4848
大海	-4849
新生	-4850
某人	-4851
▁印度	-4852
上帝的	-4853
依赖于	-4854
▁因	-4855
东方	-4856
两人	-4857
入了	-4858
创业	-4859
就算	-4860
船舶	-4861
甚至是	-4862
▁内	-4863
为其	-4864
信念	-4865
----	-4866
判决	-4867
多了	-4868
手臂	-4869
最有	-4870
跟你	-4871
ers	-4872
参议员	-4873
的反应	-4874
一同	-4875
一面	-4876
东部	-4877
五个	-4878
塞尔	-4879
挑选	-4880
早就	-4881
的风	-4882
绘画	-4883
迁移	-4884
这会	-4885
对我来说	-4886
他把	-4887
加剧	-4888
变革	-4889
房间里	-4890
一代	-4891
排列	-4892
映射	-4893
的后	-4894
政治家	-4895
数据的	-4896
克拉	-4897
神话	-4898
群众	-4899
雇主	-4900
文化的	-4901
高尔夫	-4902
料的	-4903
是谁	-4904
荣耀	-4905
第二次	-4906
给出了	-4907
获得的	-4908
2000	-4909
23	-4910
▁电	-4911
一杯	-4912
下滑	-4913
消极	-4914
碰撞	-4915
客户端	-4916
的一天	-4917
这不是	-4918
▁当我们	-4919
东京	-4920
使她	-4921
哪怕	-4922
见证	-4923
对这些	-4924
就是一个	-4925
▁这意味着	-4926
两位	-4927
叶片	-4928
捕捉	-4929
焊接	-4930
长达	-4931
亨利	-4932
像个	-4933
担保	-4934
收藏	-4935
无数	-4936
积累	-4937
紧密	-4938
没能	-4939
精灵	-4940
仍然是	-4941
卡扎菲	-4942
的任务	-4943
CT	-4944
IM	-4945
人为	-4946
出血	-4947
单个	-4948
国务	-4949
延迟	-4950
指南	-4951
时光	-4952
ard	-4953
他认为	-4954
我自己	-4955
,000	-4956
地把	-4957
对称	-4958
服用	-4959
特里	-4960
的发	-4961
较高	-4962
使用了	-4963
几分钟	-4964
指定的	-4965
几个小时	-4966
尽快	-4967
干旱	-4968
得更	-4969
拿起	-4970
水分	-4971
终结	-4972
诞生	-4973
账户	-4974
跳舞	-4975
遗产	-4976
▁上周	-4977
他已经	-4978
只是在	-4979
▁尽管如此	-4980
借口	-4981
地质	-4982
搭配	-4983
注定	-4984
逃避	-4985
会谈	-4986
几次	-4987
可在	-4988
大师	-4989
导演	-4990
更是	-4991
死于	-4992
▁约翰	-4993
引起了	-4994
乐意	-4995
利物	-4996
器和	-4997
夫妻	-4998
帮忙	-4999
激活	-5000
点燃	-5001
猩猩	-5002
边境	-5003
雕刻	-5004
他自己	-5005
滑雪	-5006
齿轮	-5007
有两个	-5008
值的	-5009
动荡	-5010
廉价	-5011
生殖	-5012
眼泪	-5013
那只	-5014
和你的	-5015
大学生	-5016
提高了	-5017
正常的	-5018
证明了	-5019
建立一个	-5020
景象	-5021
不仅仅	-5022
利物浦	-5023
詹姆斯	-5024
计划的	-5025
▁弗	-5026
一人	-5027
印第	-5028
和小	-5029
喜悦	-5030
得知	-5031
桌子	-5032
第四	-5033
脾气	-5034
迎接	-5035
选择的	-5036
lo	-5037
ph	-5038
党的	-5039
内在	-5040
变为	-5041
外科	-5042
潜水	-5043
电站	-5044
精心	-5045
置于	-5046
羊毛	-5047
草原	-5048
键盘	-5049
▁即便	-5050
光谱	-5051
年后	-5052
爱你	-5053
的门	-5054
粗糙	-5055
上班	-5056
哺乳	-5057
聊天	-5058
面向	-5059
最近的	-5060
化和	-5061
又是	-5062
延续	-5063
所得	-5064
指向	-5065
肌肤	-5066
想知道	-5067
自身的	-5068
都不会	-5069
▁格	-5070
为您	-5071
交往	-5072
审计	-5073
当今	-5074
挣扎	-5075
贪婪	-5076
是没有	-5077
董事会	-5078
只有一个	-5079
▁别	-5080
冬季	-5081
格的	-5082
鼓舞	-5083
印第安	-5084
有关的	-5085
马克思	-5086
▁全	-5087
▁简	-5088
》(	-5089
使之	-5090
哈利	-5091
幼儿	-5092
恰当	-5093
起到	-5094
脚步	-5095
语的	-5096
▁两个	-5097
▁既然	-5098
▁欧洲	-5099
的角色	-5100
人对	-5101
回复	-5102
外界	-5103
电源	-5104
缅甸	-5105
胳膊	-5106
雷达	-5107
有一点	-5108
这么多	-5109
全球经济	-5110
BC	-5111
▁看	-5112
主导	-5113
以致	-5114
多元	-5115
显微	-5116
最新的	-5117
的名称	-5118
赢得了	-5119
领域的	-5120
这个国家	-5121
一度	-5122
伸出	-5123
储蓄	-5124
喜剧	-5125
城堡	-5126
字段	-5127
总部	-5128
泄漏	-5129
索引	-5130
纺织	-5131
语句	-5132
跟我	-5133
有限公司	-5134
迄今为止	-5135
三种	-5136
在家	-5137
奢侈	-5138
实力	-5139
成千	-5140
潜力	-5141
较高的	-5142
差距	-5143
已有	-5144
晶体	-5145
样式	-5146
环绕	-5147
我发现	-5148
普通的	-5149
流行的	-5150
全力	-5151
广阔	-5152
拍卖	-5153
精英	-5154
肩膀	-5155
酸盐	-5156
了出来	-5157
你认为	-5158
标准的	-5159
都知道	-5160
们在	-5161
听众	-5162
手工	-5163
民间	-5164
红外	-5165
船上	-5166
较大	-5167
下面的	-5168
可以从	-5169
当我们	-5170
他被	-5171
伦理	-5172
嘴唇	-5173
德的	-5174
海盗	-5175
笑容	-5176
就是在	-5177
用一个	-5178
加哥	-5179
本能	-5180
答应	-5181
经纪	-5182
还将	-5183
间接	-5184
▁我不	-5185
▁而在	-5186
个小时	-5187
和其它	-5188
开始了	-5189
的发生	-5190
如果我们	-5191
哥哥	-5192
奉献	-5193
幸存	-5194
应付	-5195
拥挤	-5196
无聊	-5197
有力	-5198
走过	-5199
可以将	-5200
很重要	-5201
有任何	-5202
目前的	-5203
那样的	-5204
做过	-5205
克里	-5206
名词	-5207
恐慌	-5208
沙发	-5209
西兰	-5210
鉴定	-5211
将成为	-5212
心脏病	-5213
▁伊	-5214
中断	-5215
切的	-5216
摄像	-5217
文献	-5218
活着	-5219
祷告	-5220
负载	-5221
新加坡	-5222
▁我觉得	-5223
他又	-5224
传达	-5225
住房	-5226
莱坞	-5227
ess	-5228
但是在	-5229
各地的	-5230
芝加哥	-5231
45	-5232
初期	-5233
姐姐	-5234
存款	-5235
尔特	-5236
废弃	-5237
最小	-5238
自从	-5239
萝卜	-5240
里达	-5241
史密斯	-5242
所有人	-5243
这也是	-5244
对应	-5245
屠杀	-5246
康复	-5247
校园	-5248
每日	-5249
波特	-5250
消灭	-5251
白天	-5252
辩护	-5253
▁国际	-5254
的角度	-5255
笔记本	-5256
飞行员	-5257
▁吉	-5258
了在	-5259
封闭	-5260
看待	-5261
级的	-5262
蜜蜂	-5263
该国	-5264
课题	-5265
加利福	-5266
参与者	-5267
▁也	-5268
他不	-5269
变更	-5270
强劲	-5271
录像	-5272
惊奇	-5273
战胜	-5274
烟草	-5275
直升	-5276
素的	-5277
误解	-5278
身材	-5279
300	-5280
我现在	-5281
是否会	-5282
五十	-5283
作的	-5284
回事	-5285
抱歉	-5286
推翻	-5287
狂热	-5288
盈利	-5289
空军	-5290
等于	-5291
赞美	-5292
基本的	-5293
之间的关系	-5294
▁加	-5295
客观	-5296
思议	-5297
治愈	-5298
跟随	-5299
高达	-5300
英国人	-5301
▁同	-5302
发动	-5303
墙壁	-5304
季度	-5305
解除	-5306
句话说	-5307
在伦敦	-5308
▁萨	-5309
一看	-5310
亲自	-5311
姿势	-5312
星星	-5313
村庄	-5314
氛围	-5315
节约	-5316
语音	-5317
可以让	-5318
找不到	-5319
有必要	-5320
理想的	-5321
姿态	-5322
这张	-5323
女人的	-5324
的运动	-5325
28	-5326
天文	-5327
的面	-5328
胎儿	-5329
中国政府	-5330
最重要的	-5331
交给	-5332
任命	-5333
分开	-5334
的下	-5335
街头	-5336
道上	-5337
▁我要	-5338
的味道	-5339
的家庭	-5340
2005	-5341
二氧化碳	-5342
▁经	-5343
半岛	-5344
噪音	-5345
性感	-5346
牛肉	-5347
他们对	-5348
结束后	-5349
ge	-5350
体积	-5351
反馈	-5352
宇航	-5353
曼联	-5354
毕竟	-5355
片的	-5356
在她的	-5357
就像是	-5358
▁有些人	-5359
包围	-5360
安德	-5361
帮你	-5362
情愿	-5363
拿到	-5364
推迟	-5365
柏林	-5366
和美国	-5367
显示出	-5368
的做法	-5369
变得更加	-5370
▁黄	-5371
创意	-5372
姐妹	-5373
对着	-5374
帮我	-5375
情景	-5376
提及	-5377
脉冲	-5378
重组	-5379
再一次	-5380
程度的	-5381
该方法	-5382
HT	-5383
亲密	-5384
在内	-5385
容忍	-5386
成人	-5387
报复	-5388
他们所	-5389
叙利亚	-5390
的那个	-5391
不合	-5392
与之	-5393
北方	-5394
得了	-5395
杆菌	-5396
溶液	-5397
鞋子	-5398
在过去	-5399
这些问题	-5400
噪声	-5401
市民	-5402
情节	-5403
指令	-5404
条约	-5405
辉煌	-5406
辞职	-5407
市场上	-5408
是一场	-5409
起来的	-5410
了自己的	-5411
乘坐	-5412
先前	-5413
效益	-5414
远处	-5415
▁随后	-5416
达到了	-5417
▁所有的	-5418
哥伦比亚	-5419
可行	-5420
国有	-5421
好奇	-5422
月亮	-5423
水泥	-5424
有用的	-5425
的一面	-5426
资本主义	-5427
占领	-5428
发起	-5429
门的	-5430
有趣的	-5431
永远不会	-5432
27	-5433
很小	-5434
更换	-5435
空调	-5436
织物	-5437
车上	-5438
犹太人	-5439
的朋友	-5440
的目的	-5441
不可思议	-5442
大多数人	-5443
研究表明	-5444
几何	-5445
分支	-5446
厘米	-5447
开口	-5448
熟练	-5449
起初	-5450
加利福尼亚	-5451
he	-5452
事的	-5453
公元	-5454
岛屿	-5455
能为	-5456
膝盖	-5457
虐待	-5458
作用的	-5459
变得更	-5460
精神病	-5461
那么多	-5462
ak	-5463
带领	-5464
挂在	-5465
萧条	-5466
ill	-5467
严格的	-5468
了我们	-5469
自己在	-5470
英国的	-5471
规定的	-5472
2006	-5473
▁王	-5474
。。	-5475
星系	-5476
柠檬	-5477
百姓	-5478
看似	-5479
说我	-5480
逃离	-5481
运动的	-5482
这个人	-5483
的人来说	-5484
需要一个	-5485
热爱	-5486
罪恶	-5487
解析	-5488
都市	-5489
▁德国	-5490
其中包括	-5491
通货膨胀	-5492
享有	-5493
伤口	-5494
升高	-5495
古巴	-5496
期限	-5497
极度	-5498
气味	-5499
视角	-5500
慢慢地	-5501
数百	-5502
气氛	-5503
问我	-5504
▁面对	-5505
不断的	-5506
今天的	-5507
会议上	-5508
并不会	-5509
银行家	-5510
两只	-5511
从前	-5512
击败	-5513
恶劣	-5514
把手	-5515
负面	-5516
amp	-5517
动力学	-5518
对中国	-5519
成千上万	-5520
AT	-5521
▁现	-5522
东南	-5523
供给	-5524
天赋	-5525
将于	-5526
指望	-5527
景观	-5528
的三	-5529
缩短	-5530
银河	-5531
伴随着	-5532
制度的	-5533
只不过	-5534
SP	-5535
丢失	-5536
吃了	-5537
暂停	-5538
筛选	-5539
过后	-5540
他们就	-5541
实际的	-5542
▁在这里	-5543
CE	-5544
▁麦	-5545
业的	-5546
两天	-5547
之路	-5548
坚决	-5549
拉丁	-5550
拉德	-5551
用以	-5552
码头	-5553
说了	-5554
诸多	-5555
▁年	-5556
名义	-5557
完了	-5558
对策	-5559
收费	-5560
而出	-5561
走廊	-5562
飞船	-5563
▁除非	-5564
和她的	-5565
结束了	-5566
身上的	-5567
平民	-5568
时报	-5569
火灾	-5570
系数	-5571
途中	-5572
防治	-5573
无论是	-5574
创建一个	-5575
我不知道	-5576
AR	-5577
Ex	-5578
▁南	-5579
化石	-5580
显现	-5581
沙滩	-5582
笑话	-5583
联赛	-5584
要把	-5585
大小的	-5586
能力的	-5587
表面上	-5588
如果没有	-5589
这个世界	-5590
传送	-5591
位的	-5592
卧室	-5593
米兰	-5594
见面	-5595
误差	-5596
信用卡	-5597
制成的	-5598
影响到	-5599
1.	-5600
尼尔	-5601
用手	-5602
言语	-5603
骨折	-5604
材料的	-5605
来帮助	-5606
较大的	-5607
不定	-5608
件的	-5609
居然	-5610
支配	-5611
的脸	-5612
的首	-5613
穷人	-5614
钢铁	-5615
他没有	-5616
现代化	-5617
生产的	-5618
生物学	-5619
CO	-5620
oc	-5621
▁图	-5622
决赛	-5623
几十	-5624
律宾	-5625
把握	-5626
推销	-5627
提琴	-5628
无比	-5629
蜡烛	-5630
达尔	-5631
避孕	-5632
man	-5633
菲律宾	-5634
表面的	-5635
运行的	-5636
难以置	-5637
另外一个	-5638
越来越多的	-5639
充电	-5640
实习	-5641
山脉	-5642
推测	-5643
树枝	-5644
股份	-5645
所做的	-5646
目标是	-5647
▁科	-5648
剂的	-5649
变异	-5650
向下	-5651
感恩	-5652
数以	-5653
演示	-5654
要做	-5655
走去	-5656
阴谋	-5657
给我的	-5658
▁还	-5659
三十	-5660
与人	-5661
仍旧	-5662
干涉	-5663
望远	-5664
补贴	-5665
视着	-5666
驱逐	-5667
一切都	-5668
显示了	-5669
分割	-5670
原油	-5671
忽然	-5672
户外	-5673
时常	-5674
纷纷	-5675
维尔	-5676
防护	-5677
隐私	-5678
▁耶稣	-5679
然后再	-5680
不变	-5681
不已	-5682
在该	-5683
天才	-5684
总裁	-5685
挪威	-5686
有毒	-5687
病理	-5688
痕迹	-5689
而我	-5690
具体的	-5691
的特点	-5692
一台	-5693
卡尔	-5694
小麦	-5695
尖叫	-5696
忧虑	-5697
排名	-5698
掩盖	-5699
替换	-5700
架上	-5701
航行	-5702
陶瓷	-5703
之一是	-5704
对你的	-5705
幸的是	-5706
重大的	-5707
可以帮助	-5708
提供了一个	-5709
使命	-5710
克兰	-5711
呆在	-5712
航班	-5713
过多	-5714
近期	-5715
造型	-5716
▁不同	-5717
机构的	-5718
的文件	-5719
身体的	-5720
他和	-5721
奶油	-5722
她就	-5723
▁他是	-5724
产阶级	-5725
的一名	-5726
葡萄牙	-5727
生活方式	-5728
”、	-5729
与我	-5730
善于	-5731
固的	-5732
文中	-5733
板的	-5734
歌手	-5735
漫画	-5736
烈的	-5737
转动	-5738
采集	-5739
▁文章	-5740
会发生	-5741
他的妻子	-5742
很大程度上	-5743
▁德	-5744
以免	-5745
传奇	-5746
却不	-5747
可乐	-5748
周一	-5749
四处	-5750
对该	-5751
射线	-5752
报表	-5753
雇佣	-5754
香味	-5755
一般的	-5756
了一次	-5757
可持续	-5758
方法是	-5759
的增长	-5760
自由的	-5761
部分的	-5762
提供一个	-5763
DP	-5764
假装	-5765
党派	-5766
减小	-5767
员的	-5768
塑造	-5769
夜间	-5770
局势	-5771
进球	-5772
ows	-5773
▁人类	-5774
也许是	-5775
了一场	-5776
把你的	-5777
清楚地	-5778
我们应该	-5779
和高	-5780
妨碍	-5781
恶魔	-5782
我都	-5783
激进	-5784
环节	-5785
的眼	-5786
碰到	-5787
ell	-5788
▁我很	-5789
▁这就	-5790
参议院	-5791
在任何	-5792
让你的	-5793
中东	-5794
峡谷	-5795
海水	-5796
照明	-5797
著作	-5798
不再是	-5799
又一次	-5800
我还是	-5801
5%	-5802
利班	-5803
戴维	-5804
斯基	-5805
缓冲	-5806
缩小	-5807
要素	-5808
安全性	-5809
较好的	-5810
选择了	-5811
▁但是在	-5812
兔子	-5813
切割	-5814
反抗	-5815
肮脏	-5816
钻石	-5817
女性的	-5818
是一家	-5819
给自己	-5820
莫斯科	-5821
弟弟	-5822
彩色	-5823
探险	-5824
而这	-5825
动物园	-5826
太多的	-5827
接受了	-5828
黑色的	-5829
假期	-5830
凯恩	-5831
哭泣	-5832
垄断	-5833
或不	-5834
此事	-5835
气象	-5836
温室	-5837
磁盘	-5838
one	-5839
▁整个	-5840
他们将	-5841
并且在	-5842
望远镜	-5843
的时期	-5844
的颜色	-5845
▁科学家	-5846
看到一个	-5847
这是一种	-5848
以其	-5849
停滞	-5850
减肥	-5851
几种	-5852
加载	-5853
变换	-5854
吃的	-5855
寄生	-5856
带上	-5857
性地	-5858
救助	-5859
斯说	-5860
跟他	-5861
轮廓	-5862
▁突然	-5863
中使用	-5864
接受的	-5865
tr	-5866
鸟类	-5867
基督徒	-5868
天然气	-5869
痛苦的	-5870
也就是说	-5871
不然	-5872
无力	-5873
步行	-5874
裂缝	-5875
这件	-5876
阶层	-5877
一个月	-5878
我不能	-5879
母亲的	-5880
26	-5881
SS	-5882
作了	-5883
光滑	-5884
宏观	-5885
皇帝	-5886
破碎	-5887
结局	-5888
芯片	-5889
蝴蝶	-5890
课堂	-5891
通往	-5892
饭店	-5893
支持者	-5894
的理由	-5895
的大部分	-5896
ET	-5897
外观	-5898
大会	-5899
库存	-5900
海上	-5901
电磁	-5902
研制	-5903
间谍	-5904
魔鬼	-5905
以一种	-5906
倾听	-5907
层面	-5908
抵制	-5909
的钱	-5910
说她	-5911
负债	-5912
切尔西	-5913
劳动力	-5914
影响力	-5915
是一次	-5916
的土地	-5917
的空间	-5918
的行动	-5919
站起来	-5920
▁如果你的	-5921
▁毫无疑问	-5922
光学	-5923
剂量	-5924
地铁	-5925
岁时	-5926
年纪	-5927
提名	-5928
教导	-5929
毫米	-5930
流浪	-5931
端的	-5932
读书	-5933
196	-5934
▁第四	-5935
确定的	-5936
,(	-5937
克隆	-5938
平常	-5939
戴着	-5940
权限	-5941
消毒	-5942
渠道	-5943
虔诚	-5944
触发	-5945
镜子	-5946
世界杯	-5947
的方向	-5948
这里的	-5949
受欢迎的	-5950
优惠	-5951
句子	-5952
嫉妒	-5953
安娜	-5954
战术	-5955
说到	-5956
遇见	-5957
▁有关	-5958
万美元	-5959
庞大的	-5960
单调	-5961
断裂	-5962
机理	-5963
部份	-5964
骨骼	-5965
鼠标	-5966
很快就	-5967
消失了	-5968
的人群	-5969
至少在	-5970
早些时候	-5971
人是	-5972
仓库	-5973
你对	-5974
凭借	-5975
图表	-5976
坏了	-5977
很长	-5978
果实	-5979
真空	-5980
蒸发	-5981
骨头	-5982
▁医生	-5983
一定是	-5984
可靠性	-5985
和社会	-5986
回到了	-5987
遇到了	-5988
几乎没有	-5989
合作伙伴	-5990
开发人员	-5991
侵蚀	-5992
加密	-5993
原来的	-5994
实现了	-5995
的人类	-5996
▁接下来	-5997
ev	-5998
修理	-5999
光明	-6000
创伤	-6001
剩下	-6002
叶子	-6003
启发	-6004
和无	-6005
我有	-6006
按摩	-6007
接待	-6008
撞击	-6009
来讲	-6010
深的	-6011
礼拜	-6012
较低	-6013
不存在	-6014
什么是	-6015
家公司	-6016
导致的	-6017
开玩笑	-6018
我不会	-6019
把他的	-6020
世界各地	-6021
州长	-6022
摇滚	-6023
雕塑	-6024
▁鉴于	-6025
减少了	-6026
在这些	-6027
的服务	-6028
长期以来	-6029
▁哦	-6030
不时	-6031
十五	-6032
大厦	-6033
她会	-6034
岗位	-6035
并对	-6036
感知	-6037
接种	-6038
束缚	-6039
腺癌	-6040
若干	-6041
赞助	-6042
马车	-6043
▁那时	-6044
希望能	-6045
上是	-6046
他想	-6047
刑事	-6048
否定	-6049
恶意	-6050
沼泽	-6051
用水	-6052
荒谬	-6053
行驶	-6054
就已经	-6055
我相信	-6056
的一点	-6057
着他的	-6058
人心	-6059
全体	-6060
大鼠	-6061
宁愿	-6062
已在	-6063
通风	-6064
隧道	-6065
预示	-6066
▁到了	-6067
▁法国	-6068
世纪的	-6069
电视台	-6070
SQ	-6071
一遍	-6072
他要	-6073
伤心	-6074
奶酪	-6075
存活	-6076
游行	-6077
线路	-6078
这名	-6079
的法律	-6080
给你的	-6081
▁让我们	-6082
还有一个	-6083
采取行动	-6084
业绩	-6085
净化	-6086
复兴	-6087
年里	-6088
异的	-6089
特拉	-6090
结核	-6091
超市	-6092
身后	-6093
▁此时	-6094
剩下的	-6095
和一些	-6096
时期的	-6097
佛罗里达	-6098
下次	-6099
之旅	-6100
了吗	-6101
地狱	-6102
它能	-6103
少量	-6104
就象	-6105
杀害	-6106
汉语	-6107
理查	-6108
视野	-6109
轮胎	-6110
速率	-6111
上面的	-6112
为基础	-6113
和他们	-6114
学生的	-6115
的压力	-6116
ST	-6117
ff	-6118
公式	-6119
十六	-6120
嵌入	-6121
强壮	-6122
我从	-6123
棕色	-6124
误导	-6125
跨越	-6126
闻名	-6127
附件	-6128
art	-6129
为他们	-6130
做一些	-6131
工作中	-6132
0.	-6133
互动	-6134
体会	-6135
捐赠	-6136
最早	-6137
残疾	-6138
烹饪	-6139
说出	-6140
走上	-6141
马来	-6142
的中心	-6143
的控制	-6144
自己是	-6145
▁他认为	-6146
▁苏	-6147
书面	-6148
你也	-6149
偿还	-6150
列车	-6151
报价	-6152
授予	-6153
树上	-6154
栖息	-6155
正面	-6156
直径	-6157
违约	-6158
共和国	-6159
研究中	-6160
主任	-6161
撒冷	-6162
模具	-6163
的金	-6164
超出	-6165
随便	-6166
事件的	-6167
的语言	-6168
强有力的	-6169
一眼	-6170
地将	-6171
执政	-6172
耶路	-6173
调试	-6174
乔布斯	-6175
会产生	-6176
的标准	-6177
的话题	-6178
▁双	-6179
事先	-6180
他从	-6181
家乡	-6182
感动	-6183
查找	-6184
步伐	-6185
残忍	-6186
王国	-6187
纠正	-6188
都没	-6189
gle	-6190
即使是	-6191
在地上	-6192
环境的	-6193
的地位	-6194
的身体	-6195
航空公司	-6196
▁具有	-6197
激烈的	-6198
补充说	-6199
中文	-6200
剥夺	-6201
后代	-6202
想着	-6203
放进	-6204
登录	-6205
空白	-6206
船长	-6207
不允许	-6208
显而易	-6209
的生命	-6210
相对于	-6211
indows	-6212
召开	-6213
吉尔	-6214
外表	-6215
白人	-6216
融入	-6217
追溯	-6218
队列	-6219
在未来	-6220
我开始	-6221
被发现	-6222
仲裁	-6223
兰克	-6224
嘴里	-6225
悄悄	-6226
犹如	-6227
的口	-6228
直至	-6229
童年	-6230
约瑟	-6231
把这个	-6232
数量的	-6233
的分析	-6234
细胞的	-6235
耶路撒冷	-6236
ce	-6237
工会	-6238
很高	-6239
德尔	-6240
教皇	-6241
服从	-6242
理智	-6243
立的	-6244
▁分析	-6245
告诉她	-6246
展示了	-6247
的边缘	-6248
的道路	-6249
职业生涯	-6250
Sh	-6251
up	-6252
丹麦	-6253
多大	-6254
批判	-6255
捕获	-6256
支架	-6257
放下	-6258
极了	-6259
洞穴	-6260
福特	-6261
能的	-6262
轴承	-6263
这段	-6264
企业家	-6265
心理学	-6266
放射性	-6267
的人都	-6268
讨论了	-6269
操作系统	-6270
▁过	-6271
不对	-6272
傲慢	-6273
固醇	-6274
在新	-6275
坐着	-6276
实时	-6277
提起	-6278
柔和	-6279
校长	-6280
滥用	-6281
瀑布	-6282
自私	-6283
荧光	-6284
避开	-6285
难民	-6286
变化的	-6287
我的心	-6288
的管理	-6289
29	-6290
丑闻	-6291
东北	-6292
厕所	-6293
夏威	-6294
珊瑚	-6295
珠宝	-6296
线索	-6297
裁判	-6298
▁每天	-6299
反应堆	-6300
夏威夷	-6301
水平的	-6302
路易斯	-6303
可能需要	-6304
首席执行	-6305
发病	-6306
备份	-6307
子弹	-6308
少女	-6309
也无法	-6310
共产党	-6311
美国和	-6312
绝大多数	-6313
▁如果没有	-6314
争夺	-6315
侵略	-6316
在本	-6317
开启	-6318
法则	-6319
腹部	-6320
克里斯	-6321
出色的	-6322
混合物	-6323
的电影	-6324
自动化	-6325
现在已经	-6326
的一个重要	-6327
各项	-6328
均衡	-6329
施加	-6330
无意	-6331
极限	-6332
演说	-6333
蜘蛛	-6334
触摸	-6335
进而	-6336
摩托车	-6337
主的	-6338
妥协	-6339
强硬	-6340
拉里	-6341
短的	-6342
迭代	-6343
间隔	-6344
塔利班	-6345
的新闻	-6346
)、	-6347
▁黑	-6348
一丝	-6349
叙述	-6350
此刻	-6351
污水	-6352
编织	-6353
野蛮	-6354
Fac	-6355
▁所述	-6356
▁据说	-6357
聪明的	-6358
同伴	-6359
在高	-6360
对外	-6361
尼日	-6362
所做	-6363
流体	-6364
糖果	-6365
而成	-6366
脖子	-6367
谎言	-6368
负荷	-6369
鲨鱼	-6370
一点点	-6371
的一样	-6372
ra	-6373
ud	-6374
了你	-6375
今日	-6376
协作	-6377
地毯	-6378
布尔	-6379
得的	-6380
液压	-6381
灾害	-6382
盖茨	-6383
知名	-6384
问道	-6385
但没有	-6386
全新的	-6387
意义上	-6388
文件夹	-6389
男人的	-6390
的一家	-6391
糟糕的	-6392
陌生人	-6393
为她	-6394
周二	-6395
用它	-6396
脑海	-6397
阐述	-6398
饼干	-6399
好莱坞	-6400
▁我们要	-6401
▁我相信	-6402
▁反	-6403
一句	-6404
名声	-6405
唱歌	-6406
头痛	-6407
布局	-6408
珍珠	-6409
笑着	-6410
防守	-6411
丽莎白	-6412
并发症	-6413
所带来的	-6414
特别是在	-6415
高速公路	-6416
ia	-6417
小镇	-6418
所说	-6419
竞赛	-6420
自治	-6421
虚假	-6422
裁决	-6423
解剖	-6424
雄性	-6425
▁选择	-6426
只有在	-6427
怎么办	-6428
控制器	-6429
面临着	-6430
了一会儿	-6431
也可	-6432
会话	-6433
压迫	-6434
静态	-6435
你已经	-6436
理论上	-6437
百分之	-6438
各种各样的	-6439
争吵	-6440
俄国	-6441
子宫	-6442
早在	-6443
落后	-6444
落的	-6445
还说	-6446
适宜	-6447
SQL	-6448
代表团	-6449
的比赛	-6450
的那些	-6451
长长的	-6452
最后一个	-6453
不被	-6454
仍是	-6455
帐篷	-6456
搜寻	-6457
比喻	-6458
策划	-6459
获胜	-6460
雕像	-6461
高潮	-6462
▁不久	-6463
▁我是	-6464
做出了	-6465
吉尼亚	-6466
查尔斯	-6467
的人民	-6468
负责人	-6469
Windows	-6470
ib	-6471
介质	-6472
先进	-6473
决议	-6474
助理	-6475
奥林	-6476
成像	-6477
有意	-6478
相处	-6479
研发	-6480
诱导	-6481
ack	-6482
印度的	-6483
的应用	-6484
绿色的	-6485
前后	-6486
变暖	-6487
底下	-6488
的车	-6489
网格	-6490
▁显然	-6491
我感到	-6492
的质量	-6493
而来的	-6494
艾滋病	-6495
三次	-6496
安置	-6497
射击	-6498
平原	-6499
年底	-6500
以确保	-6501
我们也	-6502
的重要性	-6503
并不意味着	-6504
▁神	-6505
▁美	-6506
偏见	-6507
出色	-6508
或在	-6509
排水	-6510
机遇	-6511
的总	-6512
语义	-6513
我只是	-6514
基础设施	-6515
固体	-6516
定居	-6517
宽容	-6518
水晶	-6519
盒子	-6520
老虎	-6521
价值观	-6522
和我们	-6523
学生们	-6524
的程度	-6525
什么样的	-6526
仆人	-6527
大厅	-6528
拜访	-6529
椅子	-6530
的黑	-6531
量子	-6532
长久	-6533
静静	-6534
ich	-6535
ist	-6536
如果他	-6537
来到了	-6538
里面的	-6539
以及其他	-6540
SE	-6541
op	-6542
两周	-6543
便于	-6544
太大	-6545
客厅	-6546
布置	-6547
片段	-6548
秒钟	-6549
素质	-6550
跑到	-6551
对这个	-6552
昂贵的	-6553
的音乐	-6554
相关性	-6555
致命的	-6556
两名	-6557
占有	-6558
和在	-6559
哪儿	-6560
大门	-6561
微波	-6562
桌上	-6563
检索	-6564
的起	-6565
解雇	-6566
试试	-6567
反对派	-6568
反映了	-6569
可以是	-6570
多年的	-6571
将这些	-6572
我们不	-6573
我喜欢	-6574
的眼睛	-6575
经济衰退	-6576
ebook	-6577
▁不幸的是	-6578
CP	-6579
▁各	-6580
人造	-6581
坚强	-6582
当成	-6583
所未	-6584
格拉	-6585
等候	-6586
类别	-6587
绝缘	-6588
赞成	-6589
这笔	-6590
▁国家	-6591
今年的	-6592
他们都	-6593
通常会	-6594
▁没	-6595
娃娃	-6596
抢劫	-6597
新娘	-6598
村民	-6599
毒素	-6600
沥青	-6601
球的	-6602
赚钱	-6603
追随	-6604
▁她在	-6605
克林顿	-6606
处理器	-6607
深刻的	-6608
的地区	-6609
转移到	-6610
CA	-6611
副本	-6612
北美	-6613
卡罗	-6614
受过	-6615
宽松	-6616
桥梁	-6617
检察	-6618
灿烂	-6619
直觉	-6620
线上	-6621
耦合	-6622
赞同	-6623
走路	-6624
配件	-6625
只是一	-6626
将不会	-6627
提到的	-6628
添加到	-6629
的儿子	-6630
的动物	-6631
集中在	-6632
某种程度上	-6633
主流	-6634
乱的	-6635
你有	-6636
土豆	-6637
影子	-6638
恐龙	-6639
惊喜	-6640
水面	-6641
胡子	-6642
居住在	-6643
需要在	-6644
可能导致	-6645
BM	-6646
▁嗯	-6647
前提	-6648
匆匆	-6649
双重	-6650
召唤	-6651
树叶	-6652
波斯	-6653
洁净	-6654
的路	-6655
▁大家	-6656
▁应用	-6657
政策的	-6658
Sc	-6659
坚信	-6660
大国	-6661
大选	-6662
奶奶	-6663
开采	-6664
比利	-6665
海底	-6666
草地	-6667
▁但他	-6668
很明显	-6669
▁研究了	-6670
▁所有这些	-6671
▁非	-6672
优良	-6673
剧院	-6674
医师	-6675
厉害	-6676
后悔	-6677
奥尔	-6678
好事	-6679
效的	-6680
王星	-6681
缓存	-6682
订阅	-6683
人认为	-6684
明确的	-6685
超过了	-6686
进入了	-6687
因为它们	-6688
觉得自己	-6689
越来越多	-6690
ct	-6691
▁向	-6692
▁谁	-6693
一间	-6694
假定	-6695
听着	-6696
定量	-6697
岁月	-6698
派对	-6699
淀粉	-6700
硬化	-6701
能让	-6702
身穿	-6703
轿车	-6704
马丁	-6705
▁现代	-6706
不停地	-6707
建立在	-6708
的人口	-6709
这是个	-6710
介入	-6711
会是	-6712
划分	-6713
又有	-6714
周边	-6715
夸张	-6716
得太	-6717
烟雾	-6718
用在	-6719
目击	-6720
维多	-6721
西北	-6722
警惕	-6723
阴道	-6724
高管	-6725
人们在	-6726
大西洋	-6727
过去了	-6728
长期的	-6729
最后一次	-6730
▁先	-6731
交付	-6732
戒指	-6733
杀人	-6734
格林	-6735
自愿	-6736
要去	-6737
鱼类	-6738
处理的	-6739
学校的	-6740
积极的	-6741
空气中	-6742
协商	-6743
协定	-6744
取出	-6745
导体	-6746
尽的	-6747
求你	-6748
滑稽	-6749
热水	-6750
里有	-6751
ate	-6752
▁星期	-6753
不到的	-6754
了一条	-6755
往往是	-6756
过程的	-6757
▁我不知道	-6758
亚历	-6759
优质	-6760
兼容	-6761
发誓	-6762
品尝	-6763
头顶	-6764
妇人	-6765
定制	-6766
界的	-6767
芳香	-6768
褐色	-6769
认定	-6770
ort	-6771
▁为此	-6772
国内外	-6773
我们是	-6774
留下的	-6775
目的地	-6776
看不到	-6777
连接到	-6778
迷人的	-6779
都必须	-6780
▁有一天	-6781
人力	-6782
份额	-6783
制裁	-6784
启示	-6785
天花	-6786
擅长	-6787
更快	-6788
沙拉	-6789
电阻	-6790
紫色	-6791
▁可能	-6792
了这些	-6793
克萨斯	-6794
全球化	-6795
将继续	-6796
正式的	-6797
的结构	-6798
三分之一	-6799
一方	-6800
出门	-6801
卓越	-6802
厌倦	-6803
大于	-6804
当年	-6805
得分	-6806
想的	-6807
服饰	-6808
短缺	-6809
运气	-6810
降落	-6811
预先	-6812
▁每次	-6813
之前的	-6814
但现在	-6815
历史的	-6816
在英国	-6817
在这种	-6818
实现的	-6819
我一直	-6820
降低了	-6821
最喜欢的	-6822
oogle	-6823
一路	-6824
我把	-6825
歌唱	-6826
电极	-6827
被告	-6828
的家伙	-6829
研究所	-6830
网站上	-6831
转化为	-6832
▁如果你想	-6833
▁山	-6834
主权	-6835
举止	-6836
乐于	-6837
剧本	-6838
双眼	-6839
篮球	-6840
领土	-6841
以前的	-6842
干细胞	-6843
周五	-6844
奖金	-6845
对照	-6846
本土	-6847
矩阵	-6848
绑定	-6849
这片	-6850
创始	-6851
去的	-6852
忙碌	-6853
洛克	-6854
色情	-6855
藏在	-6856
配偶	-6857
闪电	-6858
ity	-6859
▁一项	-6860
意识的	-6861
▁您可以	-6862
成为一名	-6863
Al	-6864
何种	-6865
偶像	-6866
军官	-6867
加大	-6868
将他	-6869
整洁	-6870
源自	-6871
秋天	-6872
简洁	-6873
老婆	-6874
身子	-6875
陪审	-6876
因为在	-6877
▁俄罗斯	-6878
从他	-6879
借助	-6880
官僚	-6881
德拉	-6882
手套	-6883
投机	-6884
抬起	-6885
敏锐	-6886
签证	-6887
评级	-6888
销商	-6889
在这儿	-6890
▁这样的	-6891
▁日	-6892
充斥	-6893
家中	-6894
平时	-6895
摄入	-6896
淹没	-6897
演唱	-6898
硬币	-6899
艰苦	-6900
身为	-6901
辣椒	-6902
里程	-6903
阻塞	-6904
降临	-6905
”、“	-6906
场比赛	-6907
寻常的	-6908
愉快的	-6909
神经元	-6910
面临的	-6911
一个星期	-6912
▁杰	-6913
军方	-6914
发作	-6915
周三	-6916
四年	-6917
处境	-6918
室的	-6919
悲观	-6920
清晨	-6921
磨损	-6922
零件	-6923
面部	-6924
▁企业	-6925
多样性	-6926
数百万	-6927
经济体	-6928
罗伯特	-6929
解释说	-6930
说什么	-6931
▁十	-6932
二次	-6933
亲戚	-6934
人会	-6935
佛教	-6936
债权	-6937
内衣	-6938
夜里	-6939
时机	-6940
洗衣	-6941
眼中	-6942
英镑	-6943
配备	-6944
▁它是	-6945
内心的	-6946
困难的	-6947
她们的	-6948
引人注	-6949
现在是	-6950
的治疗	-6951
▁在这些	-6952
专辑	-6953
中部	-6954
其在	-6955
反弹	-6956
吩咐	-6957
场地	-6958
来回	-6959
林肯	-6960
欢呼	-6961
点儿	-6962
美味	-6963
美食	-6964
蚂蚁	-6965
输送	-6966
高压	-6967
▁我国	-6968
▁负责	-6969
公司在	-6970
将它们	-6971
拥有的	-6972
涉及到	-6973
几个星期	-6974
尤其是在	-6975
RE	-6976
唤醒	-6977
奋斗	-6978
想过	-6979
无穷	-6980
淡的	-6981
职员	-6982
肚子	-6983
能使	-6984
颤抖	-6985
但是它	-6986
史蒂夫	-6987
想要的	-6988
我们有	-6989
更详细	-6990
的天气	-6991
但是他们	-6992
▁凡	-6993
偷偷	-6994
审美	-6995
异性	-6996
愉悦	-6997
接到	-6998
闪闪	-6999
非凡	-7000
饲料	-7001
不清楚	-7002
模型的	-7003
流动性	-7004
的帮助	-7005
蓝色的	-7006
做的事情	-7007
所有人都	-7008
▁帕	-7009
买卖	-7010
元件	-7011
分区	-7012
利斯	-7013
前来	-7014
在下	-7015
外套	-7016
屋子	-7017
惊人	-7018
报酬	-7019
硫酸	-7020
不错的	-7021
坐下来	-7022
天主教	-7023
已经有	-7024
开始的	-7025
成员国	-7026
的最好	-7027
被用来	-7028
▁另一方面	-7029
伙子	-7030
去找	-7031
当事	-7032
扭转	-7033
据说	-7034
越过	-7035
400	-7036
▁他把	-7037
▁用于	-7038
之类的	-7039
增长的	-7040
或其它	-7041
的意思	-7042
知道的	-7043
任何其他	-7044
没有一个	-7045
▁换句话说	-7046
se	-7047
她那	-7048
智力	-7049
机和	-7050
残留	-7051
流入	-7052
爱国	-7053
胚胎	-7054
问他	-7055
陆地	-7056
▁希望	-7057
▁曾经	-7058
出来了	-7059
后面的	-7060
大家都	-7061
自定义	-7062
语言的	-7063
都需要	-7064
▁有一个	-7065
ov	-7066
学和	-7067
旅客	-7068
更具	-7069
植入	-7070
次数	-7071
泰勒	-7072
漫步	-7073
灰尘	-7074
皮革	-7075
禁令	-7076
绅士	-7077
设有	-7078
轨迹	-7079
迫切	-7080
风吹	-7081
魔术	-7082
地看着	-7083
管理的	-7084
维多利亚	-7085
上方	-7086
屁股	-7087
我又	-7088
沿海	-7089
琼斯	-7090
男士	-7091
百分	-7092
突变	-7093
要用	-7094
跨国	-7095
身的	-7096
地球的	-7097
对美国	-7098
我必须	-7099
不仅仅是	-7100
▁普	-7101
专用	-7102
伯格	-7103
培育	-7104
平安	-7105
整整	-7106
爱德	-7107
米尔	-7108
紫外	-7109
罪犯	-7110
队友	-7111
创造了	-7112
很好地	-7113
目标的	-7114
Facebook	-7115
养殖	-7116
加斯	-7117
压抑	-7118
向外	-7119
必定	-7120
撤销	-7121
朝着	-7122
电缆	-7123
行事	-7124
西藏	-7125
要想	-7126
配方	-7127
你是否	-7128
的女性	-7129
肯定会	-7130
▁但如果	-7131
我们现在	-7132
过程中的	-7133
不但	-7134
公爵	-7135
外出	-7136
多久	-7137
棉花	-7138
礼服	-7139
苦难	-7140
请你	-7141
150	-7142
▁不论	-7143
出租车	-7144
可靠的	-7145
当他们	-7146
表现为	-7147
1000	-7148
▁特	-7149
▁能	-7150
一无	-7151
任期	-7152
冷漠	-7153
可口	-7154
太过	-7155
尊严	-7156
弟兄	-7157
当她	-7158
成一	-7159
房价	-7160
排序	-7161
确切	-7162
管制	-7163
裤子	-7164
人来说	-7165
先进的	-7166
可以使	-7167
都不是	-7168
▁受	-7169
冰川	-7170
厚度	-7171
向她	-7172
坟墓	-7173
推断	-7174
是与	-7175
格鲁	-7176
罗拉	-7177
送给	-7178
不那么	-7179
我来说	-7180
表现得	-7181
ug	-7182
▁古	-7183
▁法	-7184
上网	-7185
几百	-7186
各类	-7187
局的	-7188
念头	-7189
意料	-7190
手册	-7191
排斥	-7192
昂贵	-7193
浓缩	-7194
蜂蜜	-7195
计的	-7196
运算	-7197
雨水	-7198
预备	-7199
先生的	-7200
是我的	-7201
却在	-7202
打扮	-7203
欺诈	-7204
空的	-7205
笼罩	-7206
等的	-7207
股价	-7208
高温	-7209
▁我也	-7210
▁看到	-7211
会出现	-7212
基金会	-7213
病人的	-7214
相结合	-7215
而感到	-7216
一种新的	-7217
动词	-7218
台的	-7219
号的	-7220
心地	-7221
怪物	-7222
木头	-7223
沉重	-7224
相连	-7225
纳粹	-7226
西西	-7227
了他们	-7228
起来了	-7229
▁耶和华	-7230
▁想	-7231
光泽	-7232
减弱	-7233
发放	-7234
寂寞	-7235
岛上	-7236
市的	-7237
收回	-7238
沙特	-7239
波罗	-7240
肯尼	-7241
蒙特	-7242
赞扬	-7243
饱和	-7244
内部的	-7245
摄影师	-7246
的作品	-7247
真的很	-7248
黑暗中	-7249
亿美元的	-7250
):	-7251
一艘	-7252
上午	-7253
修建	-7254
分数	-7255
周日	-7256
密集	-7257
建模	-7258
绘制	-7259
罢了	-7260
薄膜	-7261
还原	-7262
遥远	-7263
陈述	-7264
飓风	-7265
先生说	-7266
战争的	-7267
的对象	-7268
给你们	-7269
表达式	-7270
把自己的	-7271
▁托	-7272
低估	-7273
剩余	-7274
商标	-7275
机上	-7276
热衷	-7277
狂欢	-7278
电梯	-7279
直线	-7280
睡着	-7281
结尾	-7282
辛苦	-7283
连锁	-7284
迪斯	-7285
迷惑	-7286
金额	-7287
队长	-7288
高层	-7289
并将其	-7290
志愿者	-7291
的一半	-7292
一双	-7293
上次	-7294
丛林	-7295
伪装	-7296
史上	-7297
回避	-7298
急剧	-7299
打造	-7300
收取	-7301
记载	-7302
转身	-7303
不足以	-7304
全面的	-7305
其它的	-7306
奇怪的	-7307
理解的	-7308
的传统	-7309
2.	-7310
仅有	-7311
他有	-7312
体外	-7313
图标	-7314
并无	-7315
放缓	-7316
率和	-7317
▁我会	-7318
拥有一	-7319
支持的	-7320
就像一个	-7321
应用程序的	-7322
交际	-7323
停留	-7324
击中	-7325
容量	-7326
屋里	-7327
山羊	-7328
战场	-7329
根源	-7330
活泼	-7331
照亮	-7332
特兰	-7333
称赞	-7334
默默	-7335
你不能	-7336
对那些	-7337
总统的	-7338
最高的	-7339
的另一	-7340
结束时	-7341
认为是	-7342
▁他们在	-7343
▁温	-7344
从此	-7345
制约	-7346
喝酒	-7347
巧妙	-7348
开来	-7349
明亮	-7350
疲惫	-7351
聚合	-7352
走在	-7353
了一项	-7354
力量的	-7355
的一条	-7356
的证据	-7357
这可能	-7358
Serv	-7359
SD	-7360
他能	-7361
十足	-7362
可供	-7363
地中	-7364
地里	-7365
字塔	-7366
小鼠	-7367
平方	-7368
恶心	-7369
特权	-7370
考古	-7371
顶端	-7372
ord	-7373
了解到	-7374
什么事	-7375
这种方法	-7376
▁希	-7377
不止	-7378
仇恨	-7379
你去	-7380
其余	-7381
办理	-7382
吸入	-7383
宿舍	-7384
积分	-7385
舌头	-7386
花钱	-7387
▁这将	-7388
副作用	-7389
大自然	-7390
的思想	-7391
罕见的	-7392
银行业	-7393
TP	-7394
▁莫	-7395
为例	-7396
书的	-7397
了这	-7398
典礼	-7399
办事	-7400
吸附	-7401
披露	-7402
的白	-7403
罚款	-7404
转过	-7405
马尔	-7406
all	-7407
▁她们	-7408
可行的	-7409
非线性	-7410
解决问题	-7411
LE	-7412
世上	-7413
了好	-7414
做成	-7415
坐下	-7416
画家	-7417
的微	-7418
的说	-7419
自尊	-7420
较少	-7421
郊区	-7422
鲜花	-7423
Lin	-7424
与我们	-7425
前面的	-7426
工作者	-7427
的最新	-7428
▁近年来	-7429
如果他们	-7430
的主要原因	-7431
不懂	-7432
主角	-7433
人权	-7434
充当	-7435
手上	-7436
效力	-7437
死刑	-7438
苏丹	-7439
草坪	-7440
了一份	-7441
官员说	-7442
补充道	-7443
其他国家	-7444
变成一个	-7445
▁米	-7446
为之	-7447
但不	-7448
动摇	-7449
因其	-7450
地表	-7451
埃尔	-7452
媒介	-7453
店里	-7454
您将	-7455
报导	-7456
氧气	-7457
汉堡	-7458
炎症	-7459
股权	-7460
上下文	-7461
教育的	-7462
早期的	-7463
的两个	-7464
的说法	-7465
竞争力	-7466
这种方式	-7467
首席执行官	-7468
一层	-7469
不顾	-7470
世俗	-7471
人所	-7472
北约	-7473
单身	-7474
哈佛	-7475
摩西	-7476
极大	-7477
滚动	-7478
粉碎	-7479
调味	-7480
陪伴	-7481
▁位于	-7482
▁在你	-7483
▁大约	-7484
对我说	-7485
成年人	-7486
的企业	-7487
的建议	-7488
的时光	-7489
▁如果在	-7490
▁五	-7491
一番	-7492
合约	-7493
摇摇	-7494
无情	-7495
猴子	-7496
珍惜	-7497
畅销	-7498
读取	-7499
迈克	-7500
长远	-7501
闪光	-7502
阿森	-7503
雅典	-7504
高校	-7505
父亲的	-7506
用户的	-7507
的项目	-7508
零售商	-7509
2003	-7510
告诉他们	-7511
的问题是	-7512
ew	-7513
ik	-7514
中毒	-7515
养老	-7516
助手	-7517
勃勃	-7518
只在	-7519
坦克	-7520
姓名	-7521
挫折	-7522
是将	-7523
比尔	-7524
油价	-7525
薄的	-7526
责备	-7527
锁定	-7528
▁不是	-7529
▁那天	-7530
可能有	-7531
来源于	-7532
环境下	-7533
还包括	-7534
2004	-7535
幸运的是	-7536
▁光	-7537
▁波	-7538
中介	-7539
中期	-7540
尘埃	-7541
广大	-7542
散发	-7543
组的	-7544
胸部	-7545
路边	-7546
辈子	-7547
错过	-7548
GDP	-7549
可以把	-7550
是怎么	-7551
这样说	-7552
他是一个	-7553
Google	-7554
▁到目前为止	-7555
Jo	-7556
ah	-7557
不易	-7558
丰田	-7559
他为	-7560
伴随	-7561
品的	-7562
巨头	-7563
并用	-7564
悲惨	-7565
未知	-7566
纳德	-7567
肥皂	-7568
违背	-7569
追逐	-7570
▁当她	-7571
会不会	-7572
可怜的	-7573
在哪里	-7574
威尔士	-7575
指的是	-7576
的调查	-7577
神秘的	-7578
诺贝尔	-7579
近年来	-7580
那里的	-7581
与众	-7582
名人	-7583
声誉	-7584
外壳	-7585
字体	-7586
尖锐	-7587
海湾	-7588
潮流	-7589
特质	-7590
眼里	-7591
私有	-7592
粉丝	-7593
绳子	-7594
他是个	-7595
抗生素	-7596
显微镜	-7597
肯尼亚	-7598
2011	-7599
▁在我们	-7600
化学物质	-7601
一百	-7602
会将	-7603
千年	-7604
周四	-7605
孤儿	-7606
感应	-7607
提案	-7608
盟友	-7609
短信	-7610
萎缩	-7611
融化	-7612
香气	-7613
失业率	-7614
开始时	-7615
我需要	-7616
时间和	-7617
是怎样	-7618
的一年	-7619
的政策	-7620
直升机	-7621
经济发展	-7622
到他	-7623
增添	-7624
它就	-7625
审核	-7626
当做	-7627
比起	-7628
没法	-7629
电机	-7630
血清	-7631
身于	-7632
首要	-7633
ran	-7634
设计和	-7635
▁考虑到	-7636
▁风	-7637
买家	-7638
变动	-7639
口腔	-7640
城的	-7641
忧郁	-7642
本国	-7643
激怒	-7644
营业	-7645
陷阱	-7646
黄油	-7647
son	-7648
▁布什	-7649
▁新的	-7650
从他的	-7651
在一家	-7652
的理论	-7653
都不能	-7654
我们没有	-7655
32	-7656
乙烯	-7657
仁慈	-7658
仍有	-7659
凝胶	-7660
切换	-7661
受损	-7662
定律	-7663
惟一	-7664
行程	-7665
要有	-7666
遗忘	-7667
他们也	-7668
你怎么	-7669
的表面	-7670
严峻	-7671
器中	-7672
推理	-7673
注重	-7674
物流	-7675
番茄	-7676
看成	-7677
罢工	-7678
薪水	-7679
▁一只	-7680
人民的	-7681
向我们	-7682
奥林匹	-7683
该地区	-7684
▁通过对	-7685
之一就是	-7686
共和党人	-7687
不当	-7688
但也	-7689
光芒	-7690
十九	-7691
原型	-7692
尔说	-7693
折叠	-7694
支票	-7695
理会	-7696
罪行	-7697
资讯	-7698
锈钢	-7699
马逊	-7700
Mar	-7701
很强的	-7702
然后在	-7703
让人们	-7704
▁在这种情况下	-7705
36	-7706
Re	-7707
一体	-7708
共振	-7709
压制	-7710
定向	-7711
察觉	-7712
就把	-7713
当初	-7714
承包	-7715
有钱	-7716
柴油	-7717
死后	-7718
西南	-7719
视线	-7720
议题	-7721
▁他对	-7722
因为这	-7723
来说是	-7724
的艺术	-7725
你就可以	-7726
业余	-7727
丝绸	-7728
亲吻	-7729
冰冷	-7730
宽恕	-7731
将近	-7732
比我	-7733
注释	-7734
照射	-7735
他表示	-7736
以外的	-7737
可能被	-7738
巴拉克	-7739
持续的	-7740
此之外	-7741
相互作用	-7742
和新	-7743
回头	-7744
引力	-7745
日报	-7746
梦中	-7747
求解	-7748
溃疡	-7749
祖国	-7750
装有	-7751
高等	-7752
ick	-7753
▁警方	-7754
固定的	-7755
有限的	-7756
资源的	-7757
▁后	-7758
▁张	-7759
一所	-7760
不着	-7761
借款	-7762
场面	-7763
好吧	-7764
招待	-7765
此前	-7766
贬值	-7767
鸟儿	-7768
▁如此	-7769
▁每年	-7770
一下子	-7771
不容易	-7772
六个月	-7773
希望在	-7774
我们能	-7775
特性的	-7776
研究者	-7777
▁提出了	-7778
▁女	-7779
人性	-7780
关税	-7781
大笑	-7782
山上	-7783
并能	-7784
废除	-7785
您在	-7786
斯塔	-7787
气息	-7788
流失	-7789
看过	-7790
眼的	-7791
线条	-7792
领带	-7793
喜爱的	-7794
的人的	-7795
的政府	-7796
修补	-7797
再度	-7798
制服	-7799
在外	-7800
客房	-7801
巩固	-7802
市长	-7803
平稳	-7804
指甲	-7805
明治	-7806
泥土	-7807
洗澡	-7808
立体	-7809
纯洁	-7810
对象的	-7811
舒适的	-7812
他们已经	-7813
很长时间	-7814
美国政府	-7815
▁论	-7816
切断	-7817
图的	-7818
处罚	-7819
尽头	-7820
山大	-7821
恰恰	-7822
我得	-7823
描写	-7824
模特	-7825
每月	-7826
节的	-7827
了一点	-7828
分子的	-7829
制造业	-7830
在这一	-7831
或者说	-7832
牛仔裤	-7833
生产商	-7834
给他的	-7835
阿森纳	-7836
找到一个	-7837
▁另	-7838
与否	-7839
中说	-7840
乐器	-7841
他却	-7842
偏离	-7843
六个	-7844
分隔	-7845
印尼	-7846
咱们	-7847
宝贝	-7848
山谷	-7849
平滑	-7850
并与	-7851
洛伊	-7852
签订	-7853
算是	-7854
纸张	-7855
赌博	-7856
随身	-7857
明亮的	-7858
至少有	-7859
透明的	-7860
至关重要的	-7861
]。	-7862
▁红	-7863
一口	-7864
中去	-7865
伍德	-7866
兽医	-7867
冷冻	-7868
到我	-7869
受体	-7870
思路	-7871
收拾	-7872
登上	-7873
粉末	-7874
精子	-7875
羡慕	-7876
芬兰	-7877
面板	-7878
ice	-7879
不同意	-7880
和发展	-7881
的自由	-7882
只不过是	-7883
og	-7884
▁热	-7885
先知	-7886
分发	-7887
天性	-7888
插件	-7889
教室	-7890
敬畏	-7891
活塞	-7892
溶解	-7893
牛津	-7894
狐狸	-7895
祖父	-7896
神奇	-7897
给它	-7898
赛车	-7899
钱包	-7900
▁太阳	-7901
就必须	-7902
市中心	-7903
开始在	-7904
快乐的	-7905
真的是	-7906
什么东西	-7907
尼日利亚	-7908
AM	-7909
口味	-7910
布拉	-7911
平板	-7912
广州	-7913
怜悯	-7914
感冒	-7915
星的	-7916
症的	-7917
起伏	-7918
复杂性	-7919
多年来	-7920
工艺品	-7921
特有的	-7922
▁大部分	-7923
至关重要	-7924
丝毫	-7925
修饰	-7926
只想	-7927
圣地	-7928
庞大	-7929
泪水	-7930
溶剂	-7931
甜蜜	-7932
的深	-7933
薪酬	-7934
躲避	-7935
那条	-7936
三个月	-7937
主义和	-7938
把我的	-7939
欧洲的	-7940
的重点	-7941
为自己的	-7942
也不知道	-7943
对自己的	-7944
有一定的	-7945
Sp	-7946
」。	-7947
伸展	-7948
但你	-7949
信徒	-7950
山顶	-7951
当天	-7952
心肌	-7953
普及	-7954
未婚	-7955
横向	-7956
盆地	-7957
网球	-7958
谈谈	-7959
限于	-7960
饲养	-7961
和我的	-7962
的一份	-7963
负责任	-7964
部门的	-7965
了一系列	-7966
UR	-7967
三天	-7968
买了	-7969
产权	-7970
依照	-7971
各位	-7972
同志	-7973
尺度	-7974
屈服	-7975
弹簧	-7976
抬头	-7977
抱着	-7978
斯蒂	-7979
条例	-7980
树的	-7981
格雷	-7982
棒的	-7983
目睹	-7984
祭司	-7985
▁令人	-7986
▁我还	-7987
▁相比	-7988
他人的	-7989
参加了	-7990
外国人	-7991
我不是	-7992
遥远的	-7993
也是一个	-7994
可以用来	-7995
▁科学家们	-7996
一定程度上	-7997
ex	-7998
▁维	-7999
他很	-8000
城里	-8001
大批	-8002
富含	-8003
拇指	-8004
是说	-8005
瑟琳	-8006
留意	-8007
睡衣	-8008
职务	-8009
让步	-8010
一个新	-8011
在内的	-8012
执行的	-8013
放弃了	-8014
文件的	-8015
是他们	-8016
留下了	-8017
做好准备	-8018
▁使	-8019
▁单	-8020
▁路	-8021
一股	-8022
坏的	-8023
嫌疑	-8024
导师	-8025
就越	-8026
巨额	-8027
弥漫	-8028
称呼	-8029
纠纷	-8030
也不要	-8031
了一只	-8032
向他们	-8033
回答说	-8034
是否能	-8035
有一位	-8036
意识形态	-8037
▁皮	-8038
上诉	-8039
书写	-8040
借贷	-8041
几率	-8042
劳工	-8043
喉咙	-8044
打字	-8045
概括	-8046
碳酸	-8047
过时	-8048
近乎	-8049
香蕉	-8050
做出的	-8051
单独的	-8052
可以说	-8053
对一个	-8054
得不到	-8055
染色体	-8056
模式的	-8057
采用了	-8058
生活中的	-8059
进行分析	-8060
一向	-8061
会把	-8062
摘要	-8063
旋律	-8064
无声	-8065
祖母	-8066
窒息	-8067
缺失	-8068
蝙蝠	-8069
雌性	-8070
青蛙	-8071
▁设计	-8072
▁调查	-8073
催化剂	-8074
哲学家	-8075
国务院	-8076
技术和	-8077
▁在过去	-8078
他们认为	-8079
你可能会	-8080
PS	-8081
▁梅	-8082
不懈	-8083
仪表	-8084
和海	-8085
害羞	-8086
干的	-8087
所作	-8088
条纹	-8089
根廷	-8090
的全	-8091
笑声	-8092
素食	-8093
起身	-8094
骚扰	-8095
人员的	-8096
我不想	-8097
简单地	-8098
这句话	-8099
阿根廷	-8100
你自己的	-8101
其他地方	-8102
的时间里	-8103
侮辱	-8104
台阶	-8105
右边	-8106
国债	-8107
感的	-8108
救济	-8109
瑜伽	-8110
色调	-8111
范畴	-8112
▁以前	-8113
▁几乎	-8114
之后的	-8115
之外的	-8116
他可以	-8117
只是个	-8118
含量的	-8119
听到了	-8120
毕业生	-8121
警告说	-8122
if	-8123
▁乔	-8124
一刻	-8125
令我	-8126
内涵	-8127
十四	-8128
升值	-8129
反驳	-8130
当选	-8131
正直	-8132
沉浸	-8133
流传	-8134
花朵	-8135
贫民	-8136
违法	-8137
预报	-8138
▁正如	-8139
▁让我	-8140
了她的	-8141
决定了	-8142
在纽约	-8143
很高的	-8144
看作是	-8145
菲尔德	-8146
▁我喜欢	-8147
伊斯兰教	-8148
▁等	-8149
三维	-8150
举起	-8151
共识	-8152
利息	-8153
卡片	-8154
参赛	-8155
尼古	-8156
拉的	-8157
揭露	-8158
无效	-8159
棒球	-8160
椭圆	-8161
漫长	-8162
登陆	-8163
的要	-8164
看得	-8165
这款	-8166
ert	-8167
对我的	-8168
成熟的	-8169
的文化	-8170
的最高	-8171
给了我	-8172
背后的	-8173
运行时	-8174
世界大战	-8175
不相	-8176
他用	-8177
在不	-8178
失误	-8179
广东	-8180
敦促	-8181
来做	-8182
笑了	-8183
身旁	-8184
那边	-8185
香烟	-8186
▁的确	-8187
死亡的	-8188
的系统	-8189
▁在中国	-8190
一时	-8191
两条	-8192
修道	-8193
倒了	-8194
南极	-8195
受了	-8196
审视	-8197
宽度	-8198
弱点	-8199
更能	-8200
满是	-8201
论者	-8202
诅咒	-8203
选票	-8204
防火	-8205
震动	-8206
鱼的	-8207
▁由此	-8208
做的事	-8209
实在是	-8210
必须是	-8211
构成的	-8212
的开始	-8213
行业的	-8214
解决了	-8215
控制系统	-8216
48	-8217
乳房	-8218
优越	-8219
出自	-8220
概率	-8221
电器	-8222
研讨	-8223
红的	-8224
绑架	-8225
苍白	-8226
警报	-8227
预料	-8228
一个大	-8229
一起去	-8230
友好的	-8231
如果不	-8232
房子里	-8233
的出现	-8234
的迹象	-8235
的错误	-8236
▁以色列	-8237
OS	-8238
十八	-8239
夸大	-8240
平息	-8241
波浪	-8242
肠道	-8243
首歌	-8244
est	-8245
let	-8246
下一步	-8247
将自己	-8248
常用的	-8249
服务员	-8250
爱德华	-8251
理查德	-8252
的天空	-8253
的生产	-8254
风格的	-8255
但是我们	-8256
住院	-8257
冲浪	-8258
囚犯	-8259
回了	-8260
头来	-8261
夹克	-8262
如图	-8263
尤为	-8264
就此	-8265
折扣	-8266
掌控	-8267
登山	-8268
繁忙	-8269
衍生	-8270
还未	-8271
▁你会	-8272
是不可	-8273
是关于	-8274
来实现	-8275
的那种	-8276
看起来像	-8277
一篇	-8278
不容	-8279
原先	-8280
强奸	-8281
掩饰	-8282
生病	-8283
葬礼	-8284
观赏	-8285
赶紧	-8286
阻挡	-8287
不同于	-8288
失败的	-8289
的区域	-8290
的因素	-8291
说明了	-8292
岁的时候	-8293
帮助我们	-8294
非常重要	-8295
▁我们必须	-8296
人行	-8297
幅度	-8298
弗里	-8299
指引	-8300
数码	-8301
无知	-8302
熊猫	-8303
置疑	-8304
背叛	-8305
见了	-8306
词语	-8307
赞赏	-8308
轰炸	-8309
边上	-8310
逃脱	-8311
高原	-8312
▁下面	-8313
一点儿	-8314
最初的	-8315
现实的	-8316
的就是	-8317
黄色的	-8318
你说	-8319
便会	-8320
勉强	-8321
卡和	-8322
战后	-8323
生动	-8324
这在	-8325
上一个	-8326
不稳定	-8327
使自己	-8328
描述了	-8329
漫长的	-8330
疯狂的	-8331
相似的	-8332
▁孩子们	-8333
四分之一	-8334
到目前为止	-8335
qu	-8336
人家	-8337
冰岛	-8338
加油	-8339
勤奋	-8340
叫我	-8341
填补	-8342
大臣	-8343
已知	-8344
我才	-8345
法令	-8346
矿石	-8347
话语	-8348
运送	-8349
逃跑	-8350
难度	-8351
雅虎	-8352
▁当地	-8353
前所未	-8354
把我们	-8355
的报告	-8356
的母亲	-8357
的高度	-8358
采取了	-8359
冻结	-8360
前列	-8361
医药	-8362
定价	-8363
将对	-8364
拼命	-8365
此举	-8366
油田	-8367
澳洲	-8368
终端	-8369
节能	-8370
行了	-8371
装配	-8372
阀门	-8373
不是很	-8374
专业的	-8375
无线电	-8376
星期五	-8377
是一只	-8378
来进行	-8379
的成本	-8380
的父亲	-8381
索马里	-8382
说他们	-8383
金字塔	-8384
发达国家	-8385
拥有一个	-8386
这样一种	-8387
变得越来越	-8388
▁举	-8389
低迷	-8390
前任	-8391
友善	-8392
君主	-8393
喷射	-8394
宾馆	-8395
将使	-8396
手动	-8397
招呼	-8398
摇摆	-8399
机动	-8400
派的	-8401
灵敏	-8402
爷爷	-8403
玩耍	-8404
矿物	-8405
网膜	-8406
美军	-8407
虚构	-8408
逆转	-8409
重申	-8410
颠覆	-8411
▁你要	-8412
如果您	-8413
物质的	-8414
生成的	-8415
都应该	-8416
心理学家	-8417
IN	-8418
一来	-8419
以防	-8420
分化	-8421
后卫	-8422
天生	-8423
实地	-8424
左边	-8425
论述	-8426
195	-8427
交易所	-8428
在某些	-8429
是完全	-8430
更喜欢	-8431
由一个	-8432
的工具	-8433
过滤器	-8434
发展中国	-8435
pl	-8436
▁霍	-8437
亚当	-8438
叔叔	-8439
同行	-8440
向后	-8441
地被	-8442
坚硬	-8443
定了	-8444
宣言	-8445
涂料	-8446
着她	-8447
第五	-8448
雅各	-8449
com	-8450
也同样	-8451
很有趣	-8452
性行为	-8453
我应该	-8454
清晰的	-8455
的前提	-8456
的用户	-8457
美国经济	-8458
保密	-8459
契约	-8460
封信	-8461
巡逻	-8462
打扰	-8463
打败	-8464
洗手	-8465
病变	-8466
看的	-8467
背部	-8468
自觉	-8469
装甲	-8470
近的	-8471
里克	-8472
长得	-8473
黑客	-8474
与他们	-8475
在整个	-8476
时间内	-8477
的空气	-8478
管理者	-8479
轻轻地	-8480
――	-8481
中风	-8482
军人	-8483
凝聚	-8484
列出	-8485
匆忙	-8486
却又	-8487
同胞	-8488
后期	-8489
宴会	-8490
待遇	-8491
杀手	-8492
着你	-8493
金正	-8494
鉴别	-8495
集群	-8496
麻木	-8497
黑的	-8498
不仅是	-8499
了一位	-8500
在全球	-8501
完全是	-8502
工作时	-8503
为什么不	-8504
金融市场	-8505
之情	-8506
低温	-8507
催眠	-8508
复印	-8509
失控	-8510
曝光	-8511
毒性	-8512
煤炭	-8513
笨拙	-8514
终点	-8515
花的	-8516
论证	-8517
香料	-8518
▁我说	-8519
▁杰克	-8520
会让你	-8521
免费的	-8522
和中国	-8523
在欧洲	-8524
引发了	-8525
领导者	-8526
伊丽莎白	-8527
不休	-8528
亲切	-8529
减缓	-8530
匈牙	-8531
可信	-8532
告别	-8533
喂养	-8534
法和	-8535
演化	-8536
界限	-8537
粗鲁	-8538
较好	-8539
10%	-8540
包含了	-8541
男朋友	-8542
的一般	-8543
的看法	-8544
的范围	-8545
哺乳动物	-8546
ER	-8547
▁开	-8548
上学	-8549
你得	-8550
基准	-8551
尔蒙	-8552
峰会	-8553
文的	-8554
是其	-8555
理事	-8556
累积	-8557
视力	-8558
饮酒	-8559
了不起	-8560
及其他	-8561
和经济	-8562
感到很	-8563
的心情	-8564
而且还	-8565
财政部	-8566
非常有	-8567
▁联合国	-8568
抵押贷款	-8569
的生活方式	-8570
优于	-8571
地从	-8572
女生	-8573
如下	-8574
封建	-8575
时髦	-8576
桌面	-8577
沉思	-8578
流血	-8579
竞技	-8580
竭力	-8581
起床	-8582
跳跃	-8583
金的	-8584
钓鱼	-8585
难过	-8586
顶级	-8587
龙头	-8588
Con	-8589
ian	-8590
int	-8591
你觉得	-8592
保持着	-8593
媒体的	-8594
的大脑	-8595
的能量	-8596
科学的	-8597
▁请注意	-8598
hn	-8599
▁问	-8600
中学	-8601
侧面	-8602
分手	-8603
升起	-8604
在对	-8605
孤立	-8606
废墟	-8607
而去	-8608
饮用	-8609
不一样	-8610
所在的	-8611
的需要	-8612
被用于	-8613
只是为了	-8614
研究发现	-8615
世界各地的	-8616
AD	-8617
ry	-8618
不平	-8619
不该	-8620
传动	-8621
十一	-8622
叫声	-8623
实话	-8624
挽救	-8625
景色	-8626
说着	-8627
转让	-8628
野外	-8629
专注于	-8630
制作的	-8631
发电机	-8632
对不起	-8633
小女孩	-8634
思想的	-8635
探测器	-8636
活动中	-8637
的女孩	-8638
的现象	-8639
转换为	-8640
2012	-8641
▁我们将	-8642
无论如何	-8643
75	-8644
一轮	-8645
从没	-8646
右手	-8647
带的	-8648
恋爱	-8649
悬崖	-8650
悲哀	-8651
本性	-8652
树立	-8653
洋葱	-8654
漏洞	-8655
生效	-8656
背上	-8657
装修	-8658
解脱	-8659
解读	-8660
▁如何	-8661
了自己	-8662
尼西亚	-8663
年以来	-8664
总是在	-8665
时间来	-8666
而这些	-8667
在他们的	-8668
在自己的	-8669
Ap	-8670
不适	-8671
中华	-8672
体操	-8673
全都	-8674
厂商	-8675
哪种	-8676
增多	-8677
天上	-8678
天鹅	-8679
守护	-8680
我来	-8681
沉淀	-8682
结肠	-8683
船员	-8684
迷人	-8685
错的	-8686
驾车	-8687
▁这家	-8688
不希望	-8689
几十年	-8690
出一种	-8691
分析和	-8692
十年代	-8693
小男孩	-8694
暴风雨	-8695
每小时	-8696
灵活性	-8697
聚合物	-8698
较小的	-8699
这两种	-8700
2001	-8701
▁如果他	-8702
OM	-8703
一笔	-8704
企鹅	-8705
众人	-8706
住所	-8707
发型	-8708
天线	-8709
征收	-8710
快要	-8711
战役	-8712
片刻	-8713
畸形	-8714
简便	-8715
缩减	-8716
行人	-8717
门外	-8718
ash	-8719
ect	-8720
▁警察	-8721
以来的	-8722
但是她	-8723
决定的	-8724
我决定	-8725
熟悉的	-8726
的最终	-8727
的衣服	-8728
胆固醇	-8729
在我们的	-8730
▁应	-8731
一处	-8732
中午	-8733
偏差	-8734
到期	-8735
可笑	-8736
威士	-8737
安妮	-8738
开销	-8739
握手	-8740
日记	-8741
浴室	-8742
猎物	-8743
疟疾	-8744
艾伦	-8745
裙子	-8746
铅笔	-8747
▁系统	-8748
似乎在	-8749
是一条	-8750
是人类	-8751
爱好者	-8752
程序员	-8753
设备的	-8754
颜色的	-8755
一个人的	-8756
得到一个	-8757
搜索引擎	-8758
这一问题	-8759
中等	-8760
吉他	-8761
嘴巴	-8762
大力	-8763
失效	-8764
学期	-8765
摩根	-8766
海豚	-8767
淇淋	-8768
缓和	-8769
肝脏	-8770
菲尔	-8771
计数	-8772
较小	-8773
迷失	-8774
黑洞	-8775
三明治	-8776
的形象	-8777
的经历	-8778
不经	-8779
传来	-8780
便利	-8781
加重	-8782
卡路	-8783
品味	-8784
大象	-8785
富翁	-8786
拉登	-8787
电气	-8788
的了	-8789
的有	-8790
的非	-8791
皮质	-8792
这事	-8793
通向	-8794
金山	-8795
▁要是	-8796
与中国	-8797
使用者	-8798
加入了	-8799
当前的	-8800
敌人的	-8801
核电站	-8802
的大型	-8803
解释了	-8804
为什么要	-8805
管理人员	-8806
一架	-8807
光彩	-8808
卡拉	-8809
吸血	-8810
在小	-8811
抵消	-8812
柬埔	-8813
比率	-8814
礼仪	-8815
科尔	-8816
结晶	-8817
肉体	-8818
角的	-8819
论点	-8820
调制	-8821
谷物	-8822
发现在	-8823
在那儿	-8824
经验的	-8825
都是在	-8826
hone	-8827
HP	-8828
厨师	-8829
对它	-8830
引进	-8831
拖延	-8832
振奋	-8833
点头	-8834
病情	-8835
磁场	-8836
粪便	-8837
近似	-8838
重重	-8839
集会	-8840
▁马克	-8841
的费用	-8842
采访时	-8843
sh	-8844
专栏	-8845
修订	-8846
克利	-8847
咳嗽	-8848
地去	-8849
处女	-8850
开着	-8851
抗体	-8852
排队	-8853
晚饭	-8854
来得	-8855
毛巾	-8856
流通	-8857
的自	-8858
移除	-8859
箱子	-8860
▁妈妈	-8861
口袋里	-8862
用一种	-8863
的一大	-8864
的气氛	-8865
统治者	-8866
陪审团	-8867
▁深	-8868
▁雷	-8869
冥想	-8870
叫他	-8871
崛起	-8872
巨型	-8873
承载	-8874
是非	-8875
最具	-8876
狡猾	-8877
理发	-8878
罕见	-8879
老的	-8880
走来	-8881
▁好的	-8882
以帮助	-8883
但是这	-8884
到来的	-8885
就是要	-8886
柬埔寨	-8887
的大量	-8888
风险的	-8889
了他们的	-8890
你会发现	-8891
另一方面	-8892
是不可能的	-8893
▁伯	-8894
丑陋	-8895
传真	-8896
倘若	-8897
写信	-8898
农田	-8899
她对	-8900
它也	-8901
巨人	-8902
搬到	-8903
曾是	-8904
灌溉	-8905
火的	-8906
炫耀	-8907
这块	-8908
野心	-8909
IBM	-8910
▁伦敦	-8911
▁但我	-8912
▁这场	-8913
对话框	-8914
文件中	-8915
等方面	-8916
追溯到	-8917
他们可以	-8918
很可能会	-8919
我们不能	-8920
大豆	-8921
快餐	-8922
推移	-8923
水流	-8924
美妙	-8925
脊髓	-8926
连串	-8927
▁用户	-8928
从来不	-8929
他们说	-8930
区域的	-8931
屏幕上	-8932
椅子上	-8933
或者其他	-8934
根本没有	-8935
ey	-8936
之类	-8937
半年	-8938
卡特	-8939
发觉	-8940
地和	-8941
家园	-8942
巴士	-8943
幽灵	-8944
废物	-8945
开设	-8946
弗雷	-8947
残骸	-8948
民事	-8949
测验	-8950
漂浮	-8951
爱人	-8952
猜想	-8953
石灰	-8954
纸上	-8955
细微	-8956
能从	-8957
身着	-8958
酸奶	-8959
API	-8960
▁就是	-8961
▁每当	-8962
▁纽约	-8963
体系的	-8964
冰淇淋	-8965
奥斯卡	-8966
女朋友	-8967
它们在	-8968
新西兰	-8969
沉重的	-8970
要求的	-8971
很快就会	-8972
的方式来	-8973
货币政策	-8974
通用汽车	-8975
马来西亚	-8976
一日	-8977
为期	-8978
了该	-8979
刚好	-8980
天真	-8981
家们	-8982
导向	-8983
排出	-8984
撤离	-8985
星云	-8986
池塘	-8987
演变	-8988
瘫痪	-8989
聆听	-8990
讯息	-8991
镇静	-8992
麻痹	-8993
下一次	-8994
公平的	-8995
创新的	-8996
客户机	-8997
客户的	-8998
或许会	-8999
核武器	-9000
约翰逊	-9001
艺术品	-9002
设置为	-9003
部电影	-9004
非常好	-9005
一顿	-9006
不明	-9007
但其	-9008
华丽	-9009
各方	-9010
在被	-9011
存的	-9012
家和	-9013
支柱	-9014
更像	-9015
气球	-9016
离去	-9017
稀释	-9018
窗外	-9019
选用	-9020
闪耀	-9021
▁一次	-9022
如此之	-9023
定义的	-9024
愚蠢的	-9025
明智的	-9026
有多么	-9027
检察官	-9028
肯尼迪	-9029
▁在他的	-9030
任何东西	-9031
对其进行	-9032
难以置信	-9033
MS	-9034
下雨	-9035
主机	-9036
兴起	-9037
写着	-9038
前途	-9039
力度	-9040
周六	-9041
导入	-9042
小狗	-9043
微微	-9044
所致	-9045
星座	-9046
深受	-9047
爬上	-9048
站着	-9049
遏制	-9050
销量	-9051
”——	-9052
亚马逊	-9053
的情绪	-9054
的水平	-9055
▁当他们	-9056
野生动物	-9057
31	-9058
ou	-9059
▁的	-9060
一幅	-9061
填写	-9062
家务	-9063
度量	-9064
懒惰	-9065
打断	-9066
格里	-9067
歌声	-9068
气温	-9069
洗涤	-9070
混淆	-9071
的公	-9072
的马	-9073
真菌	-9074
科研	-9075
联络	-9076
脚趾	-9077
车站	-9078
▁学生	-9079
与一个	-9080
事物的	-9081
很简单	-9082
我就会	-9083
我非常	-9084
解决办法	-9085
VD	-9086
买到	-9087
了其	-9088
倡导	-9089
傻瓜	-9090
光纤	-9091
向导	-9092
容纳	-9093
废水	-9094
手法	-9095
浑身	-9096
疲倦	-9097
船的	-9098
顺着	-9099
▁上述	-9100
两个月	-9101
以一个	-9102
半导体	-9103
坚定的	-9104
就这样	-9105
正处于	-9106
系统和	-9107
▁一个人	-9108
▁我可以	-9109
▁每一个	-9110
任何时候	-9111
我们希望	-9112
所需要的	-9113
Ad	-9114
IS	-9115
▁达	-9116
农夫	-9117
和解	-9118
多彩	-9119
权益	-9120
欣喜	-9121
民意	-9122
泄露	-9123
法兰	-9124
海域	-9125
煤矿	-9126
牲畜	-9127
监禁	-9128
背面	-9129
药剂	-9130
营造	-9131
贝克	-9132
降解	-9133
限度	-9134
静止	-9135
600	-9136
wit	-9137
▁试验	-9138
不好的	-9139
与美国	-9140
充斥着	-9141
出生的	-9142
想象的	-9143
的准备	-9144
37	-9145
▁听	-9146
世人	-9147
内战	-9148
分的	-9149
呕吐	-9150
复发	-9151
密钥	-9152
常用	-9153
平行	-9154
快捷	-9155
想在	-9156
打发	-9157
拥护	-9158
数组	-9159
时会	-9160
期刊	-9161
板块	-9162
比的	-9163
沐浴	-9164
猛烈	-9165
种群	-9166
荣幸	-9167
词典	-9168
越多	-9169
软骨	-9170
骗子	-9171
应该在	-9172
标志着	-9173
一副	-9174
冲洗	-9175
合伙	-9176
同盟	-9177
否决	-9178
哈顿	-9179
堵塞	-9180
大腿	-9181
得上	-9182
找个	-9183
月光	-9184
杂货	-9185
病原	-9186
秘鲁	-9187
童话	-9188
简历	-9189
约定	-9190
罗德	-9191
菲利	-9192
词的	-9193
问候	-9194
ail	-9195
▁传统	-9196
他开始	-9197
孟加拉	-9198
支气管	-9199
方法来	-9200
每一次	-9201
爱的人	-9202
等待着	-9203
▁圣	-9204
人格	-9205
伪造	-9206
公斤	-9207
失踪	-9208
就得	-9209
就职	-9210
工件	-9211
布里	-9212
年级	-9213
成形	-9214
打着	-9215
无处	-9216
派遣	-9217
淡水	-9218
滑动	-9219
翼翼	-9220
过着	-9221
选的	-9222
遍布	-9223
鸽子	-9224
▁在那	-9225
▁汤姆	-9226
▁确保	-9227
反映出	-9228
它们是	-9229
就不能	-9230
已经是	-9231
殖民地	-9232
没有被	-9233
深深的	-9234
的事业	-9235
的小说	-9236
高血压	-9237
告诉你们	-9238
很有可能	-9239
习俗	-9240
坚固	-9241
心态	-9242
怀着	-9243
橡皮	-9244
油漆	-9245
油的	-9246
福德	-9247
答复	-9248
组装	-9249
莎士	-9250
过剩	-9251
阻力	-9252
雨林	-9253
▁工作	-9254
▁玛丽	-9255
争议的	-9256
学会了	-9257
我看到	-9258
弗吉尼亚	-9259
莎士比亚	-9260
不觉	-9261
事项	-9262
僵局	-9263
关怀	-9264
再见	-9265
到你	-9266
即时	-9267
唱片	-9268
固执	-9269
地形	-9270
备受	-9271
好吗	-9272
对面	-9273
封锁	-9274
山区	-9275
市政	-9276
才华	-9277
栽培	-9278
滤波	-9279
珍妮	-9280
语气	-9281
进制	-9282
阴暗	-9283
难忘	-9284
▁此次	-9285
▁银行	-9286
宇航员	-9287
家庭的	-9288
是唯一	-9289
治疗的	-9290
的组织	-9291
遇到的	-9292
阐述了	-9293
我们认为	-9294
奥巴马总统	-9295
iz	-9296
十几	-9297
哈里	-9298
堆积	-9299
处方	-9300
并被	-9301
恳求	-9302
时装	-9303
极具	-9304
热烈	-9305
的火	-9306
过早	-9307
顺便	-9308
▁城市	-9309
威士忌	-9310
将会在	-9311
或者在	-9312
显著的	-9313
能看到	-9314
黑暗的	-9315
世卫	-9316
乐园	-9317
估算	-9318
侵入	-9319
创立	-9320
寂静	-9321
开拓	-9322
往常	-9323
徘徊	-9324
性与	-9325
恰好	-9326
电台	-9327
规格	-9328
阴茎	-9329
不会有	-9330
两个人	-9331
中没有	-9332
他希望	-9333
几乎是	-9334
华丽的	-9335
星期六	-9336
的小孩	-9337
短暂的	-9338
还是个	-9339
消费者的	-9340
▁在过去的	-9341
。’	-9342
众所	-9343
像我	-9344
内阁	-9345
分成	-9346
剧烈	-9347
地向	-9348
坐标	-9349
宣告	-9350
巴尔	-9351
并为	-9352
挤压	-9353
涂抹	-9354
湖泊	-9355
益处	-9356
调控	-9357
起飞	-9358
静电	-9359
ive	-9360
▁在本	-9361
但如果	-9362
关注的	-9363
安装在	-9364
必需的	-9365
打开了	-9366
探讨了	-9367
条件的	-9368
正试图	-9369
的游戏	-9370
视网膜	-9371
请不要	-9372
邪恶的	-9373
高科技	-9374
也是如此	-9375
进一步的	-9376
▁如果一个	-9377
个别	-9378
临近	-9379
从我	-9380
做事	-9381
尼奥	-9382
断言	-9383
有望	-9384
粘合	-9385
缘故	-9386
耳机	-9387
营地	-9388
那麽	-9389
里去	-9390
SOA	-9391
创始人	-9392
创造力	-9393
初始化	-9394
匈牙利	-9395
压力的	-9396
好消息	-9397
旧金山	-9398
父母的	-9399
理性的	-9400
的人员	-9401
程序的	-9402
荷尔蒙	-9403
▁如果说	-9404
▁有一次	-9405
33	-9406
▁原	-9407
上课	-9408
失眠	-9409
奇异	-9410
年在	-9411
想去	-9412
挑剔	-9413
瓶子	-9414
虚弱	-9415
车子	-9416
门徒	-9417
限定	-9418
骨髓	-9419
不舒服	-9420
曼哈顿	-9421
的象征	-9422
那个人	-9423
一点也不	-9424
形成一个	-9425
非常重要的	-9426
上床	-9427
亏损	-9428
人道	-9429
坚果	-9430
将为	-9431
摩尔	-9432
数月	-9433
数额	-9434
是大	-9435
是她	-9436
美术	-9437
诊所	-9438
隐蔽	-9439
香水	-9440
将他们	-9441
影响了	-9442
微小的	-9443
性疾病	-9444
有点像	-9445
的保护	-9446
这一天	-9447
▁他们说	-9448
Un	-9449
也都	-9450
会面	-9451
发音	-9452
女友	-9453
威斯	-9454
宫殿	-9455
应急	-9456
感官	-9457
我看	-9458
斑点	-9459
月底	-9460
税务	-9461
纳入	-9462
见解	-9463
起源	-9464
运河	-9465
邻国	-9466
野兽	-9467
雄心	-9468
ean	-9469
会成为	-9470
刚开始	-9471
在其中	-9472
正准备	-9473
比如说	-9474
的商业	-9475
的投资	-9476
经纪人	-9477
被称作	-9478
许可证	-9479
还是在	-9480
小心翼翼	-9481
是正确的	-9482
的一系列	-9483
▁林	-9484
上衣	-9485
业主	-9486
会说	-9487
哮喘	-9488
境地	-9489
外汇	-9490
异议	-9491
打了	-9492
改良	-9493
散布	-9494
有两	-9495
流产	-9496
游艇	-9497
盲目	-9498
行使	-9499
车厢	-9500
软弱	-9501
马达	-9502
骚乱	-9503
▁西方	-9504
▁谢谢	-9505
创造性	-9506
到现在	-9507
可以为	-9508
微不足	-9509
战争中	-9510
最喜欢	-9511
胡萝卜	-9512
那些在	-9513
阿拉斯	-9514
▁我已经	-9515
中产阶级	-9516
物理学家	-9517
▁但是如果	-9518
IV	-9519
乙醇	-9520
二的	-9521
口头	-9522
园艺	-9523
宝贵	-9524
年内	-9525
底层	-9526
往下	-9527
戈尔	-9528
时所	-9529
正规	-9530
潜艇	-9531
精细	-9532
花生	-9533
裸体	-9534
身心	-9535
除去	-9536
▁事实	-9537
▁从前	-9538
▁某些	-9539
了这一	-9540
了这种	-9541
你不会	-9542
回来了	-9543
游泳池	-9544
的巨大	-9545
能力和	-9546
▁第一个	-9547
同时也是	-9548
io	-9549
上说	-9550
享用	-9551
他曾	-9552
别墅	-9553
坦白	-9554
尽情	-9555
投诉	-9556
猪肉	-9557
理石	-9558
甲状	-9559
瞄准	-9560
路由	-9561
迷恋	-9562
金色	-9563
音频	-9564
194	-9565
人生的	-9566
准确的	-9567
官员们	-9568
应用到	-9569
当事人	-9570
物理学	-9571
这只是	-9572
那么你	-9573
恐怖主义	-9574
▁东	-9575
▁玛	-9576
上演	-9577
会很	-9578
克劳	-9579
写了	-9580
出台	-9581
口感	-9582
在与	-9583
好比	-9584
小学	-9585
希尔	-9586
年中	-9587
微型	-9588
惊恐	-9589
捐款	-9590
捕食	-9591
教士	-9592
月初	-9593
涵盖	-9594
端口	-9595
聚焦	-9596
议案	-9597
还得	-9598
避难	-9599
雷斯	-9600
预订	-9601
▁这名	-9602
也开始	-9603
伯利亚	-9604
在没有	-9605
开发的	-9606
温暖的	-9607
研究生	-9608
经销商	-9609
看起来很	-9610
ux	-9611
▁约	-9612
一首	-9613
动了	-9614
喇叭	-9615
处置	-9616
女神	-9617
惯例	-9618
我用	-9619
房产	-9620
投影	-9621
斯拉	-9622
电信	-9623
的低	-9624
臀部	-9625
花粉	-9626
酵母	-9627
陆军	-9628
隐喻	-9629
▁这张	-9630
乌克兰	-9631
化妆品	-9632
可不是	-9633
回家的	-9634
有多大	-9635
的一致	-9636
的主人	-9637
的形成	-9638
的成员	-9639
结果是	-9640
非常的	-9641
HTML	-9642
实际上是	-9643
实验研究	-9644
进行了研究	-9645
▁丹	-9646
▁试	-9647
下巴	-9648
做个	-9649
四川	-9650
堕落	-9651
并把	-9652
忧伤	-9653
无辜	-9654
有其	-9655
纪律	-9656
绩效	-9657
脚下	-9658
选中	-9659
▁全球	-9660
▁社会	-9661
▁这座	-9662
以避免	-9663
制造的	-9664
地发现	-9665
希拉里	-9666
幸福的	-9667
有点儿	-9668
死亡率	-9669
▁这本书	-9670
美国总统	-9671
▁其中一个	-9672
事后	-9673
免受	-9674
前方	-9675
周年	-9676
大道	-9677
字节	-9678
安息	-9679
巴斯	-9680
座椅	-9681
悲痛	-9682
我方	-9683
折射	-9684
条目	-9685
杯子	-9686
油脂	-9687
淘汰	-9688
澄清	-9689
盘子	-9690
确立	-9691
螺丝	-9692
预定	-9693
▁记住	-9694
▁这份	-9695
▁那位	-9696
不适合	-9697
公元前	-9698
呈现出	-9699
如果有	-9700
当时的	-9701
抗议者	-9702
深深地	-9703
的各种	-9704
竞争者	-9705
这使得	-9706
▁当一个	-9707
共产主义	-9708
帮助他们	-9709
我们知道	-9710
99	-9711
▁福	-9712
乏味	-9713
书店	-9714
争端	-9715
变迁	-9716
合唱	-9717
向往	-9718
四肢	-9719
大衣	-9720
妊娠	-9721
学费	-9722
文艺	-9723
旁观	-9724
海峡	-9725
灯泡	-9726
爱上	-9727
犯了	-9728
皱纹	-9729
计时	-9730
量化	-9731
防水	-9732
震撼	-9733
面具	-9734
一小时	-9735
世界里	-9736
增加的	-9737
成长的	-9738
新技术	-9739
的办法	-9740
▁没有人	-9741
完全没有	-9742
伤亡	-9743
公告	-9744
加深	-9745
午饭	-9746
吻合	-9747
外星	-9748
巴克	-9749
抵御	-9750
日程	-9751
杠杆	-9752
杰夫	-9753
标本	-9754
的在	-9755
眼光	-9756
知情	-9757
站立	-9758
身处	-9759
适配	-9760
邮箱	-9761
题目	-9762
▁上海	-9763
以及对	-9764
件事情	-9765
和政治	-9766
植物的	-9767
比其他	-9768
的一生	-9769
的威胁	-9770
38	-9771
亲眼	-9772
付费	-9773
代之	-9774
咆哮	-9775
尤指	-9776
往前	-9777
成型	-9778
所为	-9779
明尼	-9780
棘手	-9781
樱桃	-9782
法定	-9783
纹理	-9784
给定	-9785
绝地	-9786
胰岛	-9787
邮政	-9788
重返	-9789
镇压	-9790
长着	-9791
鲜艳	-9792
ros	-9793
众所周	-9794
修道院	-9795
停车场	-9796
对他说	-9797
打印机	-9798
是不会	-9799
最多的	-9800
的国际	-9801
他自己的	-9802
所产生的	-9803
▁低	-9804
▁随	-9805
从小	-9806
倒在	-9807
假日	-9808
叛乱	-9809
围巾	-9810
大街	-9811
宏伟	-9812
少许	-9813
彩虹	-9814
戴上	-9815
挑衅	-9816
振荡	-9817
特纳	-9818
相遇	-9819
精致	-9820
蚊子	-9821
表单	-9822
被问	-9823
不能再	-9824
会引起	-9825
你想要	-9826
在家里	-9827
女孩子	-9828
好朋友	-9829
宝贵的	-9830
摄像机	-9831
明白了	-9832
精神的	-9833
背景下	-9834
英里的	-9835
这么说	-9836
所造成的	-9837
治疗方法	-9838
认为自己	-9839
一棵	-9840
克鲁	-9841
协同	-9842
却被	-9843
吉亚	-9844
商场	-9845
境内	-9846
富人	-9847
平凡	-9848
我没	-9849
掠夺	-9850
整齐	-9851
植被	-9852
歇尔	-9853
点缀	-9854
特尔	-9855
眼神	-9856
等同	-9857
脊椎	-9858
表的	-9859
迷信	-9860
风中	-9861
高峰	-9862
做任何	-9863
妻子的	-9864
学院的	-9865
完全的	-9866
心中的	-9867
文明的	-9868
有限元	-9869
状态的	-9870
独一无	-9871
着我的	-9872
突出的	-9873
纳税人	-9874
都无法	-9875
结果显示	-9876
DA	-9877
化为	-9878
声响	-9879
孕妇	-9880
它被	-9881
护照	-9882
查理	-9883
满的	-9884
眼下	-9885
着重	-9886
着陆	-9887
索赔	-9888
背包	-9889
要好	-9890
观光	-9891
载体	-9892
酗酒	-9893
附属	-9894
面孔	-9895
顺从	-9896
风的	-9897
ine	-9898
上世纪	-9899
不会再	-9900
你没有	-9901
半小时	-9902
抗氧化	-9903
是那些	-9904
的汽车	-9905
神圣的	-9906
那么就	-9907
▁亲爱的	-9908
一词	-9909
世的	-9910
两倍	-9911
他去	-9912
入睡	-9913
共有	-9914
它对	-9915
投标	-9916
抨击	-9917
无常	-9918
格尔	-9919
欢喜	-9920
法语	-9921
版权	-9922
着迷	-9923
脸色	-9924
解开	-9925
言之	-9926
路的	-9927
迷宫	-9928
重力	-9929
预见	-9930
▁唯一	-9931
▁多数	-9932
上个月	-9933
人死亡	-9934
全部的	-9935
收到了	-9936
构成了	-9937
较强的	-9938
他们没有	-9939
以色列人	-9940
国家公园	-9941
在一起的	-9942
AI	-9943
▁赫	-9944
上看	-9945
乃至	-9946
南瓜	-9947
或多	-9948
极力	-9949
浴缸	-9950
涡轮	-9951
畏惧	-9952
花在	-9953
过高	-9954
量和	-9955
金牌	-9956
附着	-9957
▁经济	-9958
▁需要	-9959
价格的	-9960
听到的	-9961
在世界	-9962
的文章	-9963
计划在	-9964
重要性	-9965
??	-9966
PE	-9967
▁诺	-9968
专制	-9969
健全	-9970
冷酷	-9971
发掘	-9972
基部	-9973
外来	-9974
大叫	-9975
小于	-9976
归咎	-9977
油墨	-9978
涂层	-9979
玩意	-9980
磁带	-9981
美容	-9982
警官	-9983
起着	-9984
车里	-9985
面粉	-9986
▁产品	-9987
一无所	-9988
以及在	-9989
众多的	-9990
威尼斯	-9991
对方的	-9992
希望的	-9993
的人士	-9994
管理层	-9995
给一个	-9996
药物的	-9997
项目中	-9998
我们正在	-9999
的大多数	-10000
▁迪	-10001
。-	-10002
一团	-10003
不佳	-10004
二战	-10005
住宿	-10006
加沙	-10007
化疗	-10008
卡梅	-10009
可可	-10010
圣洁	-10011
得意	-10012
必将	-10013
怨恨	-10014
悬挂	-10015
抗拒	-10016
放心	-10017
潜伏	-10018
穿透	-10019
美学	-10020
萨克	-10021
贯穿	-10022
问问	-10023
▁在她	-10024
▁电影	-10025
一致的	-10026
体现了	-10027
吸引了	-10028
托马斯	-10029
星期一	-10030
是用来	-10031
杰出的	-10032
给了他	-10033
网站的	-10034
贵公司	-10035
2002	-10036
可能已经	-10037
它是一个	-10038
对于那些	-10039
生态系统	-10040
联邦政府	-10041
证据表明	-10042
▁幸运的是	-10043
iPhone	-10044
不禁	-10045
不让	-10046
前锋	-10047
半球	-10048
危及	-10049
名誉	-10050
启用	-10051
塑性	-10052
奔跑	-10053
庇护	-10054
拓展	-10055
探究	-10056
提倡	-10057
摇晃	-10058
无私	-10059
普京	-10060
水下	-10061
水域	-10062
水里	-10063
清新	-10064
袜子	-10065
说得	-10066
转到	-10067
转而	-10068
防范	-10069
▁感谢	-10070
不锈钢	-10071
在一些	-10072
幸存者	-10073
很喜欢	-10074
日本的	-10075
活力的	-10076
起作用	-10077
陷入了	-10078
一直以来	-10079
二十世纪	-10080
保险公司	-10081
所以我们	-10082
▁我们已经	-10083
与她	-10084
两侧	-10085
二者	-10086
传导	-10087
但又	-10088
大致	-10089
小屋	-10090
尼的	-10091
巴嫩	-10092
巴巴	-10093
并以	-10094
成效	-10095
我却	-10096
手持	-10097
执法	-10098
抽烟	-10099
晚期	-10100
普森	-10101
游览	-10102
田野	-10103
紧迫	-10104
腐烂	-10105
路口	-10106
降雨	-10107
餐具	-10108
▁假设	-10109
▁酒店	-10110
开发者	-10111
曾经是	-10112
污染物	-10113
看不见	-10114
达尔文	-10115
里程碑	-10116
其中之一	-10117
如果你想	-10118
Ar	-10119
Cl	-10120
cl	-10121
一夜	-10122
下方	-10123
不成	-10124
交替	-10125
亲近	-10126
内瑞	-10127
剪切	-10128
妓女	-10129
山的	-10130
快地	-10131
性爱	-10132
求职	-10133
浓郁	-10134
燃油	-10135
用力	-10136
痴呆	-10137
短语	-10138
羞辱	-10139
肺炎	-10140
色素	-10141
隐形	-10142
人心的	-10143
到你的	-10144
博士说	-10145
和使用	-10146
地中海	-10147
外面的	-10148
小部分	-10149
旁边的	-10150
普遍的	-10151
版本的	-10152
的建筑	-10153
的成就	-10154
范围的	-10155
较低的	-10156
世卫组织	-10157
▁唐	-10158
匿名	-10159
奥地	-10160
存放	-10161
摆动	-10162
昨晚	-10163
景点	-10164
枕头	-10165
水管	-10166
用药	-10167
私下	-10168
而他	-10169
虚伪	-10170
被动	-10171
警卫	-10172
说你	-10173
雪橇	-10174
风味	-10175
香草	-10176
net	-10177
▁我将	-10178
▁母亲	-10179
了一张	-10180
和工作	-10181
在自己	-10182
委内瑞	-10183
总经理	-10184
格拉斯	-10185
温和的	-10186
源代码	-10187
看电视	-10188
表现的	-10189
▁另一种	-10190
使用一个	-10191
公共汽车	-10192
最高法院	-10193
这些东西	-10194
,‘	-10195
一会	-10196
上校	-10197
争辩	-10198
信赖	-10199
减速	-10200
则会	-10201
半个	-10202
山坡	-10203
提问	-10204
染料	-10205
模样	-10206
胶囊	-10207
诚信	-10208
▁他用	-10209
▁网络	-10210
▁若要	-10211
▁苹果	-10212
会员卡	-10213
儿子的	-10214
听说过	-10215
在经济	-10216
知道了	-10217
综合征	-10218
有足够的	-10219
▁对于那些	-10220
▁我们需要	-10221
不可避免的	-10222
▁索	-10223
。)	-10224
保卫	-10225
公约	-10226
呼叫	-10227
工党	-10228
忙着	-10229
我真	-10230
拍照	-10231
注视	-10232
泽东	-10233
纳斯	-10234
肉类	-10235
衣物	-10236
▁好吧	-10237
不相信	-10238
比利时	-10239
氧化物	-10240
的妇女	-10241
不必要的	-10242
具有良好的	-10243
和有	-10244
国旗	-10245
复仇	-10246
大火	-10247
好转	-10248
宽敞	-10249
封装	-10250
带走	-10251
开幕	-10252
开朗	-10253
强加	-10254
拘留	-10255
拼写	-10256
敌对	-10257
无助	-10258
自助	-10259
草莓	-10260
调和	-10261
起码	-10262
车轮	-10263
门前	-10264
防腐	-10265
领事	-10266
黎明	-10267
▁上帝	-10268
▁这对	-10269
▁难道	-10270
为你的	-10271
习惯于	-10272
冲基金	-10273
危机的	-10274
国会议	-10275
在许多	-10276
是他的	-10277
的妻子	-10278
青春期	-10279
AN	-10280
CS	-10281
▁穆	-10282
▁陈	-10283
丢弃	-10284
中场	-10285
了它	-10286
人与	-10287
伊利	-10288
伸缩	-10289
信誉	-10290
加仑	-10291
土星	-10292
室外	-10293
急于	-10294
拳击	-10295
斜坡	-10296
满怀	-10297
特勒	-10298
胞胎	-10299
过得	-10300
那次	-10301
面料	-10302
中获得	-10303
准确地	-10304
多大的	-10305
就如同	-10306
有一条	-10307
毛泽东	-10308
的生物	-10309
的经验	-10310
的责任	-10311
做的就是	-10312
和他们的	-10313
▁欧	-10314
丽丝	-10315
从头	-10316
伯爵	-10317
儿女	-10318
分娩	-10319
加尔	-10320
圆柱	-10321
惊叹	-10322
抚养	-10323
接管	-10324
既是	-10325
星际	-10326
机密	-10327
松散	-10328
猎人	-10329
的先	-10330
监护	-10331
磷酸	-10332
祈求	-10333
肖像	-10334
请参	-10335
调解	-10336
青睐	-10337
中得到	-10338
吸血鬼	-10339
在上面	-10340
小时候	-10341
有一次	-10342
灰色的	-10343
甚至在	-10344
的意义	-10345
转换成	-10346
是世界上	-10347
▁无论如何	-10348
发生的事情	-10349
witter	-10350
▁回	-10351
临界	-10352
借鉴	-10353
哈哈	-10354
在意	-10355
奢华	-10356
推行	-10357
收割	-10358
更深	-10359
有几	-10360
末端	-10361
流畅	-10362
男友	-10363
纠缠	-10364
经受	-10365
编制	-10366
颇为	-10367
ang	-10368
ere	-10369
▁但这	-10370
▁这款	-10371
一切的	-10372
下一代	-10373
了一名	-10374
使你的	-10375
基因组	-10376
旅行者	-10377
而且在	-10378
预示着	-10379
发言人说	-10380
的时候了	-10381
的时间内	-10382
」,	-10383
主观	-10384
争执	-10385
会给	-10386
可视	-10387
后续	-10388
境界	-10389
感和	-10390
手枪	-10391
抽屉	-10392
摄氏	-10393
更少	-10394
用例	-10395
落到	-10396
被判	-10397
贵方	-10398
过失	-10399
钱的	-10400
鳄鱼	-10401
▁仅仅	-10402
▁当前	-10403
▁获取	-10404
一年的	-10405
不只是	-10406
也应该	-10407
合法的	-10408
和管理	-10409
如何在	-10410
技术在	-10411
是目前	-10412
法测定	-10413
▁这是一	-10414
最伟大的	-10415
通过一个	-10416
yn	-10417
不通	-10418
依法	-10419
军的	-10420
创办	-10421
多边	-10422
应变	-10423
怀特	-10424
日光	-10425
曲折	-10426
狩猎	-10427
疲力	-10428
祝贺	-10429
精华	-10430
节俭	-10431
让您	-10432
诺斯	-10433
进度	-10434
亚特兰	-10435
传染病	-10436
对这种	-10437
我真的	-10438
永恒的	-10439
的处理	-10440
对我们的	-10441
政府官员	-10442
正在进行	-10443
▁如果他们	-10444
▁实验结果表明	-10445
65	-10446
交响	-10447
写入	-10448
化了	-10449
和非	-10450
大雨	-10451
天下	-10452
好友	-10453
始于	-10454
托管	-10455
撰写	-10456
普林	-10457
气流	-10458
盛的	-10459
膜炎	-10460
芭蕾	-10461
花瓣	-10462
获利	-10463
触及	-10464
赶上	-10465
转型	-10466
配套	-10467
阿里	-10468
▁我和	-10469
一个有	-10470
一件事	-10471
包括了	-10472
少量的	-10473
我总是	-10474
葡萄糖	-10475
黎巴嫩	-10476
历史学家	-10477
恐怖分子	-10478
意义上的	-10479
▁基	-10480
一动	-10481
介意	-10482
低下	-10483
冒着	-10484
十三	-10485
同类	-10486
学到	-10487
席位	-10488
手提	-10489
救生	-10490
果汁	-10491
正统	-10492
海啸	-10493
清真	-10494
眼球	-10495
终身	-10496
缠绕	-10497
能把	-10498
走私	-10499
辆车	-10500
飞往	-10501
内容的	-10502
几年前	-10503
即使在	-10504
只能在	-10505
提供给	-10506
时间里	-10507
是对的	-10508
的个人	-10509
空间的	-10510
经常被	-10511
能量的	-10512
音乐会	-10513
▁该系统	-10514
西伯利亚	-10515
ep	-10516
▁去	-10517
不行	-10518
人文	-10519
们都	-10520
伸手	-10521
体力	-10522
克制	-10523
兰德	-10524
共鸣	-10525
凉爽	-10526
剑桥	-10527
力气	-10528
土著	-10529
头和	-10530
庄严	-10531
微小	-10532
我被	-10533
房里	-10534
无视	-10535
既有	-10536
最优	-10537
朦胧	-10538
泽西	-10539
的红	-10540
矩形	-10541
肢体	-10542
资深	-10543
车队	-10544
颈部	-10545
麦当	-10546
DVD	-10547
但它们	-10548
咖啡因	-10549
因斯坦	-10550
工作了	-10551
热衷于	-10552
的一块	-10553
的动作	-10554
科医生	-10555
经历过	-10556
统一的	-10557
过多的	-10558
▁这两个	-10559
他们自己	-10560
对他们的	-10561
生物学家	-10562
试验方法	-10563
En	-10564
▁仅	-10565
▁刘	-10566
中药	-10567
位移	-10568
公交	-10569
十七	-10570
吃掉	-10571
在乎	-10572
她也	-10573
已是	-10574
想让	-10575
毛发	-10576
永不	-10577
海关	-10578
游击	-10579
牧场	-10580
礼品	-10581
要我	-10582
赶到	-10583
间隙	-10584
出生于	-10585
在空中	-10586
必不可	-10587
指挥官	-10588
理论的	-10589
的海洋	-10590
目击者	-10591
那时候	-10592
阳光下	-10593
▁无论是	-10594
上的一个	-10595
不太可能	-10596
充分利用	-10597
至少一个	-10598
是一个非常	-10599
▁莱	-10600
与您	-10601
侦察	-10602
全是	-10603
占用	-10604
卡通	-10605
可惜	-10606
吸取	-10607
夫的	-10608
女式	-10609
奶牛	-10610
张开	-10611
怀念	-10612
思念	-10613
明了	-10614
昏迷	-10615
油气	-10616
温馨	-10617
演习	-10618
热点	-10619
特律	-10620
称的	-10621
芬芳	-10622
被捕	-10623
装箱	-10624
转会	-10625
过量	-10626
▁开始	-10627
▁这只	-10628
一年前	-10629
了一件	-10630
怎么做	-10631
无情的	-10632
清楚的	-10633
然后用	-10634
的地点	-10635
精确的	-10636
观察到	-10637
▁我们希望	-10638
的重要组成部分	-10639
▁曾	-10640
亲属	-10641
人际	-10642
壁炉	-10643
备用	-10644
大麻	-10645
子孙	-10646
杀了	-10647
牵引	-10648
致使	-10649
衰老	-10650
视作	-10651
诽谤	-10652
越大	-10653
餐桌	-10654
▁能够	-10655
▁问题	-10656
不符合	-10657
为他的	-10658
人一样	-10659
归咎于	-10660
时间去	-10661
是影响	-10662
来解决	-10663
满意的	-10664
的增加	-10665
的这个	-10666
种类的	-10667
花园里	-10668
这一次	-10669
▁他还说	-10670
任何人都	-10671
免疫系统	-10672
▁地	-10673
▁某	-10674
个子	-10675
做些	-10676
全局	-10677
卖方	-10678
可归	-10679
哈根	-10680
它所	-10681
开枪	-10682
张力	-10683
徒劳	-10684
搁置	-10685
撕裂	-10686
方针	-10687
流逝	-10688
电报	-10689
留给	-10690
私营	-10691
空洞	-10692
纯净	-10693
而你	-10694
而有	-10695
自在	-10696
表中	-10697
辛格	-10698
辨认	-10699
里士	-10700
题材	-10701
作出的	-10702
卡路里	-10703
在一次	-10704
有一只	-10705
生命中	-10706
的人数	-10707
的挑战	-10708
的标志	-10709
的银行	-10710
纤维素	-10711
美味的	-10712
舞台上	-10713
上空	-10714
乌鸦	-10715
了两	-10716
了吧	-10717
像素	-10718
喧嚣	-10719
天主	-10720
巴布	-10721
拆除	-10722
排泄	-10723
改性	-10724
智商	-10725
未曾	-10726
杏仁	-10727
沿岸	-10728
洋洋	-10729
脚的	-10730
脱落	-10731
随即	-10732
香槟	-10733
马的	-10734
并开始	-10735
往往会	-10736
是我国	-10737
的交易	-10738
管理器	-10739
结构和	-10740
采取的	-10741
亚历山大	-10742
都是一个	-10743
3.	-10744
Br	-10745
一堆	-10746
下水	-10747
价的	-10748
保安	-10749
几千	-10750
动着	-10751
坦率	-10752
宣扬	-10753
尼泊	-10754
开门	-10755
是把	-10756
格外	-10757
然的	-10758
画的	-10759
精通	-10760
舞会	-10761
补救	-10762
走近	-10763
项链	-10764
20%	-10765
ile	-10766
中国和	-10767
也需要	-10768
他还是	-10769
所以他	-10770
潜意识	-10771
的规定	-10772
管理局	-10773
阶段的	-10774
▁一些人	-10775
▁这不是	-10776
▁给	-10777
亚伯	-10778
优美	-10779
停在	-10780
充沛	-10781
刹车	-10782
化物	-10783
卡斯	-10784
图中	-10785
将有	-10786
撒谎	-10787
更长	-10788
根深	-10789
梦幻	-10790
狠狠	-10791
理工	-10792
甲烷	-10793
硕士	-10794
立方	-10795
米的	-10796
维度	-10797
羞愧	-10798
表层	-10799
趋向	-10800
遗弃	-10801
end	-10802
▁市场	-10803
▁生活	-10804
他正在	-10805
你现在	-10806
多余的	-10807
太阳系	-10808
我们还	-10809
绝不会	-10810
而成的	-10811
而没有	-10812
超出了	-10813
▁你可能	-10814
发展中国家	-10815
39	-10816
BS	-10817
▁戴	-10818
上传	-10819
下车	-10820
何处	-10821
写下	-10822
凯特	-10823
加勒	-10824
勘探	-10825
化工	-10826
孟买	-10827
得起	-10828
打交	-10829
打扫	-10830
报警	-10831
推导	-10832
百年	-10833
的行	-10834
简要	-10835
腹腔	-10836
表皮	-10837
贿赂	-10838
路面	-10839
退化	-10840
CEO	-10841
IMF	-10842
Man	-10843
rip	-10844
▁建立	-10845
▁提供	-10846
▁这类	-10847
东南亚	-10848
停留在	-10849
实践中	-10850
底特律	-10851
更多地	-10852
状态下	-10853
的大学	-10854
罗斯福	-10855
详细的	-10856
一个女人	-10857
CN	-10858
PD	-10859
伦斯	-10860
促销	-10861
信件	-10862
关上	-10863
军团	-10864
反思	-10865
审理	-10866
年初	-10867
断层	-10868
日内	-10869
棺材	-10870
海绵	-10871
看不	-10872
短短	-10873
离心	-10874
脸颊	-10875
萨科	-10876
重叠	-10877
他发现	-10878
关节炎	-10879
复活节	-10880
失败了	-10881
寄生虫	-10882
很少有	-10883
朋友的	-10884
独裁者	-10885
的销售	-10886
转基因	-10887
▁特别是	-10888
俱乐部的	-10889
是否可以	-10890
是最好的	-10891
爱因斯坦	-10892
身份验证	-10893
之心	-10894
买方	-10895
云南	-10896
亚麻	-10897
体型	-10898
历程	-10899
含糊	-10900
堡垒	-10901
宗旨	-10902
宣誓	-10903
微妙	-10904
心跳	-10905
方形	-10906
格达	-10907
死者	-10908
流水	-10909
矿工	-10910
缓缓	-10911
象牙	-10912
近来	-10913
那张	-10914
钞票	-10915
飞翔	-10916
ire	-10917
▁数据	-10918
▁此后	-10919
他总是	-10920
会造成	-10921
充分的	-10922
凯瑟琳	-10923
奥地利	-10924
对她的	-10925
本质上	-10926
的一场	-10927
的自然	-10928
说的是	-10929
什么地方	-10930
晚些时候	-10931
经济复苏	-10932
▁除此之外	-10933
II	-10934
一枚	-10935
倒塌	-10936
免税	-10937
切实	-10938
初级	-10939
制止	-10940
卷入	-10941
口的	-10942
同位	-10943
和可	-10944
圣灵	-10945
家用	-10946
寡妇	-10947
就可	-10948
建成	-10949
引诱	-10950
引领	-10951
或缺	-10952
挥舞	-10953
救赎	-10954
数年	-10955
斯托	-10956
无礼	-10957
河水	-10958
烧烤	-10959
▁他从	-10960
▁你能	-10961
▁当您	-10962
创造出	-10963
定义为	-10964
恢复了	-10965
有效性	-10966
的年轻	-10967
的材料	-10968
至少是	-10969
该系统	-10970
▁我曾经	-10971
出了一个	-10972
进行研究	-10973
▁我们可以	-10974
▁每个人都	-10975
1)	-10976
AA	-10977
▁真	-10978
中和	-10979
之久	-10980
传记	-10981
佩戴	-10982
内置	-10983
别无	-10984
化身	-10985
叙事	-10986
同在	-10987
外形	-10988
尘土	-10989
布满	-10990
强力	-10991
德曼	-10992
是想	-10993
有序	-10994
未被	-10995
氨基	-10996
漩涡	-10997
煽动	-10998
版的	-10999
病因	-11000
的双	-11001
稍后	-11002
管辖	-11003
组建	-11004
腰带	-11005
补助	-11006
誓言	-11007
议程	-11008
货车	-11009
顽固	-11010
马路	-11011
黄昏	-11012
ork	-11013
▁大卫	-11014
▁谷歌	-11015
▁韩国	-11016
你最好	-11017
匹配的	-11018
大使馆	-11019
心血管	-11020
我并不	-11021
方法和	-11022
显示的	-11023
的前景	-11024
的话语	-11025
结果的	-11026
被要求	-11027
运营商	-11028
黑猩猩	-11029
▁如果有	-11030
▁我发现	-11031
是错误的	-11032
▁公	-11033
亥俄	-11034
作剧	-11035
修剪	-11036
倒闭	-11037
列为	-11038
勒斯	-11039
右侧	-11040
吉姆	-11041
在前	-11042
块的	-11043
坚韧	-11044
就如	-11045
岛的	-11046
市区	-11047
带回	-11048
开花	-11049
得像	-11050
思索	-11051
愈合	-11052
流星	-11053
湿地	-11054
相位	-11055
硬盘	-11056
程式	-11057
美德	-11058
耗尽	-11059
胡椒	-11060
萨拉	-11061
豆腐	-11062
赛事	-11063
迎合	-11064
颁布	-11065
高尚	-11066
▁几天	-11067
俄亥俄	-11068
和个人	-11069
并通过	-11070
建立的	-11071
恶作剧	-11072
改革的	-11073
权力的	-11074
来看看	-11075
武器的	-11076
浏览器	-11077
生产力	-11078
看见了	-11079
等离子	-11080
网络的	-11081
评论家	-11082
监管机构	-11083
还有一些	-11084
远的地方	-11085
卡和会员卡	-11086
CM	-11087
uc	-11088
▁时	-11089
下列	-11090
亵渎	-11091
你还	-11092
停顿	-11093
储藏	-11094
免于	-11095
内核	-11096
冷战	-11097
同等	-11098
因果	-11099
国度	-11100
尔曼	-11101
庄园	-11102
急忙	-11103
我只	-11104
我可	-11105
把钱	-11106
接纳	-11107
时就	-11108
春季	-11109
是件	-11110
牛顿	-11111
而后	-11112
血糖	-11113
进食	-11114
锅炉	-11115
门户	-11116
陨石	-11117
频道	-11118
骆驼	-11119
Pro	-11120
ach	-11121
ank	-11122
▁我从	-11123
与他的	-11124
仍然在	-11125
保护的	-11126
创建的	-11127
和那些	-11128
学研究	-11129
小提琴	-11130
干什么	-11131
我感觉	-11132
是无法	-11133
比赛的	-11134
清真寺	-11135
病毒的	-11136
规则的	-11137
道德的	-11138
银河系	-11139
John	-11140
▁该方法	-11141
你的身体	-11142
因为这些	-11143
处理程序	-11144
有更多的	-11145
▁迄今为止	-11146
做到这一点	-11147
一贯	-11148
价钱	-11149
信托	-11150
凝结	-11151
前行	-11152
反感	-11153
发烧	-11154
取而	-11155
可疑	-11156
封面	-11157
并购	-11158
憎恨	-11159
拉伸	-11160
本次	-11161
气质	-11162
波尔	-11163
离散	-11164
秋季	-11165
群的	-11166
舆论	-11167
获奖	-11168
要点	-11169
跟她	-11170
迷你	-11171
钢筋	-11172
顶上	-11173
鸡肉	-11174
十字架	-11175
史以来	-11176
和服务	-11177
围绕着	-11178
我是个	-11179
或多个	-11180
房子的	-11181
把一个	-11182
星期二	-11183
有一定	-11184
的人在	-11185
约瑟夫	-11186
罗拉多	-11187
转变为	-11188
都可能	-11189
可以选择	-11190
广播公司	-11191
认为这是	-11192
上司	-11193
不肯	-11194
两大	-11195
交配	-11196
你看	-11197
又会	-11198
右翼	-11199
尤文	-11200
展望	-11201
巴比	-11202
带给	-11203
平和	-11204
徒步	-11205
指着	-11206
指针	-11207
日前	-11208
此项	-11209
洞察	-11210
燕麦	-11211
肥料	-11212
肿胀	-11213
蒸气	-11214
角膜	-11215
谣言	-11216
身影	-11217
迁徙	-11218
顶点	-11219
▁原来	-11220
▁拥有	-11221
代表了	-11222
元素的	-11223
公众的	-11224
各自的	-11225
因此而	-11226
密西西	-11227
就可能	-11228
开放的	-11229
手中的	-11230
是相当	-11231
根深蒂	-11232
的物质	-11233
任何地方	-11234
没有得到	-11235
▁也就是说	-11236
▁研究表明	-11237
中对	-11238
听觉	-11239
我为	-11240
歌词	-11241
正要	-11242
武力	-11243
毁坏	-11244
水手	-11245
的木	-11246
美女	-11247
航海	-11248
谦虚	-11249
跑去	-11250
这话	-11251
追赶	-11252
靠在	-11253
食谱	-11254
饥荒	-11255
oft	-11256
▁男人	-11257
▁非常	-11258
不明白	-11259
中进行	-11260
你就能	-11261
有时会	-11262
示威者	-11263
过一个	-11264
每一个人	-11265
民主党人	-11266
还是一个	-11267
高尔夫球	-11268
▁六	-11269
万物	-11270
上瘾	-11271
做为	-11272
内陆	-11273
勇士	-11274
又要	-11275
司令	-11276
和其	-11277
地层	-11278
增值	-11279
拿破	-11280
捍卫	-11281
激起	-11282
爬行	-11283
特说	-11284
现任	-11285
皇后	-11286
简短	-11287
荒凉	-11288
装满	-11289
规矩	-11290
觉醒	-11291
说谎	-11292
风力	-11293
骑兵	-11294
ath	-11295
▁一年	-11296
▁您的	-11297
▁时间	-11298
▁这条	-11299
中国在	-11300
共同的	-11301
成功的	-11302
然后把	-11303
的性能	-11304
看了看	-11305
被告知	-11306
轻松地	-11307
都已经	-11308
一开始就	-11309
做些什么	-11310
全球变暖	-11311
具有重要	-11312
办公室里	-11313
我自己的	-11314
用自己的	-11315
阿拉斯加	-11316
他们自己的	-11317
SM	-11318
TO	-11319
ox	-11320
上限	-11321
加固	-11322
卵巢	-11323
厌烦	-11324
吉普	-11325
应在	-11326
忍耐	-11327
截然	-11328
手腕	-11329
扰乱	-11330
新年	-11331
期货	-11332
格斯	-11333
深远	-11334
牧羊	-11335
现今	-11336
相邻	-11337
筹集	-11338
血统	-11339
解答	-11340
长了	-11341
鹦鹉	-11342
our	-11343
▁不可	-11344
▁汽车	-11345
▁运用	-11346
了一家	-11347
会影响	-11348
看到他	-11349
驾驶员	-11350
高度的	-11351
▁在这一	-11352
大规模的	-11353
委内瑞拉	-11354
制卡和会员卡	-11355
▁费	-11356
三位	-11357
农药	-11358
制片	-11359
午夜	-11360
受人	-11361
咀嚼	-11362
器件	-11363
州立	-11364
左侧	-11365
年间	-11366
晚会	-11367
板和	-11368
栅栏	-11369
每种	-11370
毛病	-11371
沉没	-11372
浸泡	-11373
深圳	-11374
牛排	-11375
男生	-11376
的或	-11377
紧要	-11378
肤色	-11379
舰队	-11380
色谱	-11381
蓬勃	-11382
车库	-11383
遗嘱	-11384
针织	-11385
ern	-11386
代表着	-11387
保守党	-11388
内在的	-11389
她已经	-11390
小孩子	-11391
就会被	-11392
已开始	-11393
最终的	-11394
的一座	-11395
的例子	-11396
的信心	-11397
的痛苦	-11398
行动的	-11399
你也可以	-11400
并不总是	-11401
格鲁吉亚	-11402
Linux	-11403
▁这是一种	-11404
Le	-11405
▁木	-11406
▁超	-11407
之道	-11408
势头	-11409
卖给	-11410
发抖	-11411
喷发	-11412
学员	-11413
居室	-11414
庭院	-11415
弄得	-11416
所要	-11417
救护	-11418
教义	-11419
暴雨	-11420
概述	-11421
横跨	-11422
款项	-11423
求婚	-11424
烟囱	-11425
签字	-11426
糖浆	-11427
草案	-11428
获益	-11429
蘑菇	-11430
订购	-11431
赤道	-11432
走的	-11433
金斯	-11434
长途	-11435
霉素	-11436
颜料	-11437
”,“	-11438
▁父亲	-11439
他说道	-11440
准备的	-11441
可以对	-11442
命名为	-11443
在学校	-11444
将会是	-11445
幼儿园	-11446
幽默感	-11447
承包商	-11448
持久的	-11449
收益率	-11450
本哈根	-11451
申请人	-11452
的习惯	-11453
角色的	-11454
象征着	-11455
到另一个	-11456
可以得到	-11457
天文学家	-11458
很可能是	-11459
我不得不	-11460
是这样的	-11461
这个时候	-11462
这部电影	-11463
时间的推移	-11464
55	-11465
万圣	-11466
下游	-11467
之举	-11468
他与	-11469
伏特	-11470
傍晚	-11471
公认	-11472
口语	-11473
各式	-11474
呼唤	-11475
四十	-11476
在它	-11477
大奖	-11478
将该	-11479
怪异	-11480
指纹	-11481
时分	-11482
曾被	-11483
河边	-11484
流出	-11485
热门	-11486
物料	-11487
理所	-11488
用餐	-11489
租赁	-11490
茶叶	-11491
荒唐	-11492
螺栓	-11493
装载	-11494
证人	-11495
辩证	-11496
阵营	-11497
麻疹	-11498
▁仿真	-11499
▁前言	-11500
▁我对	-11501
▁我把	-11502
▁检查	-11503
中世纪	-11504
他知道	-11505
做成的	-11506
关键的	-11507
准确性	-11508
地进行	-11509
屋子里	-11510
想象力	-11511
感染的	-11512
找一个	-11513
拿破仑	-11514
是个好	-11515
法国人	-11516
特色的	-11517
菲利普	-11518
适配器	-11519
▁我记得	-11520
到了一个	-11521
密西西比	-11522
服务器上	-11523
34	-11524
▁愿	-11525
▁汉	-11526
丙烯	-11527
但对	-11528
冒犯	-11529
出场	-11530
刊登	-11531
列举	-11532
则在	-11533
吃一	-11534
安东	-11535
射手	-11536
忠实	-11537
恶的	-11538
手表	-11539
散文	-11540
涌入	-11541
生了	-11542
痉挛	-11543
缺席	-11544
落叶	-11545
裁员	-11546
西雅	-11547
账单	-11548
露天	-11549
音调	-11550
50%	-11551
▁记者	-11552
▁起初	-11553
三角形	-11554
不变的	-11555
与你们	-11556
使用它	-11557
就能够	-11558
性分析	-11559
抓住了	-11560
的人会	-11561
老年人	-11562
董事长	-11563
让它们	-11564
▁如果是	-11565
哥本哈根	-11566
就是这样	-11567
德克萨斯	-11568
感到非常	-11569
ue	-11570
▁沙	-11571
▁泰	-11572
▁答	-11573
你和	-11574
吞噬	-11575
在天	-11576
字典	-11577
学金	-11578
庆典	-11579
很低	-11580
律法	-11581
想把	-11582
打包	-11583
拖拉	-11584
昨日	-11585
校正	-11586
格丽	-11587
沉闷	-11588
湿润	-11589
瓶颈	-11590
电厂	-11591
诠释	-11592
起步	-11593
足迹	-11594
邮票	-11595
鲸鱼	-11596
IPO	-11597
▁电子	-11598
交易的	-11599
但还是	-11600
原材料	-11601
可能要	-11602
同事们	-11603
建筑师	-11604
您需要	-11605
根本不	-11606
甚至连	-11607
的手段	-11608
第三个	-11609
这个小	-11610
▁在许多	-11611
发生变化	-11612
如果不是	-11613
研究结果	-11614
sp	-11615
▁微	-11616
▁清	-11617
之人	-11618
在马	-11619
导管	-11620
并有	-11621
患病	-11622
朝圣	-11623
椅上	-11624
皮带	-11625
苦恼	-11626
裂纹	-11627
西装	-11628
载荷	-11629
这幅	-11630
钻井	-11631
阿姆	-11632
飙升	-11633
▁这么	-11634
乳腺癌	-11635
以确定	-11636
再加上	-11637
在其他	-11638
政治上	-11639
珍贵的	-11640
的地步	-11641
的心灵	-11642
的相关	-11643
的真实	-11644
的许多	-11645
而闻名	-11646
通过对	-11647
知识产权	-11648
▁这就是为什么	-11649
Th	-11650
aw	-11651
一款	-11652
信封	-11653
克罗	-11654
听证	-11655
园林	-11656
多德	-11657
干脆	-11658
托盘	-11659
杰出	-11660
梦境	-11661
歌剧	-11662
渔业	-11663
溶性	-11664
犹大	-11665
知觉	-11666
经费	-11667
职能	-11668
肾脏	-11669
背心	-11670
表述	-11671
金刚	-11672
雪花	-11673
▁不仅	-11674
和技术	-11675
新生儿	-11676
星期三	-11677
朋友和	-11678
然后又	-11679
电视机	-11680
的健康	-11681
的理想	-11682
短期内	-11683
破坏了	-11684
还不够	-11685
iPad	-11686
▁我一直	-11687
▁我现在	-11688
一个小时	-11689
取而代之	-11690
我们能够	-11691
遗憾的是	-11692
Twitter	-11693
1,	-11694
47	-11695
AC	-11696
IC	-11697
交织	-11698
人被	-11699
侵害	-11700
倒入	-11701
倒是	-11702
北欧	-11703
卖掉	-11704
安宁	-11705
帆船	-11706
开头	-11707
惠普	-11708
抚摸	-11709
未必	-11710
机组	-11711
机能	-11712
核桃	-11713
步兵	-11714
毛细	-11715
点点	-11716
缺血	-11717
肺癌	-11718
脊柱	-11719
血流	-11720
计量	-11721
阵列	-11722
靠着	-11723
饱受	-11724
And	-11725
▁看来	-11726
▁确实	-11727
▁这也	-11728
一句话	-11729
人人都	-11730
的信号	-11731
的形状	-11732
的趋势	-11733
知识的	-11734
迪斯尼	-11735
选举中	-11736
遭到了	-11737
静静地	-11738
大部分的	-11739
少数民族	-11740
的环境中	-11741
耶稣基督	-11742
具有重要的	-11743
▁假	-11744
▁太	-11745
以求	-11746
伺服	-11747
住的	-11748
体上	-11749
制动	-11750
双边	-11751
取的	-11752
受精	-11753
多于	-11754
并向	-11755
忏悔	-11756
打个	-11757
是该	-11758
杂草	-11759
湖人	-11760
演绎	-11761
照料	-11762
特网	-11763
看守	-11764
空虚	-11765
纵向	-11766
结实	-11767
访者	-11768
for	-11769
▁否则	-11770
不会被	-11771
中一个	-11772
作出了	-11773
只要你	-11774
国家和	-11775
引发的	-11776
情人节	-11777
政府和	-11778
显示在	-11779
暴力的	-11780
的一员	-11781
纪念品	-11782
超声波	-11783
轻微的	-11784
适合于	-11785
▁我没有	-11786
我们自己	-11787
电视节目	-11788
▁带	-11789
▁英	-11790
▁里	-11791
七个	-11792
人间	-11793
册子	-11794
她又	-11795
安抚	-11796
宽阔	-11797
巴菲	-11798
得不	-11799
悉尼	-11800
教条	-11801
教科	-11802
杂交	-11803
汉姆	-11804
火花	-11805
用到	-11806
画像	-11807
界定	-11808
直立	-11809
破灭	-11810
趋于	-11811
转折	-11812
辨别	-11813
间歇	-11814
雇用	-11815
震荡	-11816
▁女人	-11817
▁要想	-11818
和控制	-11819
在北京	-11820
基因的	-11821
抑郁症	-11822
方式来	-11823
是你的	-11824
期待着	-11825
桌子上	-11826
的父母	-11827
你的生活	-11828
并不需要	-11829
民族主义	-11830
神经系统	-11831
纽约时报	-11832
▁目的观察	-11833
AL	-11834
▁成	-11835
一再	-11836
两岸	-11837
中子	-11838
主办	-11839
乐团	-11840
公牛	-11841
兼职	-11842
口号	-11843
地对	-11844
布雷	-11845
意想	-11846
所知	-11847
收敛	-11848
敌意	-11849
教养	-11850
楼上	-11851
此外	-11852
物资	-11853
着头	-11854
章节	-11855
紧身	-11856
终极	-11857
草药	-11858
评判	-11859
说不	-11860
贫血	-11861
重写	-11862
骑马	-11863
ton	-11864
▁出于	-11865
▁如同	-11866
▁提出	-11867
严厉的	-11868
他一直	-11869
代理人	-11870
公司和	-11871
富有的	-11872
开发商	-11873
性质的	-11874
注视着	-11875
的未来	-11876
这是我	-11877
驱动器	-11878
想象一下	-11879
成了一个	-11880
有很大的	-11881
营养不良	-11882
这个故事	-11883
这篇文章	-11884
BP	-11885
一笑	-11886
专心	-11887
侦探	-11888
再现	-11889
写到	-11890
埋葬	-11891
失衡	-11892
失调	-11893
对立	-11894
幼稚	-11895
攀升	-11896
支援	-11897
方言	-11898
机票	-11899
毛衣	-11900
湿度	-11901
狗狗	-11902
疑虑	-11903
走势	-11904
遇难	-11905
高盛	-11906
und	-11907
▁所谓	-11908
▁看看	-11909
一分钟	-11910
年开始	-11911
快速的	-11912
怎么说	-11913
成员的	-11914
描述为	-11915
方式的	-11916
显示器	-11917
的必要	-11918
的气味	-11919
真是太	-11920
被广泛	-11921
通过了	-11922
麦凯恩	-11923
显而易见	-11924
试验研究	-11925
▁华	-11926
▁心	-11927
一到	-11928
下令	-11929
中立	-11930
也为	-11931
作曲	-11932
和多	-11933
尔森	-11934
情侣	-11935
拉罕	-11936
旅途	-11937
日渐	-11938
末日	-11939
步入	-11940
水稻	-11941
疲软	-11942
的圣	-11943
科比	-11944
膀胱	-11945
行性	-11946
诺曼	-11947
读到	-11948
起点	-11949
铸造	-11950
韧性	-11951
骑着	-11952
800	-11953
con	-11954
▁因而	-11955
▁应该	-11956
从来没	-11957
众议院	-11958
会增加	-11959
但他的	-11960
做准备	-11961
允许您	-11962
可用的	-11963
在不同	-11964
在每个	-11965
工人们	-11966
感恩节	-11967
所有权	-11968
每天都	-11969
生产总	-11970
的秘密	-11971
的网络	-11972
能不能	-11973
脆弱的	-11974
国会议员	-11975
奇怪的是	-11976
我们发现	-11977
Inter	-11978
▁相比之下	-11979
前所未有的	-11980
引人注目的	-11981
联系在一起	-11982
▁浅	-11983
一千	-11984
上都	-11985
列入	-11986
判定	-11987
可达	-11988
地平	-11989
奖项	-11990
店的	-11991
悬浮	-11992
时钟	-11993
棕榈	-11994
榜样	-11995
水池	-11996
焚烧	-11997
用处	-11998
碎的	-11999
离职	-12000
罪名	-12001
美人	-12002
老是	-12003
落入	-12004
袋子	-12005
调度	-12006
身高	-12007
防卫	-12008
阵容	-12009
Dav	-12010
一个不	-12011
会发现	-12012
将会被	-12013
就需要	-12014
巴格达	-12015
我正在	-12016
报告中	-12017
拒绝了	-12018
甲状腺	-12019
的比例	-12020
的资金	-12021
紫外线	-12022
而现在	-12023
金正日	-12024
▁即使在	-12025
▁在一些	-12026
吸引力的	-12027
奥林匹克	-12028
MR	-12029
──	-12030
▁国	-12031
▁跟	-12032
一事	-12033
一类	-12034
侵权	-12035
僵硬	-12036
加盟	-12037
发票	-12038
向量	-12039
威力	-12040
差点	-12041
断了	-12042
树干	-12043
留言	-12044
盎司	-12045
维克	-12046
老化	-12047
耻辱	-12048
血腥	-12049
译者	-12050
醒了	-12051
重现	-12052
雷曼	-12053
首领	-12054
鲜明	-12055
▁双方	-12056
▁欧盟	-12057
▁第五	-12058
不公平	-12059
什么的	-12060
当一个	-12061
更愿意	-12062
有人在	-12063
的外交	-12064
的天然	-12065
的条件	-12066
第一位	-12067
肯定的	-12068
自以为	-12069
▁如果不	-12070
ax	-12071
te	-12072
中止	-12073
事宜	-12074
产出	-12075
以使	-12076
公务	-12077
召集	-12078
吸毒	-12079
和最	-12080
器具	-12081
奇妙	-12082
开阔	-12083
战的	-12084
执照	-12085
掌声	-12086
旗帜	-12087
格局	-12088
海拔	-12089
海里	-12090
物件	-12091
电线	-12092
疏散	-12093
简易	-12094
罗宾	-12095
罪的	-12096
落实	-12097
衣着	-12098
送往	-12099
镶嵌	-12100
▁就算	-12101
▁论文	-12102
一辈子	-12103
不管是	-12104
你们要	-12105
同位素	-12106
呼吸道	-12107
图像的	-12108
它可能	-12109
家里的	-12110
战斗机	-12111
是不能	-12112
来完成	-12113
生长的	-12114
的外观	-12115
的权力	-12116
起到了	-12117
▁你认为	-12118
圣诞老人	-12119
基地组织	-12120
环境保护	-12121
这个过程	-12122
▁对于一个	-12123
我们的生活	-12124
1%	-12125
DE	-12126
SB	-12127
不由	-12128
产的	-12129
出路	-12130
口音	-12131
后院	-12132
听从	-12133
坚称	-12134
大为	-12135
守卫	-12136
幼虫	-12137
底的	-12138
开创	-12139
摆放	-12140
智利	-12141
服役	-12142
杀虫	-12143
构件	-12144
流向	-12145
碰巧	-12146
窗帘	-12147
维基	-12148
耕地	-12149
薄荷	-12150
诸塞	-12151
赌场	-12152
蹒跚	-12153
隐瞒	-12154
鲁莽	-12155
▁以及	-12156
▁有了	-12157
世界中	-12158
什么呢	-12159
再也不	-12160
发出了	-12161
发生过	-12162
哈马斯	-12163
国防部	-12164
大大的	-12165
如果是	-12166
打交道	-12167
柔软的	-12168
模糊的	-12169
火车站	-12170
的疗效	-12171
神奇的	-12172
角落里	-12173
成为一种	-12174
最常见的	-12175
采取措施	-12176
变成了一个	-12177
争斗	-12178
充实	-12179
利桑	-12180
可谓	-12181
后就	-12182
唾液	-12183
喷气	-12184
孙子	-12185
小儿	-12186
屏蔽	-12187
弱势	-12188
怀里	-12189
态的	-12190
拉图	-12191
挂着	-12192
播种	-12193
氨酸	-12194
水量	-12195
沉的	-12196
海报	-12197
点钟	-12198
热闹	-12199
珍贵	-12200
疏忽	-12201
高昂	-12202
黄瓜	-12203
age	-12204
三角洲	-12205
员工的	-12206
地方的	-12207
沙发上	-12208
理论和	-12209
第三方	-12210
级别的	-12211
肯定是	-12212
该如何	-12213
一个问题	-12214
▁博	-12215
一如	-12216
之物	-12217
亚的	-12218
全家	-12219
冰山	-12220
剂和	-12221
北韩	-12222
卡因	-12223
叹息	-12224
尔摩	-12225
平淡	-12226
当下	-12227
急需	-12228
性是	-12229
抗原	-12230
敢于	-12231
浪潮	-12232
源头	-12233
疯子	-12234
盗窃	-12235
盼望	-12236
着眼	-12237
稻草	-12238
突发	-12239
紊乱	-12240
线圈	-12241
经由	-12242
者是	-12243
胜任	-12244
草本	-12245
车道	-12246
邻近	-12247
钦佩	-12248
间断	-12249
Com	-12250
Mic	-12251
▁部分	-12252
不是在	-12253
个星期	-12254
体内的	-12255
另一半	-12256
哪一个	-12257
尽全力	-12258
工业化	-12259
工作和	-12260
我想要	-12261
正确地	-12262
的房间	-12263
的这种	-12264
睡着了	-12265
走出来	-12266
需求的	-12267
1999	-12268
▁多年来	-12269
▁很明显	-12270
不同的是	-12271
在我看来	-12272
知道自己	-12273
);	-12274
-3	-12275
:‘	-12276
▁‘	-12277
▁塞	-12278
两边	-12279
休假	-12280
但要	-12281
偏好	-12282
刀具	-12283
制药	-12284
口服	-12285
喷雾	-12286
完毕	-12287
惧怕	-12288
把那	-12289
放电	-12290
本科	-12291
武士	-12292
没了	-12293
泛滥	-12294
海边	-12295
火鸡	-12296
灭亡	-12297
生化	-12298
生机	-12299
胜过	-12300
能被	-12301
英俊	-12302
辅导	-12303
问她	-12304
阿斯	-12305
风湿	-12306
高地	-12307
▁以下	-12308
▁回到	-12309
不一致	-12310
加勒比	-12311
去参加	-12312
建立起	-12313
想起了	-12314
的一段	-12315
确实是	-12316
能帮助	-12317
起源于	-12318
达到的	-12319
▁许多人	-12320
作为一名	-12321
数据库中	-12322
是我们的	-12323
显而易见的	-12324
2%	-12325
Qu	-12326
’,	-12327
作响	-12328
保温	-12329
先驱	-12330
压器	-12331
史诗	-12332
声望	-12333
备忘	-12334
多项	-12335
平庸	-12336
手续	-12337
技艺	-12338
挫败	-12339
推向	-12340
放纵	-12341
新颖	-12342
暖和	-12343
步枪	-12344
氯化	-12345
沉迷	-12346
澳门	-12347
灭火	-12348
物价	-12349
疑惑	-12350
知晓	-12351
红柿	-12352
细致	-12353
罐头	-12354
艰巨	-12355
言辞	-12356
评审	-12357
谦逊	-12358
走着	-12359
这本	-12360
邮报	-12361
隔壁	-12362
鸭子	-12363
Gro	-12364
业务的	-12365
他们不	-12366
他必须	-12367
供应链	-12368
双胞胎	-12369
家可归	-12370
尼泊尔	-12371
性问题	-12372
改变的	-12373
有责任	-12374
法律的	-12375
的教育	-12376
管理和	-12377
警察局	-12378
▁分析了	-12379
他的父亲	-12380
的年轻人	-12381
笔记本电脑	-12382
▁早	-12383
下属	-12384
传媒	-12385
信服	-12386
停下	-12387
健壮	-12388
出价	-12389
劫持	-12390
合资	-12391
岸边	-12392
怒气	-12393
性交	-12394
晚宴	-12395
有好	-12396
期盼	-12397
瓦解	-12398
白血	-12399
矫正	-12400
穿的	-12401
职工	-12402
脑子	-12403
脚踏	-12404
苔丝	-12405
荒野	-12406
衰竭	-12407
话说	-12408
这颗	-12409
金子	-12410
顶峰	-12411
骗局	-12412
120	-12413
▁那是	-12414
东北部	-12415
了一大	-12416
作用下	-12417
只剩下	-12418
在所有	-12419
应有的	-12420
忘记了	-12421
我们从	-12422
没有了	-12423
照相机	-12424
的灵魂	-12425
精致的	-12426
▁你必须	-12427
石油公司	-12428
即将到来的	-12429
马克思主义	-12430
MP	-12431
ht	-12432
▁尼	-12433
▁库	-12434
万人	-12435
上千	-12436
你好	-12437
便携	-12438
做梦	-12439
双腿	-12440
器械	-12441
姚明	-12442
巧合	-12443
底线	-12444
开辟	-12445
总能	-12446
扣除	-12447
操控	-12448
松弛	-12449
橡木	-12450
毛的	-12451
水准	-12452
海滨	-12453
爆破	-12454
电容	-12455
疯了	-12456
省略	-12457
耗费	-12458
胜地	-12459
蒸馏	-12460
蛋黄	-12461
起义	-12462
190	-12463
BBC	-12464
▁了解	-12465
▁再次	-12466
▁此前	-12467
▁看着	-12468
一方面	-12469
事务所	-12470
人们会	-12471
会带来	-12472
做好了	-12473
农作物	-12474
出版商	-12475
和分析	-12476
地下水	-12477
她没有	-12478
尝试着	-12479
属性的	-12480
工人的	-12481
应该被	-12482
我看见	-12483
或许是	-12484
新鲜的	-12485
方向盘	-12486
游戏中	-12487
的希望	-12488
的表情	-12489
美妙的	-12490
萨诸塞	-12491
都认为	-12492
集装箱	-12493
▁即使是	-12494
▁在某些	-12495
主要用于	-12496
使用这些	-12497
唯一一个	-12498
我是一个	-12499
新兴市场	-12500
不复	-12501
切地	-12502
反击	-12503
合格	-12504
吉祥	-12505
后再	-12506
多达	-12507
套装	-12508
我了	-12509
截止	-12510
招募	-12511
斯和	-12512
普拉	-12513
第六	-12514
简称	-12515
精密	-12516
设在	-12517
造就	-12518
遗址	-12519
陈列	-12520
驯鹿	-12521
龙虾	-12522
▁孩子	-12523
万圣节	-12524
不小心	-12525
但不是	-12526
可通过	-12527
在那个	-12528
她自己	-12529
度过了	-12530
是那么	-12531
电影院	-12532
的报道	-12533
胰岛素	-12534
马拉松	-12535
令人惊讶	-12536
智能手机	-12537
联系起来	-12538
这种做法	-12539
重新开始	-12540
Bl	-12541
中美	-12542
了些	-12543
二手	-12544
传言	-12545
体和	-12546
区内	-12547
响了	-12548
广义	-12549
敲门	-12550
沙丘	-12551
流氓	-12552
深思	-12553
游说	-12554
爱心	-12555
特许	-12556
的单	-12557
皇室	-12558
纸板	-12559
而过	-12560
闭上	-12561
香肠	-12562
驱使	-12563
骑车	-12564
默德	-12565
不平衡	-12566
以防止	-12567
作品中	-12568
到这个	-12569
去看看	-12570
可能对	-12571
将一个	-12572
底部的	-12573
恰当的	-12574
系列的	-12575
被人们	-12576
还不能	-12577
但是现在	-12578
印第安纳	-12579
因为他的	-12580
影响力的	-12581
整个世界	-12582
的最好的	-12583
角度来看	-12584
▁如果你在	-12585
▁对我来说	-12586
OR	-12587
▁来	-12588
上层	-12589
不妨	-12590
代数	-12591
伤的	-12592
光子	-12593
光荣	-12594
卑鄙	-12595
发芽	-12596
在两	-12597
均有	-12598
墓地	-12599
头盔	-12600
帮他	-12601
店铺	-12602
强势	-12603
或有	-12604
批发	-12605
投降	-12606
控告	-12607
昏暗	-12608
浮现	-12609
海地	-12610
点和	-12611
的受	-12612
貌似	-12613
配有	-12614
金发	-12615
高涨	-12616
ass	-12617
ure	-12618
▁简单	-12619
▁香港	-12620
不一定	-12621
事情的	-12622
十分钟	-12623
在网上	-12624
多元化	-12625
必须的	-12626
来决定	-12627
来处理	-12628
汽车的	-12629
流行病	-12630
灌木丛	-12631
着她的	-12632
编辑器	-12633
艺术的	-12634
被一个	-12635
证实了	-12636
还是会	-12637
▁第二个	-12638
不可或缺	-12639
对于一个	-12640
温室气体	-12641
科罗拉多	-12642
解决方法	-12643
都有一个	-12644
存在的问题	-12645
”)	-12646
不开	-12647
侵袭	-12648
修辞	-12649
入住	-12650
出人	-12651
刻意	-12652
家宝	-12653
就将	-12654
平坦	-12655
幻觉	-12656
强盗	-12657
征兆	-12658
待在	-12659
恩典	-12660
惊慌	-12661
想念	-12662
方位	-12663
比萨	-12664
短裤	-12665
立足	-12666
纳的	-12667
肺部	-12668
英勇	-12669
规章	-12670
规避	-12671
迪克	-12672
顶尖	-12673
▁信息	-12674
▁希腊	-12675
▁我曾	-12676
与你的	-12677
人士说	-12678
他可能	-12679
但是你	-12680
发生时	-12681
如此的	-12682
弗兰克	-12683
是这个	-12684
的信仰	-12685
的外国	-12686
的高级	-12687
相关联	-12688
看一下	-12689
纪念碑	-12690
西红柿	-12691
设计中	-12692
都非常	-12693
▁其他的	-12694
▁看起来	-12695
不知不觉	-12696
做了一个	-12697
准备好了	-12698
印象深刻	-12699
来到这里	-12700
着自己的	-12701
西方国家	-12702
负面影响	-12703
▁他是一个	-12704
,,	-12705
一想	-12706
不育	-12707
会见	-12708
但仍	-12709
光辉	-12710
免得	-12711
准时	-12712
制冷	-12713
包容	-12714
发泄	-12715
君子	-12716
售货	-12717
天地	-12718
届时	-12719
座的	-12720
延误	-12721
微观	-12722
湖南	-12723
爱和	-12724
眉毛	-12725
荷马	-12726
解散	-12727
造物	-12728
雪茄	-12729
风雨	-12730
鸡尾	-12731
act	-12732
▁乔治	-12733
▁它还	-12734
一直到	-12735
了多少	-12736
什么样	-12737
但是却	-12738
债权人	-12739
又一个	-12740
另一位	-12741
地位的	-12742
备忘录	-12743
对人类	-12744
很小的	-12745
所用的	-12746
新型的	-12747
的可能	-12748
的特征	-12749
统计学	-12750
通常在	-12751
▁据报道	-12752
▁这里的	-12753
他们就会	-12754
国际社会	-12755
理所当然	-12756
电话号码	-12757
研究显示	-12758
还有很多	-12759
一分	-12760
低声	-12761
保养	-12762
儿的	-12763
再也	-12764
号召	-12765
壁画	-12766
外围	-12767
戒烟	-12768
截至	-12769
托尼	-12770
拿来	-12771
松鼠	-12772
构想	-12773
梯度	-12774
消遣	-12775
的分	-12776
石墨	-12777
莱斯	-12778
街区	-12779
谦卑	-12780
那人	-12781
都已	-12782
酸性	-12783
隐约	-12784
高大	-12785
高雅	-12786
鱼和	-12787
URL	-12788
▁结合	-12789
勇敢的	-12790
化学品	-12791
在很多	-12792
存储在	-12793
建议你	-12794
心灵的	-12795
是一片	-12796
的心脏	-12797
的战争	-12798
贫民窟	-12799
限制的	-12800
1990	-12801
她的丈夫	-12802
影响因素	-12803
阿姆斯特	-12804
▁在此基础上	-12805
▁明	-12806
传闻	-12807
作风	-12808
凝视	-12809
器材	-12810
回合	-12811
展出	-12812
席卷	-12813
幻灯	-12814
忙于	-12815
掉的	-12816
摩天	-12817
散热	-12818
最少	-12819
机床	-12820
案子	-12821
王的	-12822
看他	-12823
腹泻	-12824
赦免	-12825
跟鞋	-12826
重构	-12827
The	-12828
作品的	-12829
你将会	-12830
停止了	-12831
公里的	-12832
和精神	-12833
外交官	-12834
并最终	-12835
旅行的	-12836
是一部	-12837
极大地	-12838
极好的	-12839
标准化	-12840
沃尔玛	-12841
法尼亚	-12842
法西斯	-12843
流动的	-12844
编译器	-12845
而是在	-12846
草地上	-12847
被证明	-12848
健康状况	-12849
▁分	-12850
▁杜	-12851
▁韦	-12852
一身	-12853
万一	-12854
中年	-12855
乳头	-12856
付诸	-12857
又在	-12858
听力	-12859
图画	-12860
对的	-12861
左手	-12862
巴拉	-12863
并行	-12864
拆卸	-12865
拦截	-12866
法对	-12867
男式	-12868
米德	-12869
苍蝇	-12870
要从	-12871
跑道	-12872
躲在	-12873
近代	-12874
逾越	-12875
ber	-12876
▁似乎	-12877
▁学习	-12878
▁这部	-12879
中发现	-12880
了一段	-12881
做的是	-12882
出版社	-12883
制定的	-12884
反对党	-12885
寒冷的	-12886
星期天	-12887
是基于	-12888
比以前	-12889
添加剂	-12890
理事会	-12891
的意见	-12892
觉得很	-12893
默克尔	-12894
医疗保险	-12895
选择一个	-12896
IF	-12897
▁夏	-12898
不解	-12899
五月	-12900
低廉	-12901
变性	-12902
叫人	-12903
大坝	-12904
它还	-12905
对人	-12906
导电	-12907
小鸟	-12908
州和	-12909
差的	-12910
我已	-12911
有待	-12912
极少	-12913
格言	-12914
残余	-12915
点火	-12916
胡须	-12917
自称	-12918
菜肴	-12919
衬衣	-12920
谈及	-12921
近日	-12922
进取	-12923
阐明	-12924
高档	-12925
▁一切	-12926
▁其它	-12927
一本书	-12928
不能够	-12929
听上去	-12930
学习的	-12931
将导致	-12932
已知的	-12933
微笑着	-12934
提供者	-12935
无限的	-12936
有价值	-12937
有帮助	-12938
污染的	-12939
理解和	-12940
确定了	-12941
规模的	-12942
适应性	-12943
那时起	-12944
▁传统的	-12945
▁投资者	-12946
▁研究者	-12947
不确定性	-12948
世纪以来	-12949
他们必须	-12950
有自己的	-12951
的时间来	-12952
▁施	-12953
▁瑞	-12954
▁连	-12955
不便	-12956
不入	-12957
不前	-12958
中了	-12959
也好	-12960
他正	-12961
使者	-12962
冷淡	-12963
听了	-12964
哀悼	-12965
够了	-12966
大宗	-12967
她去	-12968
寺庙	-12969
将你	-12970
干活	-12971
恐吓	-12972
成品	-12973
摇篮	-12974
无机	-12975
消退	-12976
涉嫌	-12977
点上	-12978
绵羊	-12979
羚羊	-12980
自卫	-12981
西瓜	-12982
隔绝	-12983
▁测试	-12984
他就会	-12985
保持在	-12986
其实是	-12987
分辨率	-12988
利桑那	-12989
大理石	-12990
大萧条	-12991
弄清楚	-12992
当地人	-12993
彻底的	-12994
愤怒的	-12995
是多少	-12996
椭圆形	-12997
的患者	-12998
的模式	-12999
移动的	-13000
综合症	-13001
街道上	-13002
说的话	-13003
▁意大利	-13004
▁这也是	-13005
令人兴奋	-13006
发挥作用	-13007
只是一种	-13008
在过去的	-13009
就可以了	-13010
并不知道	-13011
航天飞机	-13012
进行比较	-13013
Micros	-13014
Am	-13015
▁谢	-13016
不一	-13017
任职	-13018
动手	-13019
卵石	-13020
喧闹	-13021
外衣	-13022
天体	-13023
她把	-13024
患上	-13025
意地	-13026
按时	-13027
无奈	-13028
无耻	-13029
木板	-13030
火炬	-13031
灵性	-13032
点心	-13033
瑕疵	-13034
画廊	-13035
疱疹	-13036
箭头	-13037
维奇	-13038
语和	-13039
长官	-13040
陆战	-13041
食肉	-13042
驱散	-13043
90%	-13044
▁想想	-13045
从而使	-13046
他们能	-13047
会变得	-13048
你能够	-13049
南部的	-13050
参数的	-13051
双方的	-13052
大城市	-13053
大教堂	-13054
天生的	-13055
完整性	-13056
小时的	-13057
德国人	-13058
我爱你	-13059
拿出来	-13060
无疑是	-13061
有兴趣	-13062
的广告	-13063
纯粹的	-13064
组织和	-13065
▁加拿大	-13066
你的孩子	-13067
博士学位	-13068
可能不会	-13069
我很高兴	-13070
应用程序中	-13071
▁书	-13072
▁塔	-13073
一封	-13074
世代	-13075
从你	-13076
会比	-13077
借此	-13078
凤凰	-13079
又能	-13080
发热	-13081
往来	-13082
征税	-13083
手下	-13084
拓扑	-13085
改编	-13086
极管	-13087
气动	-13088
王朝	-13089
病菌	-13090
的原	-13091
的被	-13092
盘旋	-13093
碳水	-13094
精美	-13095
绕着	-13096
而下	-13097
衰落	-13098
讲究	-13099
费力	-13100
越好	-13101
轻柔	-13102
野餐	-13103
金星	-13104
键入	-13105
阁楼	-13106
陶醉	-13107
▁伊朗	-13108
了一年	-13109
什么都	-13110
分布式	-13111
和它的	-13112
和朋友	-13113
咖啡馆	-13114
对任何	-13115
庸置疑	-13116
得很好	-13117
想到的	-13118
最小的	-13119
本公司	-13120
然后就	-13121
的一张	-13122
的大门	-13123
的成绩	-13124
的这些	-13125
突尼斯	-13126
网络上	-13127
而不会	-13128
脸上的	-13129
自然界	-13130
通用的	-13131
金色的	-13132
▁上个月	-13133
似乎已经	-13134
因素之一	-13135
是在一个	-13136
可能会导致	-13137
Microsoft	-13138
▁噢	-13139
▁沃	-13140
也曾	-13141
充气	-13142
光束	-13143
六月	-13144
刚果	-13145
印花	-13146
向您	-13147
喜好	-13148
圆锥	-13149
大人	-13150
孕育	-13151
布料	-13152
建构	-13153
总额	-13154
拉利	-13155
摩洛	-13156
无能	-13157
日落	-13158
有如	-13159
机智	-13160
材质	-13161
果断	-13162
根除	-13163
没收	-13164
油和	-13165
海的	-13166
温泉	-13167
略微	-13168
的的	-13169
粘贴	-13170
结石	-13171
缺口	-13172
罗门	-13173
良心	-13174
诈骗	-13175
院校	-13176
革新	-13177
ant	-13178
▁一家	-13179
▁介绍	-13180
▁很快	-13181
▁计算	-13182
健康和	-13183
原始的	-13184
在国际	-13185
它已经	-13186
巴菲特	-13187
本身的	-13188
狂热的	-13189
的长度	-13190
聚集在	-13191
迅速地	-13192
ript	-13193
▁一旦你	-13194
▁他们还	-13195
▁他没有	-13196
千万不要	-13197
我的生活	-13198
的另一个	-13199
这并不是	-13200
▁他们认为	-13201
▁在我看来	-13202
的工作人员	-13203
3%	-13204
▁诚	-13205
两党	-13206
买的	-13207
光电	-13208
关掉	-13209
华德	-13210
参照	-13211
后退	-13212
声名	-13213
失落	-13214
奇特	-13215
异步	-13216
归于	-13217
彗星	-13218
我曾	-13219
接头	-13220
机体	-13221
林顿	-13222
淋浴	-13223
牢牢	-13224
疗养	-13225
称其	-13226
空袭	-13227
耐药	-13228
语境	-13229
贪污	-13230
迫害	-13231
阳性	-13232
面条	-13233
专家们	-13234
商学院	-13235
在今年	-13236
奥尔良	-13237
巴比伦	-13238
橄榄球	-13239
没想到	-13240
男人们	-13241
的心态	-13242
的联系	-13243
看着我	-13244
这方面	-13245
▁在英国	-13246
投资者的	-13247
的影响力	-13248
这些都是	-13249
这可能是	-13250
ational	-13251
IR	-13252
Or	-13253
ok	-13254
▁河	-13255
之夜	-13256
休斯	-13257
修女	-13258
卖出	-13259
听过	-13260
头疼	-13261
学历	-13262
布兰	-13263
得益	-13264
微弱	-13265
总监	-13266
打赌	-13267
施行	-13268
显出	-13269
母乳	-13270
混沌	-13271
烦躁	-13272
砍伐	-13273
约旦	-13274
给您	-13275
美观	-13276
裁定	-13277
赶快	-13278
迈阿	-13279
问你	-13280
高贵	-13281
黑莓	-13282
ast	-13283
les	-13284
old	-13285
▁不能	-13286
一整天	-13287
了一套	-13288
了整个	-13289
他决定	-13290
去寻找	-13291
声明中	-13292
就在于	-13293
居住的	-13294
帝国的	-13295
并不像	-13296
我无法	-13297
所有者	-13298
文化和	-13299
斯科特	-13300
暂时的	-13301
点什么	-13302
生产线	-13303
的日常	-13304
胜利的	-13305
走过来	-13306
错过了	-13307
飞行器	-13308
鸡尾酒	-13309
可以看出	-13310
如何使用	-13311
就是为了	-13312
沙特阿拉伯	-13313
’。	-13314
▁乌	-13315
▁数	-13316
一朵	-13317
上游	-13318
下周	-13319
不信	-13320
与此	-13321
也对	-13322
亚哥	-13323
几位	-13324
制订	-13325
剪刀	-13326
取向	-13327
噩梦	-13328
坦诚	-13329
士气	-13330
夺取	-13331
学业	-13332
安然	-13333
将以	-13334
巡回	-13335
工序	-13336
干了	-13337
我家	-13338
投射	-13339
拷贝	-13340
捆绑	-13341
摄取	-13342
攀登	-13343
枯燥	-13344
校准	-13345
棵树	-13346
气泡	-13347
深信	-13348
清澈	-13349
渔船	-13350
灯塔	-13351
生于	-13352
田园	-13353
瘟疫	-13354
的名	-13355
的四	-13356
皮特	-13357
纹身	-13358
缺损	-13359
而行	-13360
落下	-13361
被困	-13362
言不	-13363
起重	-13364
造影	-13365
预警	-13366
馅饼	-13367
不属于	-13368
不用说	-13369
主持人	-13370
了一块	-13371
以此来	-13372
可行性	-13373
在你们	-13374
威尔逊	-13375
安德鲁	-13376
忍不住	-13377
我只能	-13378
打破了	-13379
数以千	-13380
测量的	-13381
的原则	-13382
的讨论	-13383
的路上	-13384
知道你	-13385
谢谢你	-13386
选择性	-13387
▁在我的	-13388
▁真正的	-13389
中国经济	-13390
人力资源	-13391
几乎所有	-13392
坚持认为	-13393
数值模拟	-13394
甚至可以	-13395
的一个小	-13396
这家公司	-13397
解决的问题	-13398
进行了分析	-13399
难以置信的	-13400
UN	-13401
不决	-13402
不准	-13403
中方	-13404
半径	-13405
压倒	-13406
古董	-13407
吃完	-13408
它与	-13409
寓言	-13410
将从	-13411
少了	-13412
常识	-13413
店主	-13414
开会	-13415
弹药	-13416
散射	-13417
文具	-13418
断定	-13419
漂白	-13420
甜点	-13421
留着	-13422
盛行	-13423
科幻	-13424
糊涂	-13425
艰辛	-13426
要为	-13427
货运	-13428
赤裸	-13429
风筝	-13430
ark	-13431
▁一直	-13432
▁你在	-13433
一个在	-13434
之中的	-13435
也必须	-13436
发展和	-13437
和政府	-13438
和文化	-13439
多样化	-13440
敏感的	-13441
格丽特	-13442
的恐惧	-13443
研究院	-13444
粉红色	-13445
装置的	-13446
转过身	-13447
陈代谢	-13448
了我们的	-13449
其中一些	-13450
加拿大的	-13451
包括一个	-13452
的日子里	-13453
这一事实	-13454
这些数据	-13455
的研究人员	-13456
Tr	-13457
丁堡	-13458
下台	-13459
不尽	-13460
会从	-13461
公用	-13462
写字	-13463
到她	-13464
劳拉	-13465
双臂	-13466
告诫	-13467
命中	-13468
声波	-13469
大片	-13470
天天	-13471
她和	-13472
宾夕	-13473
宿主	-13474
密歇	-13475
扔掉	-13476
抗菌	-13477
揭开	-13478
款式	-13479
每隔	-13480
源泉	-13481
滑冰	-13482
熄灭	-13483
用法	-13484
粘土	-13485
绳索	-13486
美分	-13487
良性	-13488
著称	-13489
质地	-13490
边际	-13491
锯齿	-13492
院子	-13493
Sch	-13494
ore	-13495
▁关键	-13496
一次性	-13497
使人们	-13498
养老金	-13499
加入到	-13500
只是想	-13501
在工作	-13502
地使用	-13503
天花板	-13504
密歇根	-13505
帮助我	-13506
淋巴结	-13507
留下来	-13508
的一只	-13509
的图片	-13510
第一步	-13511
而受到	-13512
脑子里	-13513
转变成	-13514
连接的	-13515
透明度	-13516
HTTP	-13517
可以作为	-13518
很少有人	-13519
所使用的	-13520
苹果公司	-13521
范围内的	-13522
▁一般来说	-13523
发生了什么	-13524
LO	-13525
▁门	-13526
▁雪	-13527
三月	-13528
乃是	-13529
之事	-13530
人中	-13531
他已	-13532
伴有	-13533
使您	-13534
凶手	-13535
凸轮	-13536
力图	-13537
发了	-13538
女权	-13539
布的	-13540
弗朗	-13541
微粒	-13542
招致	-13543
易燃	-13544
牙医	-13545
看做	-13546
石榴	-13547
税率	-13548
纳森	-13549
而无	-13550
脚踝	-13551
莎拉	-13552
讲座	-13553
那你	-13554
重塑	-13555
难免	-13556
80%	-13557
Bro	-13558
▁以上	-13559
▁对此	-13560
▁教育	-13561
▁是否	-13562
反过来	-13563
可作为	-13564
同时又	-13565
国务卿	-13566
在一张	-13567
奖学金	-13568
如是说	-13569
操作的	-13570
数字化	-13571
最佳的	-13572
每一位	-13573
男性的	-13574
的作者	-13575
的小型	-13576
的程序	-13577
的胜利	-13578
等问题	-13579
被允许	-13580
这些事	-13581
▁但是他	-13582
▁尤其是	-13583
▁西班牙	-13584
各国政府	-13585
将是一个	-13586
我们看到	-13587
有史以来	-13588
重要作用	-13589
Pr	-13590
UI	-13591
az	-13592
··	-13593
▁青	-13594
不高	-13595
丘陵	-13596
仇敌	-13597
光照	-13598
克雷	-13599
其次	-13600
响起	-13601
她想	-13602
性情	-13603
房东	-13604
括号	-13605
搭建	-13606
枪支	-13607
涂鸦	-13608
满脸	-13609
潜能	-13610
真心	-13611
石英	-13612
矿井	-13613
稍稍	-13614
突击	-13615
群落	-13616
说来	-13617
过错	-13618
这支	-13619
铸铁	-13620
鼓掌	-13621
HIV	-13622
▁认为	-13623
以下的	-13624
在印度	-13625
延伸到	-13626
性能的	-13627
的人才	-13628
的女儿	-13629
的改变	-13630
确定性	-13631
等同于	-13632
而易举	-13633
能让你	-13634
还是要	-13635
这将是	-13636
不幸的是	-13637
变得非常	-13638
可能会被	-13639
在这方面	-13640
轻而易举	-13641
陷入困境	-13642
宾夕法尼亚	-13643
:"	-13644
DB	-13645
▁卢	-13646
▁胡	-13647
一整	-13648
义词	-13649
九月	-13650
做饭	-13651
反向	-13652
和更	-13653
对新	-13654
归属	-13655
急救	-13656
急速	-13657
措辞	-13658
春节	-13659
最快	-13660
有种	-13661
枯萎	-13662
深感	-13663
濒临	-13664
热心	-13665
电筒	-13666
电解	-13667
省份	-13668
着装	-13669
穿梭	-13670
缝隙	-13671
耐烦	-13672
进出	-13673
黄蜂	-13674
不可以	-13675
不见了	-13676
两年前	-13677
中出现	-13678
他们要	-13679
保护区	-13680
充足的	-13681
副总统	-13682
单一的	-13683
发布的	-13684
太阳的	-13685
布莱尔	-13686
摩洛哥	-13687
散发出	-13688
日本人	-13689
是世界	-13690
润滑油	-13691
温度的	-13692
的发现	-13693
的员工	-13694
罕默德	-13695
自我的	-13696
这对于	-13697
ange	-13698
▁这是个	-13699
任何一种	-13700
因为这个	-13701
很重要的	-13702
每个人的	-13703
货币基金	-13704
达成一致	-13705
这些事情	-13706
这座城市	-13707
SC	-13708
▁利	-13709
▁已	-13710
光源	-13711
其后	-13712
冰冻	-13713
出乎	-13714
击球	-13715
制剂	-13716
去过	-13717
坏事	-13718
大桥	-13719
孤单	-13720
归纳	-13721
慈悲	-13722
戈登	-13723
挥霍	-13724
排气	-13725
搜集	-13726
收音	-13727
文物	-13728
显露	-13729
景气	-13730
橡树	-13731
每位	-13732
洗礼	-13733
灌输	-13734
献给	-13735
疏远	-13736
米勒	-13737
纳尔	-13738
苏达	-13739
荷载	-13740
远比	-13741
迟钝	-13742
选取	-13743
锦标	-13744
鸦片	-13745
30%	-13746
▁他想	-13747
▁特别	-13748
也一样	-13749
修正案	-13750
创造的	-13751
受到的	-13752
地看到	-13753
爱上了	-13754
电视剧	-13755
的每个	-13756
的领域	-13757
身边的	-13758
院子里	-13759
飞机上	-13760
ator	-13761
▁在那里	-13762
▁我们都	-13763
你可以在	-13764
公共卫生	-13765
将自己的	-13766
恶性肿瘤	-13767
这一点上	-13768
非常高兴	-13769
十分重要的	-13770
▁我们要采购	-13771
46	-13772
95	-13773
ne	-13774
一心	-13775
一批	-13776
不远	-13777
严谨	-13778
偏执	-13779
典范	-13780
切片	-13781
原文	-13782
受的	-13783
喝醉	-13784
基亚	-13785
孔子	-13786
它有	-13787
希伯	-13788
当它	-13789
戴尔	-13790
拳头	-13791
新建	-13792
暴躁	-13793
曲面	-13794
本月	-13795
浙江	-13796
涌现	-13797
烹调	-13798
爬到	-13799
直观	-13800
示范	-13801
笔钱	-13802
米亚	-13803
线和	-13804
美金	-13805
脱水	-13806
膳食	-13807
萃取	-13808
蔑视	-13809
蜥蜴	-13810
行进	-13811
诗篇	-13812
跟前	-13813
连贯	-13814
高山	-13815
700	-13816
Bar	-13817
NBA	-13818
▁他也	-13819
▁地球	-13820
▁早在	-13821
▁未来	-13822
▁考虑	-13823
不要再	-13824
公正的	-13825
戴维斯	-13826
接触到	-13827
来这里	-13828
柏拉图	-13829
根本上	-13830
每一天	-13831
电视上	-13832
的儿童	-13833
经常在	-13834
艰难的	-13835
部分是	-13836
鲜明的	-13837
就意味着	-13838
无家可归	-13839
现代化的	-13840
现实主义	-13841
调查显示	-13842
这样可以	-13843
▁我们认为	-13844
在很大程度上	-13845
EC	-13846
一瓶	-13847
中小	-13848
以至	-13849
体温	-13850
你方	-13851
光了	-13852
内疚	-13853
厂家	-13854
和马	-13855
堕胎	-13856
多余	-13857
天后	-13858
太小	-13859
奴役	-13860
好人	-13861
孩童	-13862
孵化	-13863
就连	-13864
幕后	-13865
思绪	-13866
捐助	-13867
普利	-13868
没错	-13869
油画	-13870
泰坦	-13871
游荡	-13872
漫游	-13873
电网	-13874
盗版	-13875
禁用	-13876
羊肉	-13877
节制	-13878
表征	-13879
较多	-13880
通行	-13881
配额	-13882
重庆	-13883
镜像	-13884
面纱	-13885
骨架	-13886
黑夜	-13887
▁亚洲	-13888
▁已经	-13889
▁那里	-13890
但这些	-13891
厚厚的	-13892
发光的	-13893
周期性	-13894
有更多	-13895
甚至还	-13896
的定义	-13897
的气息	-13898
的知识	-13899
研究和	-13900
类动物	-13901
葡萄园	-13902
认真的	-13903
责任感	-13904
追随者	-13905
▁我开始	-13906
中的一种	-13907
全世界的	-13908
分析方法	-13909
努力工作	-13910
在伊拉克	-13911
完全可以	-13912
用户界面	-13913
精神分裂	-13914
这样的人	-13915
RS	-13916
不为	-13917
不绝	-13918
丧生	-13919
些许	-13920
代人	-13921
兑现	-13922
内脏	-13923
南北	-13924
原告	-13925
向来	-13926
哥特	-13927
基层	-13928
如其	-13929
委婉	-13930
小事	-13931
干部	-13932
床垫	-13933
总量	-13934
惊吓	-13935
抽出	-13936
捕鱼	-13937
搭档	-13938
时而	-13939
木星	-13940
杀菌	-13941
杰作	-13942
栏杆	-13943
残暴	-13944
毯子	-13945
沙子	-13946
河的	-13947
法术	-13948
浮游	-13949
火力	-13950
炎热	-13951
点子	-13952
甲板	-13953
睾丸	-13954
石膏	-13955
蜗牛	-13956
表决	-13957
解码	-13958
警觉	-13959
这边	-13960
重用	-13961
降温	-13962
难堪	-13963
RNA	-13964
▁游戏	-13965
公路上	-13966
到一起	-13967
北部的	-13968
学术界	-13969
很多的	-13970
放置在	-13971
模型中	-13972
的特殊	-13973
的英国	-13974
的重量	-13975
研讨会	-13976
继承人	-13977
销售额	-13978
▁他是个	-13979
可口可乐	-13980
复合材料	-13981
更有可能	-13982
-1	-13983
-2	-13984
▁于	-13985
▁鲁	-13986
也无	-13987
从容	-13988
全息	-13989
凶猛	-13990
出错	-13991
列颠	-13992
剥离	-13993
十个	-13994
华社	-13995
去买	-13996
囤积	-13997
塔尔	-13998
她很	-13999
孔隙	-14000
安乐	-14001
容许	-14002
录制	-14003
找寻	-14004
收件	-14005
有三	-14006
木质	-14007
杂乱	-14008
柜台	-14009
猎犬	-14010
环形	-14011
皮毛	-14012
硬度	-14013
禁忌	-14014
紧凑	-14015
而对	-14016
解救	-14017
论的	-14018
谁是	-14019
轮椅	-14020
连同	-14021
之一的	-14022
他的手	-14023
会继续	-14024
几年里	-14025
发表了	-14026
后不久	-14027
奢侈品	-14028
小说的	-14029
工作室	-14030
巴布韦	-14031
形容词	-14032
很长的	-14033
描述的	-14034
是值得	-14035
有意义	-14036
有益的	-14037
的时机	-14038
的病人	-14039
的记忆	-14040
的身份	-14041
食物的	-14042
▁同样的	-14043
亚利桑那	-14044
再也没有	-14045
创造一个	-14046
委员会的	-14047
这个事实	-14048
金融机构	-14049
▁如果不是	-14050
发现了一个	-14051
,5	-14052
DI	-14053
LA	-14054
▁船	-14055
七月	-14056
下调	-14057
不朽	-14058
世博	-14059
丢了	-14060
为时	-14061
他或	-14062
但那	-14063
倒霉	-14064
凌晨	-14065
可将	-14066
告终	-14067
和蔼	-14068
喊道	-14069
型号	-14070
安定	-14071
客气	-14072
巫师	-14073
店员	-14074
开端	-14075
引爆	-14076
快照	-14077
抗争	-14078
抵挡	-14079
收紧	-14080
整数	-14081
日后	-14082
时才	-14083
星光	-14084
更难	-14085
望去	-14086
查阅	-14087
比特	-14088
看清	-14089
稀疏	-14090
肋骨	-14091
胶片	-14092
自制	-14093
臭名	-14094
评定	-14095
远古	-14096
追寻	-14097
重启	-14098
钢丝	-14099
音响	-14100
首饰	-14101
180	-14102
ace	-14103
ial	-14104
▁在对	-14105
下来了	-14106
他不会	-14107
他们被	-14108
他们还	-14109
体现在	-14110
占据了	-14111
在那些	-14112
批评者	-14113
文化中	-14114
残酷的	-14115
每年的	-14116
的地下	-14117
精明的	-14118
紧紧地	-14119
而且是	-14120
能找到	-14121
讨厌的	-14122
100%	-14123
中的一些	-14124
中的所有	-14125
布什总统	-14126
得出结论	-14127
投资组合	-14128
津巴布韦	-14129
结合起来	-14130
罗马尼亚	-14131
和他的妻子	-14132
44	-14133
中枢	-14134
历经	-14135
合乎	-14136
向着	-14137
唠叨	-14138
她被	-14139
她还	-14140
审慎	-14141
将由	-14142
少于	-14143
并使	-14144
很像	-14145
性欲	-14146
想出	-14147
房的	-14148
扼杀	-14149
插座	-14150
无一	-14151
水源	-14152
沸腾	-14153
活的	-14154
白雪	-14155
篮子	-14156
组分	-14157
绕过	-14158
继任	-14159
般地	-14160
要花	-14161
豁免	-14162
铃薯	-14163
陡峭	-14164
风光	-14165
▁倘若	-14166
▁国王	-14167
▁服务	-14168
▁朝鲜	-14169
▁生物	-14170
不超过	-14171
为主要	-14172
到我的	-14173
另一些	-14174
另一只	-14175
后来的	-14176
小伙子	-14177
就成了	-14178
崭新的	-14179
很清楚	-14180
我都会	-14181
控制和	-14182
是否是	-14183
杂志上	-14184
浪漫的	-14185
狭窄的	-14186
现在就	-14187
的新型	-14188
的重大	-14189
让他的	-14190
问题时	-14191
集团的	-14192
领导的	-14193
▁美国的	-14194
与众不同	-14195
中的作用	-14196
实际情况	-14197
所有的人	-14198
神经网络	-14199
这个名字	-14200
▁我们知道	-14201
:(	-14202
▁杨	-14203
七年	-14204
万分	-14205
下班	-14206
克说	-14207
全然	-14208
内外	-14209
冠状	-14210
切削	-14211
切成	-14212
利于	-14213
华达	-14214
嗓音	-14215
导游	-14216
新星	-14217
枚举	-14218
次日	-14219
河谷	-14220
渲染	-14221
滋润	-14222
病症	-14223
痴迷	-14224
签约	-14225
管的	-14226
股骨	-14227
臭氧	-14228
茅斯	-14229
装入	-14230
装在	-14231
要将	-14232
贴在	-14233
足轻	-14234
遗迹	-14235
问卷	-14236
阳台	-14237
雷特	-14238
魔力	-14239
Sph	-14240
▁个人	-14241
▁法律	-14242
不关心	-14243
不是吗	-14244
中提取	-14245
以保证	-14246
以后的	-14247
同情心	-14248
国内的	-14249
土地上	-14250
地认为	-14251
坏消息	-14252
它就会	-14253
安理会	-14254
实用的	-14255
干净的	-14256
我就是	-14257
所在地	-14258
揭示了	-14259
时间表	-14260
来确定	-14261
的一片	-14262
诱人的	-14263
零部件	-14264
与此同时	-14265
专业人士	-14266
地方政府	-14267
目前正在	-14268
统计数据	-14269
试图通过	-14270
这样做的	-14271
▁叶	-14272
一门	-14273
主妇	-14274
亿万	-14275
他了	-14276
他都	-14277
令他	-14278
会为	-14279
做爱	-14280
再说	-14281
写在	-14282
嗅觉	-14283
带入	-14284
开罗	-14285
投掷	-14286
放映	-14287
旁的	-14288
无形	-14289
橙色	-14290
熔岩	-14291
研磨	-14292
碱性	-14293
肝炎	-14294
胁迫	-14295
脑部	-14296
自给	-14297
致癌	-14298
苏打	-14299
被他	-14300
试探	-14301
诺言	-14302
aul	-14303
ish	-14304
习惯了	-14305
付出的	-14306
信号的	-14307
充满着	-14308
分钟后	-14309
原子能	-14310
同学们	-14311
大屠杀	-14312
推销员	-14313
最适合	-14314
栖息地	-14315
法庭上	-14316
潮湿的	-14317
的事务	-14318
的成分	-14319
能得到	-14320
褐色的	-14321
诚实的	-14322
那一刻	-14323
都是由	-14324
也可能是	-14325
也是一种	-14326
兄弟姐妹	-14327
到处都是	-14328
对冲基金	-14329
明尼苏达	-14330
生态环境	-14331
这方面的	-14332
▁这是因为	-14333
▁这种方法	-14334
下垂	-14335
不胜	-14336
主宰	-14337
乡下	-14338
云层	-14339
交货	-14340
人也	-14341
便士	-14342
保姆	-14343
再来	-14344
刑法	-14345
力拓	-14346
嘲弄	-14347
四种	-14348
地域	-14349
大事	-14350
家居	-14351
家禽	-14352
带宽	-14353
得好	-14354
悠闲	-14355
我到	-14356
故乡	-14357
效用	-14358
教材	-14359
教的	-14360
无害	-14361
晓得	-14362
构思	-14363
格子	-14364
比你	-14365
沉睡	-14366
海浪	-14367
穿刺	-14368
管家	-14369
细的	-14370
细腻	-14371
综述	-14372
肩上	-14373
能将	-14374
自足	-14375
萨尔	-14376
薄弱	-14377
计画	-14378
豌豆	-14379
递交	-14380
隐性	-14381
per	-14382
▁大学	-14383
▁老师	-14384
个性化	-14385
主要由	-14386
了你的	-14387
二极管	-14388
他就是	-14389
以满足	-14390
但对于	-14391
你如何	-14392
元数据	-14393
出口商	-14394
分析与	-14395
大气层	-14396
帮助他	-14397
最终会	-14398
现代的	-14399
的代码	-14400
的具体	-14401
的含量	-14402
精美的	-14403
▁华盛顿	-14404
体系结构	-14405
市场经济	-14406
重新启动	-14407
长时间的	-14408
具有一定的	-14409
2,	-14410
LL	-14411
▁康	-14412
三大	-14413
与伦	-14414
之于	-14415
乞丐	-14416
于此	-14417
会更	-14418
前沿	-14419
加倍	-14420
加班	-14421
变速	-14422
和低	-14423
壮观	-14424
大方	-14425
小子	-14426
德斯	-14427
德说	-14428
月经	-14429
枪击	-14430
每当	-14431
汇报	-14432
污泥	-14433
滋味	-14434
老实	-14435
胆怯	-14436
英超	-14437
赛中	-14438
躯体	-14439
这与	-14440
迪拜	-14441
造的	-14442
部和	-14443
陪同	-14444
高手	-14445
鬼魂	-14446
250	-14447
ies	-14448
▁他被	-14449
▁麦克	-14450
东南部	-14451
主人公	-14452
他们有	-14453
体育馆	-14454
在使用	-14455
在里面	-14456
坐落在	-14457
就知道	-14458
常常是	-14459
政客们	-14460
是来自	-14461
玛利亚	-14462
的优势	-14463
的承诺	-14464
的攻击	-14465
的时尚	-14466
的高速	-14467
研究员	-14468
纪录片	-14469
至少要	-14470
说出来	-14471
说服力	-14472
音乐家	-14473
验证了	-14474
▁在他们	-14475
互联网上	-14476
他们正在	-14477
令人震惊	-14478
可以让你	-14479
帝国主义	-14480
数学模型	-14481
是不可能	-14482
这个地方	-14483
解释为什么	-14484
PO	-14485
gr	-14486
▁接	-14487
中都	-14488
亮度	-14489
体贴	-14490
供电	-14491
保管	-14492
僵尸	-14493
划船	-14494
在有	-14495
她要	-14496
委会	-14497
并从	-14498
弹奏	-14499
换取	-14500
排在	-14501
日历	-14502
时要	-14503
杭州	-14504
炸药	-14505
热潮	-14506
特工	-14507
电荷	-14508
省的	-14509
破烂	-14510
稳固	-14511
网路	-14512
罪孽	-14513
美化	-14514
胃口	-14515
色泽	-14516
蕴含	-14517
虚荣	-14518
赛马	-14519
路透	-14520
适度	-14521
那份	-14522
靴子	-14523
40%	-14524
NET	-14525
▁管理	-14526
一体化	-14527
不会在	-14528
与其它	-14529
中找到	-14530
从你的	-14531
伏特加	-14532
作者的	-14533
列表中	-14534
古希腊	-14535
吃一惊	-14536
吃东西	-14537
回来的	-14538
安静的	-14539
对所有	-14540
将来的	-14541
快速地	-14542
所得税	-14543
故事的	-14544
是一座	-14545
激进的	-14546
的主体	-14547
的信任	-14548
的网站	-14549
矿物质	-14550
磁共振	-14551
近距离	-14552
魔术师	-14553
▁但由于	-14554
▁这使得	-14555
但实际上	-14556
卫生组织	-14557
因为没有	-14558
性的影响	-14559
的第一个	-14560
广泛应用于	-14561
Server	-14562
ix	-14563
▁刚	-14564
业内	-14565
住处	-14566
余地	-14567
你了	-14568
使劲	-14569
全职	-14570
初次	-14571
去掉	-14572
呻吟	-14573
喇嘛	-14574
嗡嗡	-14575
团伙	-14576
围墙	-14577
固化	-14578
头晕	-14579
对了	-14580
德韦	-14581
感叹	-14582
放贷	-14583
斗篷	-14584
新郎	-14585
日元	-14586
日在	-14587
末尾	-14588
机车	-14589
渔夫	-14590
烧伤	-14591
瓦尔	-14592
用量	-14593
神学	-14594
神父	-14595
罐子	-14596
胰腺	-14597
自大	-14598
若是	-14599
觉察	-14600
认出	-14601
评分	-14602
透了	-14603
闯入	-14604
▁有趣	-14605
▁进入	-14606
二进制	-14607
伦敦的	-14608
几个人	-14609
因特网	-14610
在全国	-14611
完全不	-14612
并提供	-14613
更重要	-14614
设备和	-14615
过来的	-14616
ment	-14617
▁你应该	-14618
▁第一次	-14619
交通工具	-14620
圣地亚哥	-14621
宗教信仰	-14622
年轻人的	-14623
讽刺意味	-14624
需要进行	-14625
Ac	-14626
Ed	-14627
▁佩	-14628
一手	-14629
休止	-14630
低头	-14631
俯瞰	-14632
先锋	-14633
公然	-14634
因于	-14635
团的	-14636
孔雀	-14637
室友	-14638
小船	-14639
平壤	-14640
庄稼	-14641
归还	-14642
心目	-14643
性状	-14644
手掌	-14645
挤出	-14646
杂质	-14647
欣慰	-14648
气和	-14649
水库	-14650
河里	-14651
泥浆	-14652
浆果	-14653
滑板	-14654
牢固	-14655
狗的	-14656
王后	-14657
甘油	-14658
稀土	-14659
肥沃	-14660
苏珊	-14661
蜂窝	-14662
行列	-14663
试用	-14664
超人	-14665
转弯	-14666
辛勤	-14667
迎来	-14668
遥控	-14669
里奥	-14670
长寿	-14671
阿肯	-14672
音符	-14673
鲍勃	-14674
Rob	-14675
▁不知	-14676
▁布莱	-14677
事件中	-14678
优美的	-14679
兰克林	-14680
农产品	-14681
固定在	-14682
国家队	-14683
孤独的	-14684
就应该	-14685
把这种	-14686
投资的	-14687
沉浸在	-14688
的地震	-14689
禽流感	-14690
精神和	-14691
美联社	-14692
者来说	-14693
脂肪酸	-14694
脖子上	-14695
西雅图	-14696
转化成	-14697
音乐的	-14698
1997	-14699
SOAP	-14700
一个男人	-14701
但是没有	-14702
希望能够	-14703
微不足道	-14704
预防措施	-14705
,"	-14706
pe	-14707
丁香	-14708
交错	-14709
仅是	-14710
作证	-14711
信奉	-14712
养成	-14713
十月	-14714
友情	-14715
反叛	-14716
吓得	-14717
呼声	-14718
唯有	-14719
外语	-14720
头皮	-14721
年青	-14722
意象	-14723
摇头	-14724
时被	-14725
晋升	-14726
普罗	-14727
欺负	-14728
深陷	-14729
游牧	-14730
犀牛	-14731
癫痫	-14732
白兰	-14733
磋商	-14734
票据	-14735
租金	-14736
老头	-14737
考核	-14738
胸腔	-14739
跳过	-14740
这篇	-14741
远方	-14742
长城	-14743
露营	-14744
飞到	-14745
鲜血	-14746
黑白	-14747
LED	-14748
MBA	-14749
▁威廉	-14750
▁正当	-14751
▁经常	-14752
不平等	-14753
两年的	-14754
于一个	-14755
会计师	-14756
又开始	-14757
合作的	-14758
和你们	-14759
和治疗	-14760
好像是	-14761
完善的	-14762
小行星	-14763
已经从	-14764
无数的	-14765
最重要	-14766
杂货店	-14767
永久的	-14768
热情的	-14769
用你的	-14770
的军事	-14771
的利益	-14772
知识和	-14773
组织者	-14774
经典的	-14775
而言之	-14776
角大楼	-14777
解释道	-14778
设计了	-14779
避免了	-14780
雌激素	-14781
一些东西	-14782
将不得不	-14783
最严重的	-14784
犹豫不决	-14785
经济危机	-14786
骑自行车	-14787
不可避免地	-14788
因为他们的	-14789
不计	-14790
五金	-14791
先端	-14792
升温	-14793
南克	-14794
可使	-14795
基质	-14796
奖杯	-14797
孢子	-14798
小块	-14799
尼罗	-14800
屏障	-14801
开源	-14802
性脑	-14803
悔改	-14804
成瘾	-14805
比他	-14806
毛皮	-14807
消散	-14808
液的	-14809
滋养	-14810
的值	-14811
红酒	-14812
纳西	-14813
维斯	-14814
缩写	-14815
苏里	-14816
著的	-14817
裸露	-14818
辛辣	-14819
采样	-14820
重型	-14821
镇定	-14822
除外	-14823
隐含	-14824
预后	-14825
颇有	-14826
骨质	-14827
不相同	-14828
不能被	-14829
交易员	-14830
任务的	-14831
在它的	-14832
并进行	-14833
怎么能	-14834
我也不	-14835
我曾经	-14836
把她的	-14837
提到了	-14838
星期四	-14839
森林里	-14840
气体的	-14841
的基因	-14842
的尸体	-14843
的房子	-14844
进入到	-14845
违反了	-14846
重定向	-14847
阿尔卑	-14848
Mich	-14849
▁几年前	-14850
一起工作	-14851
世界经济	-14852
两个星期	-14853
可以利用	-14854
存在一个	-14855
注意到了	-14856
给我们的	-14857
能够通过	-14858
提出了一种	-14859
af	-14860
三倍	-14861
世间	-14862
中也	-14863
产于	-14864
享乐	-14865
他便	-14866
会用	-14867
偏远	-14868
偿付	-14869
光合	-14870
军舰	-14871
刺耳	-14872
叛逆	-14873
口中	-14874
听听	-14875
和它	-14876
境况	-14877
增进	-14878
大蒜	-14879
好多	-14880
好运	-14881
富豪	-14882
尽了	-14883
成份	-14884
拖鞋	-14885
按下	-14886
放慢	-14887
旷野	-14888
来找	-14889
次要	-14890
毁掉	-14891
消亡	-14892
特技	-14893
犯人	-14894
瓦斯	-14895
破了	-14896
累了	-14897
老公	-14898
耐用	-14899
肆虐	-14900
自发	-14901
蓝图	-14902
阻尼	-14903
霍乱	-14904
颇具	-14905
风机	-14906
▁她还	-14907
▁技术	-14908
任务是	-14909
会受到	-14910
和支持	-14911
太多了	-14912
收到的	-14913
爱丽丝	-14914
症患者	-14915
百分比	-14916
的底部	-14917
的细节	-14918
芭蕾舞	-14919
速度的	-14920
随后的	-14921
他们需要	-14922
以色列的	-14923
价格上涨	-14924
对你来说	-14925
欧洲央行	-14926
▁长期以来	-14927
华尔街日报	-14928
完全不同的	-14929
)”	-14930
42	-14931
▁文	-14932
一侧	-14933
不下	-14934
专题	-14935
和阿	-14936
唤起	-14937
塞进	-14938
声中	-14939
大肆	-14940
学徒	-14941
宫颈	-14942
平底	-14943
弹道	-14944
怀抱	-14945
怎麽	-14946
斯勒	-14947
污秽	-14948
洋溢	-14949
海豹	-14950
清算	-14951
渔民	-14952
爪子	-14953
盔甲	-14954
碎石	-14955
种的	-14956
箱里	-14957
能与	-14958
车祸	-14959
酒馆	-14960
顽强	-14961
ame	-14962
▁举例	-14963
▁人生	-14964
▁参加	-14965
▁晚上	-14966
▁还是	-14967
了一切	-14968
了一眼	-14969
人群中	-14970
他的人	-14971
卡斯特	-14972
发表的	-14973
得出的	-14974
意外的	-14975
投入到	-14976
方向的	-14977
是现代	-14978
橄榄油	-14979
氨基酸	-14980
的全部	-14981
的成果	-14982
着我们	-14983
空间站	-14984
纽约市	-14985
而导致	-14986
角度看	-14987
让你们	-14988
该算法	-14989
酒店的	-14990
长大的	-14991
麦克风	-14992
他的母亲	-14993
可以减少	-14994
各种各样	-14995
地球上的	-14996
欧洲国家	-14997
毫无意义	-14998
的时候就	-14999
的时间和	-15000
该公司的	-15001
还不清楚	-15002
书本	-15003
促成	-15004
停机	-15005
兑换	-15006
凝固	-15007
刷新	-15008
刺痛	-15009
卷曲	-15010
听取	-15011
呆了	-15012
和外	-15013
和被	-15014
圈子	-15015
大纲	-15016
存有	-15017
学说	-15018
定理	-15019
属的	-15020
巨星	-15021
心智	-15022
性命	-15023
总的	-15024
手势	-15025
打动	-15026
斯底	-15027
无忧	-15028
最爱	-15029
木工	-15030
照耀	-15031
盐水	-15032
矿业	-15033
硅谷	-15034
立在	-15035
管子	-15036
紧固	-15037
花序	-15038
螺纹	-15039
裁缝	-15040
誉为	-15041
订婚	-15042
连结	-15043
邮寄	-15044
里亚	-15045
阻抗	-15046
院长	-15047
隐秘	-15048
集的	-15049
▁听到	-15050
▁女性	-15051
▁有个	-15052
一半的	-15053
一次的	-15054
不要在	-15055
他是否	-15056
出生在	-15057
在一块	-15058
大幅度	-15059
建筑的	-15060
我愿意	-15061
提取物	-15062
有一半	-15063
来控制	-15064
格拉底	-15065
的信念	-15066
组织中	-15067
群体的	-15068
而不能	-15069
覆盖着	-15070
计算出	-15071
迈阿密	-15072
这是在	-15073
避难所	-15074
产生影响	-15075
包含一个	-15076
医疗保健	-15077
吸引人的	-15078
把他们的	-15079
正在努力	-15080
的世界里	-15081
美国人的	-15082
而产生的	-15083
耶和华的	-15084
这个项目	-15085
迹象表明	-15086
必不可少的	-15087
Ob	-15088
ly	-15089
pr	-15090
亲人	-15091
伤痛	-15092
体中	-15093
党内	-15094
入学	-15095
冷凝	-15096
取悦	-15097
后才	-15098
吝啬	-15099
四季	-15100
地与	-15101
坐落	-15102
埃德	-15103
好看	-15104
妥善	-15105
将此	-15106
径向	-15107
我该	-15108
截面	-15109
所欲	-15110
所见	-15111
晚了	-15112
格莱	-15113
民兵	-15114
汹涌	-15115
浅的	-15116
深夜	-15117
渴求	-15118
烧毁	-15119
百科	-15120
睫毛	-15121
粉色	-15122
粗暴	-15123
编号	-15124
致死	-15125
莫名	-15126
袋里	-15127
谚语	-15128
赫尔	-15129
踏上	-15130
轻蔑	-15131
这麽	-15132
门将	-15133
随处	-15134
青铜	-15135
鼻孔	-15136
ain	-15137
▁不用	-15138
不包括	-15139
他父亲	-15140
他现在	-15141
参与了	-15142
回忆起	-15143
如果在	-15144
对这一	-15145
小时内	-15146
局限性	-15147
我以为	-15148
活跃的	-15149
灵魂的	-15150
的不满	-15151
的早期	-15152
直接的	-15153
真是个	-15154
领域中	-15155
麦当劳	-15156
▁分析师	-15157
▁迈克尔	-15158
不稳定的	-15159
业务流程	-15160
他的名字	-15161
以及如何	-15162
体育运动	-15163
你的工作	-15164
平板电脑	-15165
服务器的	-15166
的有效性	-15167
的目的是	-15168
成千上万的	-15169
49	-15170
GA	-15171
▁果	-15172
出差	-15173
务必	-15174
反之	-15175
吵闹	-15176
呼啸	-15177
地为	-15178
域名	-15179
声器	-15180
小丑	-15181
小小	-15182
尿布	-15183
微分	-15184
憎恶	-15185
护卫	-15186
摸索	-15187
时针	-15188
是新	-15189
有罪	-15190
波长	-15191
洞里	-15192
消逝	-15193
甜味	-15194
疫情	-15195
的狗	-15196
结算	-15197
缅因	-15198
罗杰	-15199
能有	-15200
能用	-15201
螺钉	-15202
调动	-15203
质子	-15204
赌注	-15205
跳动	-15206
软化	-15207
阶梯	-15208
除草	-15209
非同	-15210
风扇	-15211
▁布朗	-15212
▁提高	-15213
举行了	-15214
位置上	-15215
健身房	-15216
协会的	-15217
国王的	-15218
它不是	-15219
层面上	-15220
性生活	-15221
教育和	-15222
碳排放	-15223
等特点	-15224
紧张的	-15225
联系的	-15226
表明了	-15227
让我的	-15228
那样做	-15229
阿肯色	-15230
除非你	-15231
▁我不能	-15232
可以提供	-15233
墨西哥湾	-15234
大吃一惊	-15235
大多数的	-15236
很久以前	-15237
相当大的	-15238
佛罗里达州	-15239
性能的影响	-15240
Ge	-15241
▁盖	-15242
不屈	-15243
亮点	-15244
凭证	-15245
吉利	-15246
哈拉	-15247
回想	-15248
塞罗	-15249
多重	-15250
大米	-15251
左翼	-15252
收养	-15253
斯堪	-15254
明翰	-15255
树和	-15256
武术	-15257
死在	-15258
母牛	-15259
毒的	-15260
液态	-15261
灵顿	-15262
琥珀	-15263
白金	-15264
破损	-15265
磁性	-15266
篝火	-15267
罗夫	-15268
羞耻	-15269
花旗	-15270
葫芦	-15271
血栓	-15272
袋鼠	-15273
越高	-15274
过头	-15275
逗留	-15276
飞速	-15277
ock	-15278
与经济	-15279
之上的	-15280
以致于	-15281
保守派	-15282
厨房里	-15283
反对者	-15284
在一边	-15285
多媒体	-15286
好像在	-15287
威斯康	-15288
容易的	-15289
我们把	-15290
政府在	-15291
斯坦福	-15292
无能为	-15293
普通人	-15294
最令人	-15295
淡淡的	-15296
然后将	-15297
的到来	-15298
的来源	-15299
的科学	-15300
看着他	-15301
社会中	-15302
美国在	-15303
脑海中	-15304
说自己	-15305
速度和	-15306
ring	-15307
▁他指出	-15308
▁我不是	-15309
▁美联储	-15310
▁这可能	-15311
一无所知	-15312
可能会在	-15313
投资银行	-15314
放在一个	-15315
是如此的	-15316
生产总值	-15317
电子商务	-15318
资产阶级	-15319
软件开发	-15320
达成协议	-15321
这种感觉	-15322
▁这并不是	-15323
▁如果你认为	-15324
RU	-15325
co	-15326
之初	-15327
二人	-15328
人来	-15329
令你	-15330
会以	-15331
光灯	-15332
其对	-15333
减税	-15334
劳斯	-15335
匮乏	-15336
只得	-15337
各大	-15338
呵呵	-15339
地基	-15340
嬉戏	-15341
就没	-15342
崎岖	-15343
巴达	-15344
年了	-15345
应许	-15346
很棒	-15347
怒火	-15348
我正	-15349
抱负	-15350
掌管	-15351
携手	-15352
放着	-15353
晤士	-15354
更糟	-15355
洛斯	-15356
浮动	-15357
游离	-15358
积雪	-15359
绒毛	-15360
绘图	-15361
耳边	-15362
该项	-15363
造船	-15364
露面	-15365
高高	-15366
默多	-15367
the	-15368
▁有的	-15369
一只手	-15370
也包括	-15371
公司将	-15372
关系到	-15373
加利亚	-15374
变得很	-15375
可见的	-15376
和安全	-15377
奇特的	-15378
就不是	-15379
局限于	-15380
帮助您	-15381
德里克	-15382
敏感性	-15383
是真的	-15384
有名的	-15385
有问题	-15386
海平面	-15387
白血病	-15388
的不足	-15389
的状况	-15390
礼貌的	-15391
西部的	-15392
连接器	-15393
铁矿石	-15394
▁你需要	-15395
▁马克思	-15396
日常生活	-15397
的原因是	-15398
继续进行	-15399
药物治疗	-15400
这个城市	-15401
这种现象	-15402
非常好的	-15403
WebSph	-15404
64	-15405
IE	-15406
TE	-15407
上场	-15408
不惜	-15409
丝网	-15410
中是	-15411
之日	-15412
产能	-15413
仍未	-15414
光亮	-15415
出身	-15416
双向	-15417
处处	-15418
扔到	-15419
扳手	-15420
暗杀	-15421
曼谷	-15422
母鸡	-15423
每人	-15424
气愤	-15425
涉足	-15426
灯笼	-15427
然地	-15428
牙膏	-15429
玷污	-15430
班级	-15431
病房	-15432
白痴	-15433
的正	-15434
盐酸	-15435
直流	-15436
着色	-15437
移到	-15438
第七	-15439
粘膜	-15440
者将	-15441
者都	-15442
而至	-15443
腿上	-15444
自负	-15445
苛刻	-15446
蒂冈	-15447
蜿蜒	-15448
补给	-15449
记号	-15450
遵从	-15451
长江	-15452
首位	-15453
▁他又	-15454
▁建议	-15455
▁说明	-15456
▁这两	-15457
一个更	-15458
为原料	-15459
了所有	-15460
从没有	-15461
仔细地	-15462
任何的	-15463
写了一	-15464
决不会	-15465
分钟的	-15466
前列腺	-15467
原有的	-15468
大约有	-15469
幻灯片	-15470
指出了	-15471
无意识	-15472
有足够	-15473
每一种	-15474
沙滩上	-15475
的理解	-15476
的目光	-15477
破坏性	-15478
纺织品	-15479
者可以	-15480
表达的	-15481
请参阅	-15482
进化的	-15483
那以后	-15484
采访中	-15485
食物和	-15486
▁我不想	-15487
▁这样做	-15488
不再需要	-15489
亚伯拉罕	-15490
印第安人	-15491
家庭成员	-15492
我的朋友	-15493
这项研究	-15494
那是一个	-15495
阿尔卑斯	-15496
▁但是现在	-15497
印度尼西亚	-15498
最重要的是	-15499
碳水化合物	-15500
很长一段时间	-15501
LC	-15502
不曾	-15503
世行	-15504
之力	-15505
乒乓	-15506
仍将	-15507
估值	-15508
假发	-15509
内地	-15510
冶金	-15511
出演	-15512
动员	-15513
升降	-15514
原创	-15515
双层	-15516
后台	-15517
嘲讽	-15518
四面	-15519
回升	-15520
国籍	-15521
在中	-15522
实证	-15523
尼龙	-15524
尾部	-15525
尿道	-15526
很是	-15527
我必	-15528
抛光	-15529
担当	-15530
数周	-15531
文斯	-15532
斯大	-15533
无罪	-15534
格森	-15535
植株	-15536
法老	-15537
流域	-15538
滚筒	-15539
照相	-15540
球菌	-15541
疏松	-15542
硝酸	-15543
磁铁	-15544
精明	-15545
经文	-15546
绝不	-15547
而她	-15548
联想	-15549
胸前	-15550
英亩	-15551
课外	-15552
转速	-15553
透镜	-15554
逼近	-15555
道夫	-15556
都与	-15557
阐释	-15558
降水	-15559
骨的	-15560
ier	-15561
为那些	-15562
人物的	-15563
他只是	-15564
做到了	-15565
包含在	-15566
头上的	-15567
学校里	-15568
实验中	-15569
小时后	-15570
成本的	-15571
技术是	-15572
拍摄的	-15573
方法对	-15574
架飞机	-15575
梵蒂冈	-15576
欧洲人	-15577
歇斯底	-15578
沉积物	-15579
珊瑚礁	-15580
的情形	-15581
的第二	-15582
的记录	-15583
简直是	-15584
表达了	-15585
食品和	-15586
驱动的	-15587
魅力的	-15588
1998	-15589
工作经验	-15590
成为可能	-15591
拉丁美洲	-15592
文艺复兴	-15593
种族主义	-15594
航空航天	-15595
这样的话	-15596
金融体系	-15597
▁如果有人	-15598
提供了一种	-15599
制卡和会员卡制作	-15600
三人	-15601
事态	-15602
人选	-15603
仙人	-15604
公子	-15605
内亚	-15606
在南	-15607
城墙	-15608
富于	-15609
小偷	-15610
座上	-15611
心底	-15612
成因	-15613
执着	-15614
提炼	-15615
搬运	-15616
改动	-15617
敬意	-15618
果酱	-15619
柔性	-15620
比作	-15621
比拟	-15622
气概	-15623
派生	-15624
烘烤	-15625
爱我	-15626
祝愿	-15627
索尼	-15628
终生	-15629
胆小	-15630
自律	-15631
花花	-15632
要对	-15633
语调	-15634
转子	-15635
轮流	-15636
过大	-15637
适于	-15638
食管	-15639
70%	-15640
ata	-15641
get	-15642
▁他将	-15643
▁具体	-15644
▁科学	-15645
一直都	-15646
了一座	-15647
优雅的	-15648
使用该	-15649
到他的	-15650
取得的	-15651
另一边	-15652
就像在	-15653
强度的	-15654
报告的	-15655
替代品	-15656
海岸线	-15657
消防员	-15658
的光芒	-15659
的夜晚	-15660
的最初	-15661
的热情	-15662
的特性	-15663
的飞机	-15664
紧接着	-15665
纳维亚	-15666
经常会	-15667
采用的	-15668
但是如果	-15669
其他一些	-15670
外科手术	-15671
媒体报道	-15672
必须能够	-15673
抗议活动	-15674
浪费时间	-15675
▁我们现在	-15676
▁更重要的是	-15677
......”	-15678
,。	-15679
As	-15680
BI	-15681
VM	-15682
一行	-15683
不等	-15684
不算	-15685
临终	-15686
为数	-15687
乌龟	-15688
二世	-15689
低调	-15690
偏爱	-15691
光盘	-15692
写出	-15693
刻画	-15694
各州	-15695
哭了	-15696
喷泉	-15697
在场	-15698
增殖	-15699
夕阳	-15700
大喊	-15701
头衔	-15702
将我	-15703
小猫	-15704
憔悴	-15705
拉美	-15706
指尖	-15707
挽回	-15708
捐献	-15709
林斯	-15710
枪鱼	-15711
树皮	-15712
校友	-15713
止痛	-15714
此种	-15715
深层	-15716
混杂	-15717
点亮	-15718
精品	-15719
菠菜	-15720
过我	-15721
退役	-15722
通话	-15723
遮盖	-15724
银色	-15725
——“	-15726
▁观察	-15727
一点的	-15728
了一会	-15729
了一阵	-15730
以获得	-15731
会得到	-15732
卡梅伦	-15733
回到家	-15734
团体的	-15735
孩子在	-15736
忽略了	-15737
悄悄地	-15738
日子里	-15739
更有效	-15740
有很大	-15741
比以往	-15742
永远的	-15743
特洛伊	-15744
的命运	-15745
自然而	-15746
臭名昭	-15747
表现在	-15748
认为他	-15749
让那些	-15750
质量和	-15751
集中的	-15752
▁对不起	-15753
也不例外	-15754
外科医生	-15755
将有助于	-15756
本身就是	-15757
没有必要	-15758
考虑一下	-15759
这项工作	-15760
随身携带	-15761
独一无二的	-15762
Fl	-15763
Gl	-15764
▁未	-15765
▁相	-15766
下颌	-15767
业界	-15768
二元	-15769
人均	-15770
人或	-15771
传入	-15772
免除	-15773
养育	-15774
内障	-15775
冰雪	-15776
切开	-15777
另有	-15778
台风	-15779
吐温	-15780
囚禁	-15781
外伤	-15782
失常	-15783
奏效	-15784
嫁给	-15785
害虫	-15786
就从	-15787
就用	-15788
带动	-15789
扶手	-15790
掀起	-15791
教派	-15792
无烟	-15793
日趋	-15794
暴君	-15795
树下	-15796
深渊	-15797
点了	-15798
特种	-15799
犹他	-15800
环球	-15801
现行	-15802
的核	-15803
窗格	-15804
系的	-15805
而知	-15806
装的	-15807
警戒	-15808
试剂	-15809
谁能	-15810
走动	-15811
跑车	-15812
轻便	-15813
这起	-15814
迪亚	-15815
选定	-15816
都对	-15817
里根	-15818
Car	-15819
▁工业	-15820
▁文中	-15821
▁相信	-15822
不情愿	-15823
也是个	-15824
也非常	-15825
便宜的	-15826
到这里	-15827
卫生间	-15828
同时还	-15829
回忆录	-15830
地下室	-15831
地马拉	-15832
官方的	-15833
将你的	-15834
布莱克	-15835
持续了	-15836
新一轮	-15837
是使用	-15838
暴风雪	-15839
物体的	-15840
的数字	-15841
的皮肤	-15842
经历的	-15843
缓冲区	-15844
自然地	-15845
足够了	-15846
软件的	-15847
道路上	-15848
隐藏在	-15849
▁但是当	-15850
▁我们会	-15851
如果一个	-15852
富兰克林	-15853
对他们说	-15854
德韦杰夫	-15855
我们就会	-15856
所以他们	-15857
持续时间	-15858
的可行性	-15859
的方法来	-15860
的是什么	-15861
详细信息	-15862
资产负债	-15863
David	-15864
的原因之一	-15865
是非常重要的	-15866
一月	-15867
三名	-15868
丢掉	-15869
也纳	-15870
倡议	-15871
偏向	-15872
冗余	-15873
分层	-15874
分组	-15875
刑罚	-15876
劝说	-15877
卡的	-15878
印记	-15879
只见	-15880
唱着	-15881
团聚	-15882
固然	-15883
宾客	-15884
归结	-15885
心室	-15886
我敢	-15887
无止	-15888
本体	-15889
梳妆	-15890
河岸	-15891
盖上	-15892
真主	-15893
秘诀	-15894
空格	-15895
空缺	-15896
空闲	-15897
自闭	-15898
艘船	-15899
莱特	-15900
蟑螂	-15901
表扬	-15902
装扮	-15903
赢了	-15904
跑了	-15905
阁下	-15906
ley	-15907
▁我用	-15908
▁生产	-15909
▁音乐	-15910
不停的	-15911
不在乎	-15912
从这个	-15913
以提高	-15914
任总统	-15915
出版物	-15916
却不能	-15917
取代了	-15918
取消了	-15919
变压器	-15920
吸引人	-15921
在接受	-15922
天上的	-15923
实用性	-15924
巧妙地	-15925
建造的	-15926
报告说	-15927
拉斯维	-15928
整体的	-15929
旅游业	-15930
无尽的	-15931
更像是	-15932
消除了	-15933
特点是	-15934
的居民	-15935
的规模	-15936
认真地	-15937
调用的	-15938
那里去	-15939
锦标赛	-15940
▁他说他	-15941
▁假如你	-15942
决定是否	-15943
官员表示	-15944
并非如此	-15945
提供帮助	-15946
文件系统	-15947
更多的人	-15948
毋庸置疑	-15949
灾难性的	-15950
的支持者	-15951
知道如何	-15952
竞争力的	-15953
而是一个	-15954
这些信息	-15955
是世界上最	-15956
(“	-15957
▁吴	-15958
▁车	-15959
义的	-15960
之手	-15961
二维	-15962
亮相	-15963
伦萨	-15964
像他	-15965
凹陷	-15966
剖析	-15967
售价	-15968
喜乐	-15969
喝了	-15970
夏日	-15971
头巾	-15972
奥利	-15973
好几	-15974
它为	-15975
建于	-15976
德勒	-15977
恩斯	-15978
打量	-15979
损耗	-15980
搜查	-15981
敞开	-15982
新手	-15983
既不	-15984
时说	-15985
晚间	-15986
治安	-15987
海鲜	-15988
涂上	-15989
滑翔	-15990
灵巧	-15991
牙刷	-15992
电车	-15993
的抗	-15994
看我	-15995
筷子	-15996
粗略	-15997
繁琐	-15998
耶鲁	-15999
致敬	-16000
节食	-16001
营救	-16002
请在	-16003
走下	-16004
趣味	-16005
跳到	-16006
身躯	-16007
迟到	-16008
酋长	-16009
里兰	-16010
钢管	-16011
随风	-16012
难点	-16013
鱼雷	-16014
鲑鱼	-16015
CPU	-16016
Mac	-16017
▁历史	-16018
▁发现	-16019
仅有的	-16020
以减少	-16021
受不了	-16022
变量的	-16023
售货员	-16024
在法国	-16025
宇宙的	-16026
安全感	-16027
并使用	-16028
想办法	-16029
所需要	-16030
摄氏度	-16031
是时候	-16032
电容器	-16033
男孩子	-16034
眼睛和	-16035
自适应	-16036
记录的	-16037
轻易地	-16038
▁问题是	-16039
一些问题	-16040
他们是否	-16041
参考资料	-16042
国家安全	-16043
宏观经济	-16044
希望看到	-16045
我不喜欢	-16046
新闻发布	-16047
更多的是	-16048
生命周期	-16049
身体健康	-16050
广泛的应用	-16051
某种意义上	-16052
Script	-16053
解决这个问题	-16054
▁正	-16055
不予	-16056
之以	-16057
你可	-16058
光栅	-16059
关押	-16060
切口	-16061
变态	-16062
可为	-16063
哥华	-16064
喷嘴	-16065
围着	-16066
墨水	-16067
复习	-16068
奋力	-16069
女郎	-16070
好玩	-16071
妄想	-16072
审讯	-16073
尿液	-16074
布道	-16075
帕尔	-16076
强行	-16077
我爱	-16078
或被	-16079
托邦	-16080
拉开	-16081
无须	-16082
法郎	-16083
犯错	-16084
的更	-16085
稳健	-16086
联接	-16087
能和	-16088
萌芽	-16089
衣裙	-16090
解的	-16091
警示	-16092
许诺	-16093
轮船	-16094
这套	-16095
通俗	-16096
防晒	-16097
难得	-16098
预兆	-16099
饰演	-16100
鸟的	-16101
龙卷	-16102
▁故事	-16103
▁铁路	-16104
▁非洲	-16105
主要有	-16106
之前就	-16107
他的话	-16108
你们在	-16109
使它们	-16110
内分泌	-16111
到美国	-16112
发明的	-16113
可用性	-16114
可能与	-16115
在这次	-16116
增长率	-16117
影响着	-16118
投资人	-16119
教会的	-16120
日内瓦	-16121
是出于	-16122
是英国	-16123
有意思	-16124
某一个	-16125
浓度的	-16126
猪流感	-16127
的死亡	-16128
的领导	-16129
的风格	-16130
资金的	-16131
连续的	-16132
▁下一步	-16133
共同努力	-16134
大宗商品	-16135
密切相关	-16136
尽可能地	-16137
市场份额	-16138
布鲁克林	-16139
感觉自己	-16140
有所不同	-16141
研究中心	-16142
这种行为	-16143
那个时候	-16144
change	-16145
1:	-16146
:”	-16147
NT	-16148
ml	-16149
▁江	-16150
▁甲	-16151
▁道	-16152
》、	-16153
不加	-16154
不含	-16155
与会	-16156
他命	-16157
仙女	-16158
会晤	-16159
先后	-16160
公顷	-16161
养分	-16162
出卖	-16163
出国	-16164
割草	-16165
半数	-16166
去吧	-16167
发给	-16168
囊肿	-16169
回调	-16170
大了	-16171
夹杂	-16172
局长	-16173
总数	-16174
恶臭	-16175
愚昧	-16176
我最	-16177
拖着	-16178
撒旦	-16179
改正	-16180
教区	-16181
无异	-16182
标语	-16183
树丛	-16184
水上	-16185
深海	-16186
灌注	-16187
炮弹	-16188
独家	-16189
社团	-16190
精巧	-16191
繁华	-16192
肾上	-16193
芝麻	-16194
莉莉	-16195
装上	-16196
访谈	-16197
说起	-16198
过期	-16199
这才	-16200
遗留	-16201
镇痛	-16202
门上	-16203
难怪	-16204
顿时	-16205
预览	-16206
log	-16207
ood	-16208
▁没错	-16209
▁长期	-16210
一个是	-16211
一致性	-16212
一连串	-16213
不多的	-16214
也不愿	-16215
买了一	-16216
他觉得	-16217
付出了	-16218
克拉克	-16219
学到了	-16220
它没有	-16221
将这个	-16222
就好了	-16223
平台上	-16224
恢复到	-16225
扫描仪	-16226
是导致	-16227
是所有	-16228
暴露在	-16229
正确性	-16230
水龙头	-16231
测试中	-16232
混乱的	-16233
燃烧的	-16234
的失败	-16235
的描述	-16236
的梦想	-16237
老人的	-16238
肮脏的	-16239
▁在最近	-16240
他的眼睛	-16241
保加利亚	-16242
可以提高	-16243
寻找一个	-16244
往常一样	-16245
这些国家	-16246
WebSphere	-16247
Ab	-16248
Co	-16249
PA	-16250
▁酒	-16251
下沉	-16252
严酷	-16253
何况	-16254
你那	-16255
保佑	-16256
出名	-16257
剂对	-16258
占了	-16259
历来	-16260
反常	-16261
咯咯	-16262
善意	-16263
声和	-16264
宽带	-16265
对阵	-16266
就读	-16267
层楼	-16268
崇高	-16269
德和	-16270
心思	-16271
所用	-16272
扑克	-16273
排行	-16274
撤退	-16275
政界	-16276
族人	-16277
暑假	-16278
有何	-16279
杀戮	-16280
法治	-16281
的诗	-16282
篱笆	-16283
脸部	-16284
花岗	-16285
花瓶	-16286
苜蓿	-16287
菊花	-16288
行长	-16289
踢球	-16290
门诊	-16291
阳极	-16292
阴极	-16293
面貌	-16294
马哈	-16295
黎波	-16296
For	-16297
ael	-16298
上一次	-16299
也不再	-16300
二十年	-16301
今后的	-16302
他们把	-16303
似乎也	-16304
体育场	-16305
发送到	-16306
各式各	-16307
向你们	-16308
奇妙的	-16309
安全带	-16310
就行了	-16311
尼古丁	-16312
您可能	-16313
救护车	-16314
教科书	-16315
没办法	-16316
的措施	-16317
的生长	-16318
相当的	-16319
虔诚的	-16320
要知道	-16321
返回到	-16322
▁一方面	-16323
▁在一次	-16324
▁当人们	-16325
亚特兰大	-16326
刚刚开始	-16327
可以用于	-16328
可能成为	-16329
引人注目	-16330
怎样才能	-16331
系统中的	-16332
躺在床上	-16333
进行一次	-16334
奥巴马政府	-16335
在这种情况下	-16336
8%	-16337
85	-16338
RT	-16339
me	-16340
“,	-16341
▁佛	-16342
▁放	-16343
▁火	-16344
▁瓦	-16345
一一	-16346
不带	-16347
中性	-16348
乙方	-16349
入狱	-16350
全景	-16351
再用	-16352
冲刷	-16353
医务	-16354
厂的	-16355
口水	-16356
吃过	-16357
响声	-16358
壁垒	-16359
多尔	-16360
定时	-16361
岩浆	-16362
年被	-16363
弹出	-16364
彩票	-16365
心头	-16366
忠于	-16367
投放	-16368
拖欠	-16369
斯卡	-16370
无畏	-16371
求助	-16372
波的	-16373
海鸥	-16374
漂流	-16375
瑞克	-16376
称号	-16377
穿戴	-16378
粗俗	-16379
聘请	-16380
范例	-16381
落地	-16382
虚无	-16383
讨价	-16384
这门	-16385
附带	-16386
音译	-16387
Per	-16388
▁几个	-16389
▁各种	-16390
▁战争	-16391
▁过了	-16392
一些小	-16393
中包含	-16394
中添加	-16395
但这种	-16396
关键字	-16397
力量和	-16398
受伤的	-16399
合理性	-16400
在同一	-16401
在当地	-16402
在非洲	-16403
妈妈的	-16404
对环境	-16405
当然是	-16406
形状的	-16407
很快地	-16408
我们去	-16409
我们正	-16410
时不时	-16411
来解释	-16412
流浪汉	-16413
现在我	-16414
的外部	-16415
的热点	-16416
的现实	-16417
的评论	-16418
自己所	-16419
西南部	-16420
超越了	-16421
这正是	-16422
thon	-16423
两个小时	-16424
可以成为	-16425
慈善机构	-16426
更不用说	-16427
糟糕的是	-16428
自由贸易	-16429
?)	-16430
不快	-16431
东亚	-16432
为它	-16433
乃伊	-16434
从她	-16435
你从	-16436
使徒	-16437
公立	-16438
冰块	-16439
动乱	-16440
包里	-16441
发炎	-16442
嘈杂	-16443
外人	-16444
对流	-16445
寿司	-16446
已然	-16447
插图	-16448
效仿	-16449
整形	-16450
殴打	-16451
洗净	-16452
清扫	-16453
溶胶	-16454
焦急	-16455
狙击	-16456
用具	-16457
用心	-16458
相符	-16459
矢量	-16460
离家	-16461
笔者	-16462
简介	-16463
粘结	-16464
航线	-16465
藉由	-16466
让其	-16467
讲解	-16468
请您	-16469
赛跑	-16470
践踏	-16471
还价	-16472
镇上	-16473
颁奖	-16474
Mon	-16475
ino	-16476
▁诚然	-16477
▁透过	-16478
▁那种	-16479
不值得	-16480
不是个	-16481
不能在	-16482
丧失了	-16483
传递给	-16484
利益的	-16485
已久的	-16486
教堂的	-16487
有那么	-16488
格兰特	-16489
波利斯	-16490
白内障	-16491
的外表	-16492
的混合	-16493
缓慢的	-16494
这三个	-16495
马里兰	-16496
▁但是我	-16497
▁当你在	-16498
▁所以我	-16499
塞尔维亚	-16500
▁他们发现	-16501
▁有趣的是	-16502
之间的联系	-16503
世界上最大的	-16504
SL	-16505
▁手	-16506
▁气	-16507
七八	-16508
中医	-16509
乳腺	-16510
人事	-16511
仅为	-16512
伙计	-16513
伦多	-16514
依次	-16515
全新	-16516
别处	-16517
叛军	-16518
喷嚏	-16519
器皿	-16520
图纸	-16521
墓碑	-16522
太高	-16523
她将	-16524
婚纱	-16525
工匠	-16526
巴拿	-16527
彰显	-16528
很短	-16529
怀旧	-16530
抑或	-16531
抱有	-16532
捉摸	-16533
摆在	-16534
斑马	-16535
时空	-16536
更衣	-16537
林业	-16538
比在	-16539
渗入	-16540
琳达	-16541
甜甜	-16542
生锈	-16543
白云	-16544
直播	-16545
着急	-16546
睡在	-16547
约克	-16548
纷争	-16549
绝佳	-16550
羊群	-16551
荆棘	-16552
蔗糖	-16553
诱发	-16554
读过	-16555
贝利	-16556
贬低	-16557
赎罪	-16558
赐予	-16559
越发	-16560
退缩	-16561
都以	-16562
里昂	-16563
针刺	-16564
阈值	-16565
附上	-16566
餐饮	-16567
高音	-16568
个月的	-16569
为这个	-16570
主人的	-16571
人们都	-16572
从那里	-16573
伯明翰	-16574
单元格	-16575
合物的	-16576
和欧洲	-16577
和行为	-16578
地板上	-16579
大型的	-16580
就是个	-16581
已不再	-16582
打招呼	-16583
有几个	-16584
来表达	-16585
比我们	-16586
注定要	-16587
渐渐地	-16588
灵活的	-16589
用他的	-16590
的一组	-16591
的人说	-16592
的微笑	-16593
的操作	-16594
的水果	-16595
的真正	-16596
着自己	-16597
肾上腺	-16598
认识的	-16599
该计划	-16600
过时的	-16601
还不如	-16602
避孕套	-16603
那些人	-16604
都具有	-16605
陌生的	-16606
霍华德	-16607
▁一开始	-16608
令人失望	-16609
债务危机	-16610
十分之一	-16611
告诉你的	-16612
政策制定	-16613
是否应该	-16614
更倾向于	-16615
的小男孩	-16616
精力充沛	-16617
诺贝尔奖	-16618
这是因为	-16619
配置文件	-16620
66	-16621
一级	-16622
一试	-16623
不符	-16624
两家	-16625
凉的	-16626
剪辑	-16627
取样	-16628
可被	-16629
后裔	-16630
命题	-16631
哈特	-16632
外向	-16633
套管	-16634
对准	-16635
将她	-16636
小溪	-16637
延期	-16638
把戏	-16639
拐杖	-16640
推崇	-16641
新月	-16642
普勒	-16643
朝向	-16644
核能	-16645
榴弹	-16646
沉降	-16647
灵长	-16648
煤气	-16649
王室	-16650
玻利	-16651
的同	-16652
的球	-16653
积聚	-16654
稳步	-16655
简陋	-16656
精湛	-16657
群人	-16658
而上	-16659
脚上	-16660
芒果	-16661
衰减	-16662
谈起	-16663
达姆	-16664
这让	-16665
远见	-16666
迟缓	-16667
遗体	-16668
那家	-16669
镜下	-16670
闻到	-16671
领取	-16672
飞过	-16673
饰品	-16674
首脑	-16675
▁你看	-16676
▁官方	-16677
▁英语	-16678
不及待	-16679
了中国	-16680
产量的	-16681
人们所	-16682
优先级	-16683
会议的	-16684
但至少	-16685
你是个	-16686
依然是	-16687
几秒钟	-16688
副产品	-16689
办事处	-16690
努力的	-16691
劳伦斯	-16692
和所有	-16693
品牌的	-16694
在亚洲	-16695
墙上的	-16696
大面积	-16697
夫人的	-16698
好主意	-16699
学到的	-16700
必须被	-16701
我可能	-16702
攻击者	-16703
火山灰	-16704
的担忧	-16705
的植物	-16706
的测试	-16707
的温度	-16708
知名的	-16709
第三次	-16710
紫色的	-16711
而这个	-16712
解决的	-16713
该死的	-16714
1980	-16715
1995	-16716
▁这一切	-16717
不是为了	-16718
也有可能	-16719
令人吃惊	-16720
令人满意	-16721
任何事情	-16722
发生的事	-16723
在华盛顿	-16724
坐在那里	-16725
所作所为	-16726
是可行的	-16727
的问题上	-16728
绝大部分	-16729
▁不管怎样	-16730
43	-16731
RA	-16732
▁桑	-16733
▁象	-16734
中将	-16735
互补	-16736
什叶	-16737
传承	-16738
例行	-16739
假的	-16740
停火	-16741
剥削	-16742
即是	-16743
变了	-16744
启蒙	-16745
周刊	-16746
回味	-16747
尘器	-16748
平整	-16749
床边	-16750
应有	-16751
拿走	-16752
挡风	-16753
搞得	-16754
摔跤	-16755
救世	-16756
梳理	-16757
段的	-16758
溜冰	-16759
火药	-16760
甚少	-16761
的死	-16762
离合	-16763
缴纳	-16764
罪人	-16765
而死	-16766
耐力	-16767
舒缓	-16768
虚幻	-16769
装着	-16770
要让	-16771
讨好	-16772
超时	-16773
还可	-16774
还很	-16775
适量	-16776
那不	-16777
鄙视	-16778
重心	-16779
钢板	-16780
钱财	-16781
难受	-16782
Act	-16783
ale	-16784
▁一份	-16785
▁她是	-16786
▁学校	-16787
▁微软	-16788
▁此刻	-16789
▁翻译	-16790
▁这幅	-16791
不列颠	-16792
不知所	-16793
严肃的	-16794
关系中	-16795
夜总会	-16796
它能够	-16797
微弱的	-16798
推出的	-16799
散发着	-16800
没有在	-16801
泰晤士	-16802
洗手间	-16803
消化道	-16804
消失在	-16805
生产和	-16806
的兴趣	-16807
的诊断	-16808
而我们	-16809
职人员	-16810
▁下面的	-16811
▁今天我	-16812
▁然而在	-16813
他们可能	-16814
佛罗伦萨	-16815
原因之一	-16816
受到影响	-16817
合作关系	-16818
很容易地	-16819
感到惊讶	-16820
我的工作	-16821
数据库的	-16822
穆罕默德	-16823
▁这项研究	-16824
FO	-16825
”;	-16826
▁「	-16827
上个	-16828
上任	-16829
个案	-16830
中途	-16831
丰满	-16832
事事	-16833
云彩	-16834
他才	-16835
伤了	-16836
体面	-16837
倒退	-16838
入境	-16839
全民	-16840
八个	-16841
剧场	-16842
占星	-16843
召回	-16844
商界	-16845
嘉莉	-16846
战中	-16847
挥手	-16848
教程	-16849
明媚	-16850
毛茸	-16851
洗碗	-16852
津贴	-16853
流泪	-16854
激增	-16855
然大	-16856
狭隘	-16857
申诉	-16858
百货	-16859
的铁	-16860
皮瓣	-16861
直肠	-16862
相等	-16863
美景	-16864
肉眼	-16865
能以	-16866
蜜月	-16867
螺母	-16868
血的	-16869
装运	-16870
要走	-16871
谋求	-16872
起草	-16873
车型	-16874
逼迫	-16875
那块	-16876
长袍	-16877
1.5	-16878
15%	-16879
ner	-16880
▁地震	-16881
▁控制	-16882
但由于	-16883
信息和	-16884
凝视着	-16885
函数的	-16886
切除术	-16887
制造出	-16888
前进的	-16889
和时间	-16890
壮观的	-16891
女演员	-16892
密苏里	-16893
将他的	-16894
将如何	-16895
已有的	-16896
弥尔顿	-16897
拿着一	-16898
持续到	-16899
杀虫剂	-16900
水资源	-16901
知道他	-16902
精疲力	-16903
能提供	-16904
装饰品	-16905
达成的	-16906
1996	-16907
▁一年前	-16908
你知道的	-16909
化学反应	-16910
商业银行	-16911
手术治疗	-16912
站在那里	-16913
还有什么	-16914
进行调查	-16915
迫不及待	-16916
房地产市场	-16917
在一定程度上	-16918
▁兰	-16919
▁纳	-16920
一两	-16921
上加	-16922
下定	-16923
为零	-16924
买下	-16925
前额	-16926
加的	-16927
喊叫	-16928
喊着	-16929
喷洒	-16930
四月	-16931
围栏	-16932
基石	-16933
增量	-16934
外包	-16935
大略	-16936
对吗	-16937
小路	-16938
帕克	-16939
延缓	-16940
微量	-16941
快感	-16942
慢跑	-16943
搭乘	-16944
无神	-16945
日出	-16946
普查	-16947
暴徒	-16948
水位	-16949
深化	-16950
源性	-16951
生死	-16952
白垩	-16953
看好	-16954
米饭	-16955
精打	-16956
精油	-16957
细心	-16958
肛门	-16959
行径	-16960
解体	-16961
诡计	-16962
贯彻	-16963
跌倒	-16964
车间	-16965
违规	-16966
酒的	-16967
错觉	-16968
阻断	-16969
鼓起	-16970
▁建筑	-16971
不利于	-16972
为中心	-16973
乌托邦	-16974
了美国	-16975
他们想	-16976
位置的	-16977
你喜欢	-16978
剩余的	-16979
地平线	-16980
学生在	-16981
小心地	-16982
少年的	-16983
希伯来	-16984
必须有	-16985
或多或	-16986
战斗中	-16987
无与伦	-16988
现实中	-16989
生殖器	-16990
的业务	-16991
的色彩	-16992
矛盾的	-16993
迅速的	-16994
这并不	-16995
阿波罗	-16996
陆战队	-16997
一点都不	-16998
创造性的	-16999
坚持不懈	-17000
实际应用	-17001
是必要的	-17002
毫不犹豫	-17003
玛格丽特	-17004
的办公室	-17005
计算方法	-17006
这个想法	-17007
不可思议的	-17008
众所周知的	-17009
是很重要的	-17010
汽车制造商	-17011
重要的作用	-17012
▁提出了一种	-17013
这就是为什么	-17014
Exchange	-17015
Se	-17016
▁切	-17017
一圈	-17018
一滴	-17019
不理	-17020
与该	-17021
代言	-17022
你把	-17023
你来	-17024
假冒	-17025
公关	-17026
六十	-17027
冷藏	-17028
加索	-17029
勒索	-17030
半夜	-17031
卡恩	-17032
口径	-17033
吞吐	-17034
听话	-17035
回国	-17036
坏死	-17037
复原	-17038
大有	-17039
季后	-17040
完好	-17041
已婚	-17042
心存	-17043
我一	-17044
扰动	-17045
拉链	-17046
改为	-17047
文书	-17048
晴朗	-17049
曲子	-17050
最不	-17051
林地	-17052
段落	-17053
油炸	-17054
渡过	-17055
溢出	-17056
界线	-17057
皮的	-17058
稀少	-17059
耕作	-17060
自传	-17061
证词	-17062
过往	-17063
降至	-17064
霍尔	-17065
领悟	-17066
食指	-17067
食欲	-17068
高端	-17069
New	-17070
WTO	-17071
▁很久	-17072
了解了	-17073
勇敢地	-17074
和妻子	-17075
容易被	-17076
张照片	-17077
或一个	-17078
手术后	-17079
来描述	-17080
毛茸茸	-17081
热烈的	-17082
畅销书	-17083
的不是	-17084
的策略	-17085
社会学	-17086
这是他	-17087
这部分	-17088
闻名的	-17089
▁我非常	-17090
发生什么	-17091
可以说是	-17092
如果你的	-17093
客户提供	-17094
我意识到	-17095
打电话给	-17096
无关紧要	-17097
财政部长	-17098
这份工作	-17099
领导人的	-17100
Group	-17101
仅仅是一个	-17102
会发生什么	-17103
看起来就像	-17104
▁家	-17105
上部	-17106
下个	-17107
下肢	-17108
世贸	-17109
仅在	-17110
信条	-17111
信片	-17112
共进	-17113
剧情	-17114
化解	-17115
卵子	-17116
又被	-17117
只用	-17118
后方	-17119
器在	-17120
埋在	-17121
填满	-17122
太久	-17123
当场	-17124
恼怒	-17125
报名	-17126
汗水	-17127
清水	-17128
状体	-17129
理学	-17130
理财	-17131
生计	-17132
畜牧	-17133
示意	-17134
细分	-17135
绿洲	-17136
缝纫	-17137
而生	-17138
背诵	-17139
脱口	-17140
自如	-17141
花纹	-17142
苦苦	-17143
贝壳	-17144
贫瘠	-17145
跟上	-17146
输卵	-17147
醋酸	-17148
阴蒂	-17149
阿姨	-17150
降到	-17151
面团	-17152
lex	-17153
▁哈利	-17154
▁欢迎	-17155
▁确定	-17156
▁预计	-17157
下降了	-17158
也是最	-17159
你正在	-17160
做到的	-17161
凯尔特	-17162
分析及	-17163
发现他	-17164
和孩子	-17165
和方法	-17166
在外面	-17167
复制到	-17168
大脑的	-17169
实在太	-17170
将无法	-17171
就无法	-17172
带到了	-17173
或两个	-17174
控制了	-17175
收音机	-17176
服务和	-17177
标识符	-17178
演讲中	-17179
特征的	-17180
的一对	-17181
的金属	-17182
简短的	-17183
结核病	-17184
老太太	-17185
花时间	-17186
讲述了	-17187
过度的	-17188
铝合金	-17189
高跟鞋	-17190
NASA	-17191
中央银行	-17192
人们认为	-17193
保护自己	-17194
其他人的	-17195
危地马拉	-17196
可能出现	-17197
外交政策	-17198
考古学家	-17199
设置一个	-17200
这种说法	-17201
销售人员	-17202
▁接下来的	-17203
1。	-17204
Po	-17205
de	-17206
▁曼	-17207
▁民	-17208
▁虽	-17209
▁赛	-17210
不失	-17211
之王	-17212
之神	-17213
人有	-17214
从业	-17215
共存	-17216
减慢	-17217
减排	-17218
剪贴	-17219
卑微	-17220
去见	-17221
双脚	-17222
台北	-17223
周前	-17224
哈姆	-17225
四大	-17226
国土	-17227
图斯	-17228
坚守	-17229
多层	-17230
奖赏	-17231
尽早	-17232
山地	-17233
带子	-17234
心痛	-17235
性好	-17236
情境	-17237
文盲	-17238
极权	-17239
毅力	-17240
洛因	-17241
派出	-17242
牵涉	-17243
率领	-17244
琐事	-17245
礼节	-17246
素材	-17247
网的	-17248
罗姆	-17249
腰椎	-17250
虫子	-17251
讲道	-17252
诱人	-17253
贩卖	-17254
跋涉	-17255
辩解	-17256
运费	-17257
近视	-17258
迟早	-17259
那间	-17260
闲逛	-17261
露西	-17262
顺服	-17263
领地	-17264
颤动	-17265
GPS	-17266
Gre	-17267
ery	-17268
org	-17269
out	-17270
▁但她	-17271
▁项目	-17272
三分之	-17273
主教练	-17274
使他的	-17275
北极熊	-17276
及其它	-17277
和数据	-17278
尊敬的	-17279
座位上	-17280
得益于	-17281
微波炉	-17282
方便地	-17283
有一张	-17284
本赛季	-17285
格式的	-17286
每个月	-17287
现在正	-17288
电动机	-17289
疯狂地	-17290
癌细胞	-17291
看到她	-17292
福克斯	-17293
经过了	-17294
脑海里	-17295
西方的	-17296
还表示	-17297
那不是	-17298
限制了	-17299
集中于	-17300
▁我们还	-17301
一个非常	-17302
使用寿命	-17303
健康问题	-17304
可以获得	-17305
是多么的	-17306
更广泛的	-17307
的帮助下	-17308
的是一个	-17309
看上去很	-17310
管理系统	-17311
让我感到	-17312
▁如果这些	-17313
与众不同的	-17314
我们不得不	-17315
有效的方法	-17316
结合在一起	-17317
货币基金组织	-17318
Fr	-17319
MA	-17320
▁夜	-17321
东欧	-17322
也应	-17323
买入	-17324
付钱	-17325
代的	-17326
以供	-17327
会像	-17328
例中	-17329
八月	-17330
冷水	-17331
分明	-17332
前去	-17333
匹林	-17334
即兴	-17335
只为	-17336
吉斯	-17337
君王	-17338
图象	-17339
声学	-17340
外侧	-17341
外在	-17342
外资	-17343
大块	-17344
头戴	-17345
奉承	-17346
宁可	-17347
家门	-17348
将与	-17349
巅峰	-17350
床单	-17351
徽章	-17352
忘掉	-17353
我那	-17354
扇门	-17355
打碎	-17356
拖动	-17357
挂钩	-17358
搞笑	-17359
敌军	-17360
新疆	-17361
替补	-17362
有线	-17363
橱柜	-17364
此后	-17365
洗发	-17366
牡蛎	-17367
甲虫	-17368
百合	-17369
移居	-17370
罪魁	-17371
裂片	-17372
赚取	-17373
起誓	-17374
身亡	-17375
过道	-17376
运到	-17377
这可	-17378
那年	-17379
邮局	-17380
锅里	-17381
长相	-17382
间距	-17383
降级	-17384
零食	-17385
霸权	-17386
PHP	-17387
Tim	-17388
▁从此	-17389
不信任	-17390
也知道	-17391
儿童的	-17392
医院的	-17393
印度教	-17394
在这场	-17395
基础的	-17396
塔尼亚	-17397
尼克松	-17398
我能够	-17399
所作的	-17400
技术上	-17401
报道称	-17402
提供商	-17403
新泽西	-17404
是全球	-17405
更新的	-17406
有害的	-17407
由于其	-17408
的眼光	-17409
的长期	-17410
结论是	-17411
而这种	-17412
被问及	-17413
试图在	-17414
谨慎的	-17415
▁史蒂夫	-17416
▁在本文	-17417
他的朋友	-17418
伙伴关系	-17419
参加一个	-17420
就业机会	-17421
应该能够	-17422
我们如何	-17423
我们将会	-17424
购物中心	-17425
▁为了避免	-17426
仍然是一个	-17427
▁在接下来的	-17428
VC	-17429
▁常	-17430
▁牛	-17431
下半	-17432
不和	-17433
丰收	-17434
乐曲	-17435
互换	-17436
产地	-17437
产科	-17438
他以	-17439
仰望	-17440
偷窃	-17441
像你	-17442
先是	-17443
分枝	-17444
剃须	-17445
南京	-17446
变色	-17447
哈尔	-17448
好似	-17449
威特	-17450
字眼	-17451
弗莱	-17452
战时	-17453
推到	-17454
擦拭	-17455
无名	-17456
每晚	-17457
汤匙	-17458
海伦	-17459
湖水	-17460
火腿	-17461
照着	-17462
特斯	-17463
狂犬	-17464
理应	-17465
石块	-17466
科夫	-17467
突袭	-17468
累累	-17469
脑中	-17470
芬奇	-17471
莉亚	-17472
蓝天	-17473
被杀	-17474
裂变	-17475
访客	-17476
踏板	-17477
躺着	-17478
车手	-17479
轴向	-17480
透视	-17481
酿酒	-17482
韧带	-17483
900	-17484
ull	-17485
▁影片	-17486
▁父母	-17487
下去了	-17488
不安的	-17489
与发展	-17490
也能够	-17491
了大量	-17492
他似乎	-17493
优良的	-17494
传教士	-17495
信用证	-17496
出一些	-17497
创作的	-17498
多年前	-17499
如果它	-17500
子公司	-17501
安息日	-17502
异教徒	-17503
怎么会	-17504
怎样的	-17505
我也会	-17506
或是在	-17507
方便的	-17508
是不够	-17509
曾经在	-17510
玫瑰花	-17511
的图像	-17512
的整体	-17513
的眼神	-17514
的记者	-17515
的距离	-17516
系统在	-17517
绝不是	-17518
置身于	-17519
身份证	-17520
饮用水	-17521
▁不知道	-17522
▁计算机	-17523
化学成分	-17524
十字路口	-17525
最著名的	-17526
穆巴拉克	-17527
这件事情	-17528
进入一个	-17529
高质量的	-17530
▁如果你是	-17531
可以追溯到	-17532
的临床疗效	-17533
具有重要意义	-17534
上和	-17535
不宜	-17536
不移	-17537
以期	-17538
再去	-17539
冷的	-17540
刀片	-17541
史前	-17542
和热	-17543
固有	-17544
填料	-17545
士顿	-17546
套房	-17547
就说	-17548
弄清	-17549
往事	-17550
往返	-17551
得其	-17552
心碎	-17553
总共	-17554
才有	-17555
抉择	-17556
控股	-17557
摔倒	-17558
政变	-17559
数控	-17560
架子	-17561
滑行	-17562
灰烬	-17563
申报	-17564
监察	-17565
确诊	-17566
福克	-17567
胶带	-17568
花卉	-17569
补丁	-17570
西蒙	-17571
要到	-17572
记事	-17573
语文	-17574
轰动	-17575
达斯	-17576
这所	-17577
邮递	-17578
陶器	-17579
陷于	-17580
颠倒	-17581
马戏	-17582
!!!	-17583
CNN	-17584
amb	-17585
不满意	-17586
不要让	-17587
事业的	-17588
产品和	-17589
你就是	-17590
先天性	-17591
出了一	-17592
合伙人	-17593
品质的	-17594
固有的	-17595
妇女的	-17596
它们会	-17597
安全和	-17598
对经济	-17599
并把它	-17600
开始于	-17601
得出了	-17602
思想家	-17603
恐怖的	-17604
所具有	-17605
报道说	-17606
推出了	-17607
文章中	-17608
斯大林	-17609
是一块	-17610
来判断	-17611
的农民	-17612
的热量	-17613
的限制	-17614
相色谱	-17615
给那些	-17616
维也纳	-17617
美尼亚	-17618
输卵管	-17619
这些都	-17620
5000	-17621
▁伊拉克	-17622
它是一种	-17623
有不同的	-17624
现在我们	-17625
现在正在	-17626
空气中的	-17627
西班牙语	-17628
进行测试	-17629
▁目的了解	-17630
了一段时间	-17631
大部分时间	-17632
Michael	-17633
IA	-17634
ME	-17635
oy	-17636
一匹	-17637
两组	-17638
中时	-17639
之子	-17640
亮光	-17641
住民	-17642
保龄	-17643
像在	-17644
全能	-17645
出手	-17646
出行	-17647
分心	-17648
别名	-17649
医治	-17650
周后	-17651
头鹰	-17652
常被	-17653
很强	-17654
必备	-17655
恼火	-17656
打猎	-17657
打球	-17658
振兴	-17659
施压	-17660
无缝	-17661
暗淡	-17662
暴乱	-17663
暴跌	-17664
有色	-17665
次于	-17666
母语	-17667
比重	-17668
海龟	-17669
液晶	-17670
炼油	-17671
爱她	-17672
物业	-17673
甜美	-17674
的他	-17675
窃听	-17676
股本	-17677
薯条	-17678
要多	-17679
走开	-17680
赶出	-17681
迅猛	-17682
过他	-17683
采纳	-17684
铭记	-17685
陈旧	-17686
院的	-17687
难的	-17688
马蹄	-17689
ory	-17690
ous	-17691
▁但当	-17692
▁儿童	-17693
▁加强	-17694
▁布鲁	-17695
▁新闻	-17696
▁是啊	-17697
▁语言	-17698
上了一	-17699
不使用	-17700
不规则	-17701
为美国	-17702
亲密的	-17703
他们用	-17704
体系中	-17705
你的心	-17706
初学者	-17707
十年前	-17708
发展到	-17709
和国家	-17710
和研究	-17711
在一份	-17712
在一片	-17713
塑料袋	-17714
弯曲的	-17715
授权的	-17716
旁观者	-17717
是造成	-17718
最大化	-17719
爱丁堡	-17720
玩意儿	-17721
的两倍	-17722
的光线	-17723
的平均	-17724
的男子	-17725
的观念	-17726
相对论	-17727
轨道上	-17728
还不是	-17729
▁其他人	-17730
▁几个月	-17731
▁如果她	-17732
俄亥俄州	-17733
奥巴马的	-17734
感兴趣的	-17735
是否能够	-17736
最大限度	-17737
种族隔离	-17738
该怎么办	-17739
▁这可能是	-17740
结束的时候	-17741
,3	-17742
Py	-17743
ky	-17744
▁毛	-17745
不放	-17746
两栖	-17747
为该	-17748
也比	-17749
倾倒	-17750
健忘	-17751
元音	-17752
军用	-17753
冰激	-17754
前端	-17755
华氏	-17756
吹嘘	-17757
富足	-17758
干草	-17759
年份	-17760
恶人	-17761
成交	-17762
我便	-17763
才行	-17764
施肥	-17765
既往	-17766
村子	-17767
柑橘	-17768
栓塞	-17769
概要	-17770
毁了	-17771
汇款	-17772
混蛋	-17773
烛光	-17774
犯规	-17775
现已	-17776
电能	-17777
相干	-17778
祸首	-17779
稀缺	-17780
穿孔	-17781
等我	-17782
绝非	-17783
胡桃	-17784
自家	-17785
蠕虫	-17786
试管	-17787
轻率	-17788
轻视	-17789
这人	-17790
这台	-17791
道菜	-17792
are	-17793
ary	-17794
ode	-17795
ong	-17796
▁法官	-17797
上升到	-17798
乔纳森	-17799
也已经	-17800
了一番	-17801
冲突的	-17802
到最后	-17803
动植物	-17804
卡罗来	-17805
发布了	-17806
工具箱	-17807
德国的	-17808
态度的	-17809
放大器	-17810
斯拉夫	-17811
普通话	-17812
来支持	-17813
毕业后	-17814
汤普森	-17815
潜水员	-17816
生长在	-17817
用它来	-17818
电影的	-17819
笑着说	-17820
计划中	-17821
防火墙	-17822
高大的	-17823
ight	-17824
▁世界上	-17825
一家公司	-17826
产品质量	-17827
他们发现	-17828
其他任何	-17829
恐怖袭击	-17830
普遍认为	-17831
这是我们	-17832
▁你可以在	-17833
▁如果你们	-17834
意想不到的	-17835
4.	-17836
FS	-17837
by	-17838
▁且	-17839
▁读	-17840
不屑	-17841
减压	-17842
出示	-17843
分量	-17844
区间	-17845
受苦	-17846
只剩	-17847
向南	-17848
在做	-17849
坚实	-17850
壮大	-17851
大夫	-17852
套的	-17853
安迪	-17854
安那	-17855
将把	-17856
应答	-17857
微博	-17858
快递	-17859
怀有	-17860
怪兽	-17861
或更	-17862
扁平	-17863
招标	-17864
捷克	-17865
接入	-17866
援引	-17867
撤出	-17868
显式	-17869
普鲁	-17870
曲棍	-17871
枪手	-17872
某事	-17873
流亡	-17874
温顺	-17875
烤箱	-17876
特意	-17877
眉头	-17878
看你	-17879
筹备	-17880
绽放	-17881
美貌	-17882
脱下	-17883
荒芜	-17884
药的	-17885
藏着	-17886
里约	-17887
错综	-17888
隆隆	-17889
隐患	-17890
韦斯	-17891
页的	-17892
预约	-17893
▁完成	-17894
▁我能	-17895
▁早期	-17896
▁沿着	-17897
▁要求	-17898
▁金融	-17899
一生的	-17900
丹尼斯	-17901
保存在	-17902
决策者	-17903
几内亚	-17904
因此在	-17905
坚固的	-17906
微妙的	-17907
我记得	-17908
抬起头	-17909
方面都	-17910
是作为	-17911
是十分	-17912
某个人	-17913
的性格	-17914
的海岸	-17915
的解释	-17916
联合会	-17917
联想到	-17918
节目的	-17919
那么大	-17920
降落伞	-17921
飞机的	-17922
land	-17923
一个国家	-17924
不断增加	-17925
似乎没有	-17926
你知道吗	-17927
原因在于	-17928
奥运会的	-17929
广泛应用	-17930
给我一个	-17931
自给自足	-17932
里士多德	-17933
▁在大多数	-17934
▁目的研究	-17935
最好的朋友	-17936
,「	-17937
?-	-17938
FC	-17939
NO	-17940
Sy	-17941
”:	-17942
▁会	-17943
▁信	-17944
▁发	-17945
▁潘	-17946
▁铁	-17947
中旬	-17948
休眠	-17949
公会	-17950
内侧	-17951
凸显	-17952
前期	-17953
参选	-17954
叠加	-17955
堪称	-17956
她所	-17957
妇科	-17958
带我	-17959
年华	-17960
心想	-17961
怎能	-17962
扎伊	-17963
挥发	-17964
捕捞	-17965
政体	-17966
杀伤	-17967
泥泞	-17968
渐进	-17969
滑坡	-17970
滞后	-17971
潜入	-17972
狄更	-17973
疤痕	-17974
睁开	-17975
破解	-17976
积蓄	-17977
纸条	-17978
至高	-17979
薪资	-17980
被打	-17981
辨识	-17982
迈进	-17983
还算	-17984
进军	-17985
递归	-17986
遮蔽	-17987
郁闷	-17988
钉子	-17989
雷诺	-17990
首尔	-17991
首诗	-17992
高频	-17993
鳞片	-17994
▁一条	-17995
▁会议	-17996
▁答案	-17997
丈夫的	-17998
不了解	-17999
举办的	-18000
例子中	-18001
像这样	-18002
全国的	-18003
公开的	-18004
发明了	-18005
可以与	-18006
和平的	-18007
安全地	-18008
将不再	-18009
岁生日	-18010
巧妙的	-18011
布拉德	-18012
帮助下	-18013
广阔的	-18014
录音机	-18015
情况的	-18016
我仍然	-18017
收入的	-18018
政府对	-18019
明信片	-18020
智慧和	-18021
有利的	-18022
未知的	-18023
电影中	-18024
的焦点	-18025
真诚的	-18026
知道我	-18027
给定的	-18028
西北部	-18029
课程的	-18030
这时候	-18031
预测的	-18032
1500	-18033
3000	-18034
▁基本上	-18035
▁如果要	-18036
个人电脑	-18037
你是一个	-18038
使用这个	-18039
别无选择	-18040
和我一起	-18041
因为你们	-18042
感到不安	-18043
现在开始	-18044
玻利维亚	-18045
的方法是	-18046
的纳维亚	-18047
解决问题的	-18048
在某种程度上	-18049
7%	-18050
El	-18051
▁打	-18052
▁柯	-18053
专员	-18054
事儿	-18055
人了	-18056
以内	-18057
伯克	-18058
佩克	-18059
光度	-18060
关在	-18061
商量	-18062
回转	-18063
圆的	-18064
圣人	-18065
大肠	-18066
威慑	-18067
完工	-18068
小腿	-18069
崇尚	-18070
废料	-18071
或无	-18072
捕猎	-18073
搏斗	-18074
敬拜	-18075
斯图	-18076
本应	-18077
机翼	-18078
枪杀	-18079
核实	-18080
流中	-18081
特和	-18082
痊愈	-18083
盖子	-18084
眨眼	-18085
着脚	-18086
短路	-18087
精液	-18088
约为	-18089
而定	-18090
蜷缩	-18091
血浆	-18092
褶皱	-18093
解密	-18094
说这	-18095
贝拉	-18096
轮的	-18097
造访	-18098
面目	-18099
首府	-18100
香糖	-18101
麦片	-18102
Off	-18103
▁什么	-18104
▁喜欢	-18105
▁真的	-18106
▁记得	-18107
一星期	-18108
与社会	-18109
传播的	-18110
你这个	-18111
出版的	-18112
压缩机	-18113
及其在	-18114
可卡因	-18115
存储库	-18116
废弃物	-18117
归因于	-18118
我们想	-18119
摄像头	-18120
文学家	-18121
新产品	-18122
最好是	-18123
水果和	-18124
的地理	-18125
的成长	-18126
的症状	-18127
看一看	-18128
眼睛里	-18129
老朋友	-18130
色彩的	-18131
药剂师	-18132
莫名其	-18133
那一天	-18134
问题和	-18135
高高的	-18136
1992	-18137
▁她表示	-18138
▁我不会	-18139
中的一员	-18140
丰富多彩	-18141
也不可能	-18142
分析人士	-18143
可以找到	-18144
垃圾邮件	-18145
所提供的	-18146
无处不在	-18147
的小伙子	-18148
的那一刻	-18149
移动电话	-18150
重新考虑	-18151
▁方法采用	-18152
总统候选人	-18153
的一个主要	-18154
的主要因素	-18155
阿姆斯特丹	-18156
BO	-18157
HS	-18158
一是	-18159
不切	-18160
乳酸	-18161
亚太	-18162
伤病	-18163
伤痕	-18164
偏移	-18165
光环	-18166
前者	-18167
原地	-18168
反恐	-18169
名片	-18170
名牌	-18171
呼气	-18172
圣母	-18173
均可	-18174
基尼	-18175
大赛	-18176
妈的	-18177
审议	-18178
导出	-18179
屠宰	-18180
帖子	-18181
很近	-18182
快点	-18183
急诊	-18184
恭维	-18185
战舰	-18186
按键	-18187
有礼	-18188
标注	-18189
水质	-18190
海德	-18191
海面	-18192
特区	-18193
状物	-18194
用语	-18195
的旧	-18196
盲人	-18197
相片	-18198
眼花	-18199
硫化	-18200
稳态	-18201
终究	-18202
罹患	-18203
肌腱	-18204
胸口	-18205
脚跟	-18206
艾米	-18207
萨德	-18208
藐视	-18209
蜂巢	-18210
行者	-18211
诚挚	-18212
说它	-18213
请他	-18214
赢家	-18215
躯干	-18216
轮子	-18217
选出	-18218
部族	-18219
配上	-18220
食堂	-18221
马尼	-18222
麦迪	-18223
齐全	-18224
App	-18225
iel	-18226
▁加入	-18227
▁在该	-18228
▁荷兰	-18229
。。。	-18230
一大堆	-18231
不可靠	-18232
中西部	-18233
为我的	-18234
了一半	-18235
了那些	-18236
到他们	-18237
发行的	-18238
和一位	-18239
在一年	-18240
城市里	-18241
将所有	-18242
幸运的	-18243
批评家	-18244
方案的	-18245
是人们	-18246
有不同	-18247
检测到	-18248
法国的	-18249
然后是	-18250
的球员	-18251
第一天	-18252
给她的	-18253
给孩子	-18254
要注意	-18255
计划和	-18256
认为这	-18257
设计与	-18258
还是很	-18259
这样就	-18260
金枪鱼	-18261
默多克	-18262
ject	-18263
port	-18264
▁但现在	-18265
▁进一步	-18266
中国人民	-18267
为基础的	-18268
卫生保健	-18269
我们今天	-18270
摩天大楼	-18271
新陈代谢	-18272
的一件事	-18273
的前提下	-18274
股票市场	-18275
讨价还价	-18276
▁在这样的	-18277
▁布什总统	-18278
这个问题的	-18279
(2	-18280
sc	-18281
▁聚	-18282
不许	-18283
丹尼	-18284
人人	-18285
你用	-18286
兴致	-18287
分流	-18288
到位	-18289
刺绣	-18290
前夕	-18291
原有	-18292
可悲	-18293
向东	-18294
听闻	-18295
商家	-18296
圆盘	-18297
就去	-18298
布丁	-18299
布伦	-18300
年长	-18301
开火	-18302
忠告	-18303
恶棍	-18304
慕尼	-18305
扑灭	-18306
打工	-18307
扔进	-18308
找回	-18309
抽取	-18310
拉姆	-18311
新人	-18312
本该	-18313
来访	-18314
枢纽	-18315
根基	-18316
模范	-18317
正值	-18318
正经	-18319
水利	-18320
污垢	-18321
活化	-18322
潮汐	-18323
火柴	-18324
烤肉	-18325
现存	-18326
球形	-18327
甲醛	-18328
睡前	-18329
神情	-18330
罗兰	-18331
置换	-18332
老了	-18333
老汇	-18334
肿块	-18335
自来	-18336
艺人	-18337
药用	-18338
莫扎	-18339
营利	-18340
蒙德	-18341
藏身	-18342
角质	-18343
课上	-18344
责怪	-18345
走走	-18346
逝世	-18347
那场	-18348
酒杯	-18349
酿造	-18350
重生	-18351
针叶	-18352
除掉	-18353
音节	-18354
首选	-18355
黄的	-18356
Col	-18357
▁进行	-18358
全球的	-18359
冥王星	-18360
出去了	-18361
合成的	-18362
命令行	-18363
哥伦布	-18364
在最近	-18365
安大略	-18366
将需要	-18367
巴尔干	-18368
才可以	-18369
改进的	-18370
春天的	-18371
来衡量	-18372
模拟器	-18373
残疾人	-18374
特异性	-18375
犹太教	-18376
痛苦和	-18377
的产生	-18378
的欲望	-18379
的药物	-18380
私有化	-18381
给人们	-18382
给别人	-18383
西方人	-18384
货物的	-18385
走进了	-18386
通常被	-18387
重金属	-18388
高兴地	-18389
▁同样地	-18390
他们应该	-18391
承担责任	-18392
把所有的	-18393
无能为力	-18394
有这样的	-18395
研究成果	-18396
可能是一个	-18397
小心翼翼地	-18398
意味着什么	-18399
拉斯维加斯	-18400
现实生活中	-18401
De	-18402
LD	-18403
XX	-18404
”?	-18405
▁万	-18406
▁离	-18407
不离	-18408
个小	-18409
之声	-18410
乌云	-18411
于世	-18412
伴奏	-18413
俘虏	-18414
全美	-18415
在每	-18416
复方	-18417
巫术	-18418
帐单	-18419
干达	-18420
并说	-18421
归来	-18422
房门	-18423
按揭	-18424
放开	-18425
斯德	-18426
斯洛	-18427
无虑	-18428
无误	-18429
最先	-18430
武汉	-18431
波纹	-18432
流淌	-18433
海藻	-18434
湿疹	-18435
濒危	-18436
牢骚	-18437
甲基	-18438
略带	-18439
的鱼	-18440
盈余	-18441
相爱	-18442
眼睑	-18443
绿的	-18444
缺氧	-18445
裁剪	-18446
赠送	-18447
起始	-18448
起见	-18449
路程	-18450
通的	-18451
遍及	-18452
那段	-18453
都应	-18454
铺设	-18455
阵阵	-18456
音速	-18457
高空	-18458
ler	-18459
▁与此	-18460
▁天气	-18461
▁家庭	-18462
▁政治	-18463
▁金属	-18464
上大学	-18465
不影响	-18466
不至于	-18467
不过了	-18468
了一声	-18469
五分钟	-18470
什叶派	-18471
作曲家	-18472
你的人	-18473
几年的	-18474
参与到	-18475
发挥了	-18476
女士们	-18477
巴塞罗	-18478
并要求	-18479
很显然	-18480
思想和	-18481
报纸上	-18482
某些人	-18483
棕色的	-18484
照片中	-18485
的类型	-18486
的细胞	-18487
的观察	-18488
自由和	-18489
自由地	-18490
论述了	-18491
适用的	-18492
那么您	-18493
马铃薯	-18494
▁这一次	-18495
了一口气	-18496
人的生活	-18497
人际关系	-18498
在地板上	-18499
如此多的	-18500
没有人会	-18501
社交网络	-18502
许多国家	-18503
马萨诸塞	-18504
一个简单的	-18505
其中的一个	-18506
我们就可以	-18507
自己的孩子	-18508
UV	-18509
▁范	-18510
上将	-18511
不值	-18512
估价	-18513
侦查	-18514
便可	-18515
关门	-18516
出汗	-18517
匕首	-18518
参见	-18519
可选	-18520
听得	-18521
听的	-18522
地处	-18523
坠落	-18524
堆栈	-18525
夜的	-18526
套件	-18527
寄宿	-18528
山东	-18529
峰值	-18530
帮她	-18531
并没	-18532
弟子	-18533
往上	-18534
微米	-18535
心动	-18536
态势	-18537
慈爱	-18538
我做	-18539
扎克	-18540
抛售	-18541
抢救	-18542
指明	-18543
换成	-18544
排练	-18545
掺杂	-18546
时段	-18547
森说	-18548
水槽	-18549
滚滚	-18550
灯具	-18551
爆米	-18552
相识	-18553
砂岩	-18554
破旧	-18555
艾尔	-18556
莫测	-18557
衣橱	-18558
西欧	-18559
费尔	-18560
赎回	-18561
转为	-18562
轻盈	-18563
退还	-18564
野牛	-18565
金银	-18566
隆起	-18567
ett	-18568
ith	-18569
▁允许	-18570
▁它在	-18571
▁实践	-18572
不会对	-18573
不完全	-18574
乒乓球	-18575
人行道	-18576
似乎都	-18577
公园里	-18578
剧作家	-18579
北京的	-18580
厌倦了	-18581
因为那	-18582
土壤中	-18583
士兵们	-18584
奠定了	-18585
她开始	-18586
她是个	-18587
将通过	-18588
岛上的	-18589
年轻时	-18590
恐惧和	-18591
我终于	-18592
或任何	-18593
房间的	-18594
拥有了	-18595
持怀疑	-18596
指出的	-18597
教授说	-18598
数十年	-18599
新方法	-18600
明显地	-18601
木乃伊	-18602
权利的	-18603
模式下	-18604
满足于	-18605
百老汇	-18606
的主权	-18607
的人工	-18608
的人是	-18609
的手指	-18610
的日期	-18611
的重视	-18612
绝望的	-18613
身体上	-18614
那你就	-18615
释放出	-18616
阻碍了	-18617
1994	-18618
Paul	-18619
▁从这个	-18620
▁很多人	-18621
▁我们也	-18622
▁我看到	-18623
▁这些人	-18624
一个朋友	-18625
一件事情	-18626
主导地位	-18627
以及一个	-18628
和我们的	-18629
州立大学	-18630
戏剧性的	-18631
我就可以	-18632
艾滋病毒	-18633
进行处理	-18634
那是因为	-18635
▁你可能会	-18636
▁这个问题	-18637
并不是一个	-18638
6.	-18639
At	-18640
PT	-18641
一线	-18642
丹佛	-18643
会和	-18644
但愿	-18645
加里	-18646
勃起	-18647
即逝	-18648
卷发	-18649
同居	-18650
向其	-18651
向北	-18652
周的	-18653
和反	-18654
墨尔	-18655
存货	-18656
守门	-18657
家属	-18658
尖端	-18659
岁了	-18660
师傅	-18661
年期	-18662
弗兰	-18663
德州	-18664
招牌	-18665
换热	-18666
摒弃	-18667
暴行	-18668
来电	-18669
柔毛	-18670
欧文	-18671
款待	-18672
毒蛇	-18673
气压	-18674
沙皇	-18675
火炉	-18676
的血	-18677
皮层	-18678
益的	-18679
矿产	-18680
约有	-18681
缩略	-18682
罗伊	-18683
耐久	-18684
腿部	-18685
花上	-18686
茶壶	-18687
蒙大	-18688
詹姆	-18689
路人	-18690
轻型	-18691
轻度	-18692
都想	-18693
采矿	-18694
闪亮	-18695
颠簸	-18696
马桶	-18697
驾驭	-18698
高出	-18699
黑兰	-18700
ama	-18701
ool	-18702
▁很难	-18703
一度的	-18704
丹尼尔	-18705
为一种	-18706
为您的	-18707
分析的	-18708
则认为	-18709
及其对	-18710
史蒂芬	-18711
在一天	-18712
大会上	-18713
将面临	-18714
并不想	-18715
我的手	-18716
戴安娜	-18717
所以在	-18718
支付的	-18719
无休止	-18720
既没有	-18721
是一些	-18722
是需要	-18723
有三个	-18724
氢氧化	-18725
物种的	-18726
猫头鹰	-18727
的元素	-18728
相比较	-18729
米歇尔	-18730
纽约的	-18731
能够从	-18732
自己对	-18733
规范化	-18734
语言学	-18735
跟我说	-18736
还发现	-18737
通过在	-18738
飞行的	-18739
Tran	-18740
roid	-18741
▁他们是	-18742
▁克林顿	-18743
▁美国人	-18744
一系列的	-18745
五分之一	-18746
其它国家	-18747
并不容易	-18748
方法就是	-18749
有可能会	-18750
直接影响	-18751
跨国公司	-18752
这么多的	-18753
随时准备	-18754
非常容易	-18755
▁举例来说	-18756
▁想象一下	-18757
一次又一次	-18758
有一段时间	-18759
没有足够的	-18760
Op	-18761
为生	-18762
之意	-18763
们说	-18764
传到	-18765
传球	-18766
余生	-18767
佣金	-18768
僧侣	-18769
势必	-18770
又说	-18771
咒语	-18772
唯物	-18773
喋喋	-18774
坠毁	-18775
城区	-18776
外层	-18777
大发	-18778
头条	-18779
宽广	-18780
富士	-18781
师父	-18782
干嘛	-18783
愿景	-18784
我与	-18785
我猜	-18786
我跟	-18787
或其	-18788
拨款	-18789
指派	-18790
据称	-18791
断开	-18792
无序	-18793
暴发	-18794
核对	-18795
棒了	-18796
楼的	-18797
次级	-18798
河道	-18799
游乐	-18800
漆黑	-18801
熟知	-18802
瓷器	-18803
生俱	-18804
白日	-18805
的船	-18806
粒度	-18807
纸币	-18808
纾困	-18809
网友	-18810
脱掉	-18811
航道	-18812
行情	-18813
要他	-18814
见识	-18815
转录	-18816
造纸	-18817
遮掩	-18818
门廊	-18819
阻滞	-18820
高估	-18821
▁创建	-18822
▁她把	-18823
▁想要	-18824
▁身为	-18825
▁飞机	-18826
一起在	-18827
中加入	-18828
他喜欢	-18829
令人惊	-18830
但仍然	-18831
你也许	-18832
即便是	-18833
口香糖	-18834
和环境	-18835
回家了	-18836
在一条	-18837
垃圾桶	-18838
如清单	-18839
季节性	-18840
市场中	-18841
年代的	-18842
忠实的	-18843
控制权	-18844
有好处	-18845
来表示	-18846
树林里	-18847
核心的	-18848
的好处	-18849
的电话	-18850
的资源	-18851
等优点	-18852
经常是	-18853
给大家	-18854
转折点	-18855
这一个	-18856
这些话	-18857
这似乎	-18858
隐藏的	-18859
▁共和党	-18860
▁在任何	-18861
▁我们从	-18862
▁我们对	-18863
产生一种	-18864
喋喋不休	-18865
在阿富汗	-18866
孩子们的	-18867
总有一天	-18868
挡风玻璃	-18869
波罗的海	-18870
研究小组	-18871
能够帮助	-18872
金融时报	-18873
▁另外一个	-18874
尽可能多的	-18875
建立了一个	-18876
生活在一个	-18877
的研究表明	-18878
▁吃	-18879
不败	-18880
串联	-18881
也更	-18882
亚瑟	-18883
以南	-18884
传授	-18885
伤寒	-18886
偏僻	-18887
做完	-18888
做着	-18889
关爱	-18890
分校	-18891
前台	-18892
即刻	-18893
却有	-18894
变质	-18895
向西	-18896
吵架	-18897
声的	-18898
大亨	-18899
威严	-18900
安逸	-18901
山姆	-18902
干洗	-18903
年人	-18904
异国	-18905
意在	-18906
感性	-18907
懒散	-18908
折断	-18909
拖车	-18910
是人	-18911
曾说	-18912
木制	-18913
格纳	-18914
次的	-18915
此处	-18916
泉水	-18917
独奏	-18918
玩弄	-18919
瓦特	-18920
用电	-18921
相伴	-18922
硫磺	-18923
租借	-18924
答道	-18925
篇章	-18926
网关	-18927
肉桂	-18928
荒诞	-18929
贾斯	-18930
跳蚤	-18931
遗漏	-18932
那座	-18933
里奇	-18934
长发	-18935
长老	-18936
风情	-18937
飞跃	-18938
饱满	-18939
骚动	-18940
unt	-18941
▁临床	-18942
▁好像	-18943
▁广告	-18944
》、《	-18945
不幸的	-18946
个例子	-18947
了新的	-18948
以任何	-18949
会觉得	-18950
共同点	-18951
努力地	-18952
发电厂	-18953
可视化	-18954
合格的	-18955
和英国	-18956
外星人	-18957
她的手	-18958
好奇心	-18959
子系统	-18960
对它的	-18961
弗雷德	-18962
慢慢的	-18963
打字机	-18964
排放量	-18965
新一代	-18966
服务于	-18967
沉迷于	-18968
浓密的	-18969
烤面包	-18970
爵士乐	-18971
生产中	-18972
的地面	-18973
的本质	-18974
的男孩	-18975
的那天	-18976
秘书长	-18977
细小的	-18978
说明书	-18979
说话时	-18980
调查局	-18981
这也许	-18982
遭受了	-18983
都会被	-18984
里尼奥	-18985
首先要	-18986
龙卷风	-18987
▁克里斯	-18988
▁在欧洲	-18989
世界各国	-18990
两个孩子	-18991
之处在于	-18992
因为它是	-18993
因为这是	-18994
她的眼睛	-18995
安全问题	-18996
或多或少	-18997
有价值的	-18998
看不见的	-18999
看见一个	-19000
继续下去	-19001
罪魁祸首	-19002
这种想法	-19003
高等教育	-19004
▁云	-19005
一束	-19006
与非	-19007
丰厚	-19008
乔丹	-19009
偏心	-19010
公义	-19011
刚从	-19012
劣势	-19013
勇于	-19014
勒冈	-19015
发自	-19016
受试	-19017
叫你	-19018
和前	-19019
咒骂	-19020
在多	-19021
存档	-19022
它却	-19023
幸好	-19024
应聘	-19025
弹头	-19026
很远	-19027
忧愁	-19028
慰藉	-19029
我再	-19030
拉着	-19031
掠过	-19032
探寻	-19033
旋风	-19034
旺盛	-19035
是它	-19036
最深	-19037
权衡	-19038
滋生	-19039
炼金	-19040
热内	-19041
照看	-19042
盟军	-19043
站的	-19044
第八	-19045
纠结	-19046
网民	-19047
老龄	-19048
药店	-19049
菠萝	-19050
螃蟹	-19051
贴上	-19052
赖以	-19053
逆境	-19054
遗失	-19055
那件	-19056
金矿	-19057
针灸	-19058
铺平	-19059
Tom	-19060
▁亨利	-19061
▁克莱	-19062
▁女孩	-19063
▁我真	-19064
▁离开	-19065
▁迈克	-19066
一生中	-19067
下个月	-19068
不耐烦	-19069
专门的	-19070
中扮演	-19071
丰厚的	-19072
了它的	-19073
人口的	-19074
他非常	-19075
保守的	-19076
保证了	-19077
关心的	-19078
决定在	-19079
却发现	-19080
反应的	-19081
发表在	-19082
可观的	-19083
在国内	-19084
地上的	-19085
坚强的	-19086
季后赛	-19087
孤儿院	-19088
就是说	-19089
常常被	-19090
我的话	-19091
我说的	-19092
把所有	-19093
文学的	-19094
斯巴达	-19095
是否在	-19096
是根据	-19097
是用于	-19098
晶体管	-19099
有理由	-19100
来获得	-19101
杰拉德	-19102
案例中	-19103
温柔的	-19104
爆米花	-19105
生活和	-19106
的一处	-19107
的专业	-19108
的性质	-19109
的食品	-19110
算法的	-19111
红细胞	-19112
给了她	-19113
而他的	-19114
萨科齐	-19115
见到了	-19116
谈到了	-19117
还有些	-19118
配置的	-19119
领事馆	-19120
马上就	-19121
Bank	-19122
▁他知道	-19123
▁可以说	-19124
不可能的	-19125
你的朋友	-19126
俄罗斯的	-19127
冠状动脉	-19128
另一个人	-19129
可以根据	-19130
和其他的	-19131
布鲁塞尔	-19132
建设性的	-19133
无法忍受	-19134
普林斯顿	-19135
更进一步	-19136
某个地方	-19137
玻璃纤维	-19138
种族歧视	-19139
长久以来	-19140
长的时间	-19141
问题之一	-19142
集中精力	-19143
▁在我们的	-19144
▁我们应该	-19145
任何形式的	-19146
回家的路上	-19147
更重要的是	-19148
63	-19149
Bu	-19150
▁油	-19151
▁甘	-19152
严密	-19153
似地	-19154
光顾	-19155
凯蒂	-19156
医保	-19157
卖淫	-19158
发怒	-19159
可言	-19160
叶绿	-19161
合一	-19162
和人	-19163
哈德	-19164
塔基	-19165
失真	-19166
女巫	-19167
学问	-19168
并让	-19169
得主	-19170
惯性	-19171
慎重	-19172
或用	-19173
才智	-19174
收据	-19175
映像	-19176
果园	-19177
果子	-19178
次序	-19179
汲取	-19180
熟的	-19181
留住	-19182
病患	-19183
真人	-19184
着火	-19185
福建	-19186
空心	-19187
等你	-19188
粘性	-19189
细细	-19190
绰号	-19191
缩水	-19192
羊皮	-19193
翻转	-19194
耀眼	-19195
融洽	-19196
要说	-19197
言自	-19198
谁会	-19199
调情	-19200
路德	-19201
追捕	-19202
送进	-19203
通路	-19204
阻挠	-19205
随心	-19206
马利	-19207
麻雀	-19208
enn	-19209
ite	-19210
▁动物	-19211
▁国会	-19212
▁当今	-19213
▁描述	-19214
▁清单	-19215
▁类似	-19216
▁身体	-19217
休斯顿	-19218
优质的	-19219
允许我	-19220
全球性	-19221
出水面	-19222
剂量的	-19223
努力去	-19224
压力和	-19225
在一场	-19226
在日本	-19227
学习和	-19228
宇航局	-19229
将会有	-19230
就一直	-19231
布拉斯	-19232
平静的	-19233
引用的	-19234
所以她	-19235
才开始	-19236
拥护者	-19237
是一门	-19238
显得很	-19239
显然是	-19240
智慧的	-19241
某一天	-19242
治疗师	-19243
温哥华	-19244
游戏的	-19245
的头发	-19246
的资料	-19247
着一种	-19248
科学和	-19249
第一批	-19250
缺陷的	-19251
能有效	-19252
计算的	-19253
让这个	-19254
运动鞋	-19255
那么它	-19256
那些被	-19257
集中营	-19258
预期的	-19259
食品的	-19260
产生一个	-19261
从而导致	-19262
他们希望	-19263
但是它们	-19264
使用的是	-19265
内心深处	-19266
化合物的	-19267
卡罗来纳	-19268
即将来临	-19269
庆祝活动	-19270
性别歧视	-19271
慈善事业	-19272
数据类型	-19273
最喜爱的	-19274
犹太人的	-19275
生命中的	-19276
知识分子	-19277
▁你也可以	-19278
斯堪的纳维亚	-19279
RO	-19280
▁土	-19281
不做	-19282
严寒	-19283
任性	-19284
伍兹	-19285
低落	-19286
你很	-19287
供水	-19288
便捷	-19289
公益	-19290
六年	-19291
几句	-19292
出水	-19293
分担	-19294
博弈	-19295
变幻	-19296
台词	-19297
同龄	-19298
吸气	-19299
命的	-19300
回路	-19301
孙女	-19302
就餐	-19303
幼年	-19304
强健	-19305
形体	-19306
得住	-19307
惠特	-19308
成群	-19309
打得	-19310
扫帚	-19311
扭矩	-19312
斗牛	-19313
方舟	-19314
晃晃	-19315
木马	-19316
本领	-19317
术中	-19318
案的	-19319
每桶	-19320
水力	-19321
汉字	-19322
注明	-19323
涡流	-19324
液化	-19325
狂风	-19326
田间	-19327
甲壳	-19328
眩晕	-19329
穿著	-19330
端点	-19331
笔直	-19332
素养	-19333
编排	-19334
罗恩	-19335
聚糖	-19336
脚石	-19337
行之	-19338
追究	-19339
逃亡	-19340
遥感	-19341
配料	-19342
音量	-19343
鸿沟	-19344
麋鹿	-19345
▁公共	-19346
▁大概	-19347
▁快速	-19348
▁无法	-19349
▁等到	-19350
他们又	-19351
他应该	-19352
他说话	-19353
代理商	-19354
会看到	-19355
你不是	-19356
使我的	-19357
俄勒冈	-19358
古怪的	-19359
另一端	-19360
命名的	-19361
回答道	-19362
在上海	-19363
奇异的	-19364
如果她	-19365
宇宙中	-19366
密尔顿	-19367
就成为	-19368
就足以	-19369
崇高的	-19370
工作是	-19371
巴拿马	-19372
强调了	-19373
想一想	-19374
所处的	-19375
抗病毒	-19376
无条件	-19377
球队的	-19378
的一步	-19379
的内在	-19380
的含义	-19381
破旧的	-19382
维他命	-19383
被指控	-19384
走过去	-19385
还记得	-19386
非正式	-19387
▁就这样	-19388
▁有人说	-19389
为我们的	-19390
保持沉默	-19391
我们不会	-19392
留下来的	-19393
精神上的	-19394
让人觉得	-19395
日常生活中	-19396
的应用程序	-19397
Office	-19398
5.	-19399
ee	-19400
一排	-19401
不怕	-19402
之门	-19403
乳化	-19404
从其	-19405
们会	-19406
体质	-19407
使馆	-19408
例证	-19409
分级	-19410
刚性	-19411
力求	-19412
动用	-19413
化肥	-19414
单单	-19415
后门	-19416
呼喊	-19417
和白	-19418
在北	-19419
在圣	-19420
她却	-19421
定罪	-19422
就更	-19423
应激	-19424
您能	-19425
惰性	-19426
战利	-19427
手柄	-19428
扩充	-19429
抒情	-19430
播出	-19431
族群	-19432
时有	-19433
朗读	-19434
期权	-19435
梅尔	-19436
棉布	-19437
椰菜	-19438
欢笑	-19439
流言	-19440
漏斗	-19441
热电	-19442
煤灰	-19443
牙科	-19444
牧草	-19445
病态	-19446
盛宴	-19447
看门	-19448
稀有	-19449
笼子	-19450
紧随	-19451
纯正	-19452
纱线	-19453
耐火	-19454
胆囊	-19455
茫茫	-19456
蜂拥	-19457
蟾蜍	-19458
要不	-19459
议论	-19460
说说	-19461
调研	-19462
象是	-19463
赛场	-19464
赶走	-19465
超重	-19466
铰链	-19467
锤子	-19468
零零	-19469
黯淡	-19470
0.0	-19471
Dom	-19472
Har	-19473
ust	-19474
▁在其	-19475
▁坚持	-19476
▁没人	-19477
▁瑞士	-19478
不过我	-19479
他看到	-19480
但不能	-19481
体会到	-19482
内华达	-19483
到达了	-19484
剧烈的	-19485
包括在	-19486
和人类	-19487
因素是	-19488
在一旁	-19489
在今天	-19490
墨尔本	-19491
大脑中	-19492
天然的	-19493
对其他	-19494
对应的	-19495
小册子	-19496
展现出	-19497
并获得	-19498
持有的	-19499
数据和	-19500
满意度	-19501
玛丽亚	-19502
田纳西	-19503
的军队	-19504
的石油	-19505
的背景	-19506
的自我	-19507
着眼睛	-19508
继续在	-19509
节点的	-19510
萨达姆	-19511
训练的	-19512
请注意	-19513
调查中	-19514
运动中	-19515
连衣裙	-19516
里兰卡	-19517
▁如果它	-19518
▁这一点	-19519
下定决心	-19520
亚美尼亚	-19521
令人信服	-19522
值得注意	-19523
可能就是	-19524
很容易被	-19525
我们可能	-19526
新奥尔良	-19527
是一个很	-19528
毁灭性的	-19529
激进分子	-19530
让人感到	-19531
调查结果	-19532
这个方法	-19533
这段时间	-19534
加利福尼亚州	-19535
.)	-19536
9.	-19537
▁恩	-19538
▁石	-19539
▁龙	-19540
。"	-19541
一击	-19542
一脸	-19543
上月	-19544
乳液	-19545
二级	-19546
伽利	-19547
供货	-19548
公鸡	-19549
再到	-19550
冬眠	-19551
加纳	-19552
千里	-19553
博览	-19554
吃到	-19555
和那	-19556
和黑	-19557
品位	-19558
嗓子	-19559
大麦	-19560
山西	-19561
并由	-19562
开裂	-19563
恍惚	-19564
放宽	-19565
敲击	-19566
新奇	-19567
无味	-19568
无毛	-19569
是让	-19570
末期	-19571
来往	-19572
柱子	-19573
检疫	-19574
椰子	-19575
歌迷	-19576
水印	-19577
水滴	-19578
水解	-19579
波利	-19580
源源	-19581
热线	-19582
甜菜	-19583
百度	-19584
置评	-19585
膜的	-19586
芦苇	-19587
花样	-19588
苔藓	-19589
蒂姆	-19590
蝗虫	-19591
记下	-19592
该行	-19593
谐振	-19594
贮存	-19595
轻声	-19596
边坡	-19597
选区	-19598
都用	-19599
间盘	-19600
阴沉	-19601
韵律	-19602
飞的	-19603
▁好了	-19604
一起来	-19605
也只是	-19606
也随之	-19607
仅次于	-19608
从她的	-19609
以达到	-19610
促进了	-19611
保龄球	-19612
利用率	-19613
十年来	-19614
可分为	-19615
向美国	-19616
和动物	-19617
和国际	-19618
回想起	-19619
在两个	-19620
在进行	-19621
威胁到	-19622
安东尼	-19623
安德森	-19624
完成后	-19625
实质上	-19626
对你们	-19627
彻斯特	-19628
得多的	-19629
您必须	-19630
损失的	-19631
接近于	-19632
控制台	-19633
有一座	-19634
期间的	-19635
沃尔特	-19636
洗衣机	-19637
清晰地	-19638
演唱会	-19639
生动的	-19640
生存的	-19641
的一套	-19642
的举动	-19643
的表达	-19644
的设备	-19645
的首要	-19646
目录中	-19647
看电影	-19648
站起身	-19649
精彩的	-19650
纪念日	-19651
联盟的	-19652
能够将	-19653
能够被	-19654
螺旋桨	-19655
让这些	-19656
路透社	-19657
▁我只是	-19658
为什么会	-19659
也有一些	-19660
五角大楼	-19661
什么也没	-19662
十九世纪	-19663
发现一个	-19664
可以直接	-19665
可以进行	-19666
市场营销	-19667
并不一定	-19668
应用价值	-19669
我们一起	-19670
救援人员	-19671
有可能是	-19672
淋巴细胞	-19673
自然资源	-19674
超级大国	-19675
这个数字	-19676
那么你就	-19677
闪闪发光	-19678
几乎所有的	-19679
各种不同的	-19680
多大程度上	-19681
我从来没有	-19682
而不是一个	-19683
,2	-19684
-,	-19685
72	-19686
CH	-19687
▁初	-19688
▁查	-19689
一世	-19690
一角	-19691
亲身	-19692
任一	-19693
何等	-19694
准许	-19695
向右	-19696
和中	-19697
和尚	-19698
地问	-19699
大风	-19700
宛如	-19701
实相	-19702
对角	-19703
已故	-19704
废话	-19705
开出	-19706
往后	-19707
心怀	-19708
恩惠	-19709
或作	-19710
接吻	-19711
握着	-19712
放牧	-19713
是位	-19714
普顿	-19715
暗中	-19716
更易	-19717
模态	-19718
歉意	-19719
水肿	-19720
洲际	-19721
流利	-19722
流露	-19723
海马	-19724
火烧	-19725
率为	-19726
盾牌	-19727
缔约	-19728
羔羊	-19729
肉食	-19730
自已	-19731
芹菜	-19732
萦绕	-19733
褪色	-19734
西安	-19735
误会	-19736
说要	-19737
面带	-19738
预付	-19739
鼹鼠	-19740
,19	-19741
ose	-19742
▁二是	-19743
▁从而	-19744
▁台湾	-19745
▁尤其	-19746
▁我所	-19747
▁理想	-19748
▁站在	-19749
一只小	-19750
中含有	-19751
中国对	-19752
也正在	-19753
于是他	-19754
他的脸	-19755
但不会	-19756
允许你	-19757
农场主	-19758
制片人	-19759
发生后	-19760
可使用	-19761
命运的	-19762
和谐的	-19763
因素的	-19764
在街上	-19765
埃及的	-19766
多样的	-19767
大家的	-19768
天鹅绒	-19769
完美无	-19770
对照组	-19771
布莱恩	-19772
很有用	-19773
必须与	-19774
战场上	-19775
接着说	-19776
救世主	-19777
数学家	-19778
是很难	-19779
晚上的	-19780
曾经的	-19781
有时间	-19782
正努力	-19783
滤波器	-19784
激动的	-19785
热内卢	-19786
的阳光	-19787
相对应	-19788
看见他	-19789
经营者	-19790
贫穷的	-19791
起重机	-19792
运动会	-19793
运算符	-19794
这个新	-19795
这将会	-19796
页面的	-19797
▁在那些	-19798
▁现在的	-19799
▁而现在	-19800
为他们的	-19801
其它地方	-19802
决定性的	-19803
半个小时	-19804
因为我的	-19805
如何处理	-19806
如果有人	-19807
它自己的	-19808
对于我们	-19809
工作岗位	-19810
希望通过	-19811
当地居民	-19812
很有意思	-19813
政治上的	-19814
歇斯底里	-19815
科学研究	-19816
让我们的	-19817
这个原因	-19818
具有较好的	-19819
至少有一个	-19820
-5	-19821
88	-19822
Gr	-19823
▁拿	-19824
万亿	-19825
不忠	-19826
了三	-19827
五彩	-19828
人意	-19829
兴高	-19830
卵形	-19831
又一	-19832
发疯	-19833
叫她	-19834
同心	-19835
回旋	-19836
地是	-19837
多人	-19838
夜空	-19839
姆林	-19840
宫廷	-19841
对吧	-19842
常数	-19843
库中	-19844
强国	-19845
得救	-19846
微风	-19847
德语	-19848
总要	-19849
手头	-19850
抖动	-19851
抚慰	-19852
拐角	-19853
斗士	-19854
斧头	-19855
楼下	-19856
欧亚	-19857
正交	-19858
正从	-19859
正视	-19860
毛毯	-19861
气道	-19862
水瓶	-19863
河上	-19864
泡泡	-19865
满满	-19866
狂喜	-19867
猖獗	-19868
相撞	-19869
瞌睡	-19870
索尔	-19871
胶原	-19872
茫然	-19873
见他	-19874
规程	-19875
诺亚	-19876
调料	-19877
车身	-19878
软管	-19879
较量	-19880
过热	-19881
里德	-19882
金森	-19883
预知	-19884
风度	-19885
飞轮	-19886
黄酮	-19887
iew	-19888
pro	-19889
▁与其	-19890
▁他曾	-19891
▁在与	-19892
▁男孩	-19893
▁真正	-19894
▁联邦	-19895
不在于	-19896
不支持	-19897
严重性	-19898
中看到	-19899
为代价	-19900
也只能	-19901
了一起	-19902
他们从	-19903
会感到	-19904
你的手	-19905
保持了	-19906
公务员	-19907
关联的	-19908
军队的	-19909
决定要	-19910
几年来	-19911
分之三	-19912
加剧了	-19913
只知道	-19914
和维护	-19915
堪萨斯	-19916
外交部	-19917
嫌疑人	-19918
很困难	-19919
我以前	-19920
或更多	-19921
拥挤的	-19922
排行榜	-19923
教学中	-19924
方式是	-19925
星期日	-19926
是比较	-19927
更强的	-19928
最近在	-19929
来代替	-19930
来保护	-19931
来提高	-19932
概念的	-19933
此方法	-19934
永远是	-19935
海洛因	-19936
激起了	-19937
狠狠地	-19938
用我的	-19939
电子书	-19940
的场景	-19941
的心理	-19942
的热带	-19943
看成是	-19944
第二大	-19945
系统是	-19946
耶稣的	-19947
规律的	-19948
记者的	-19949
诺基亚	-19950
这笔钱	-19951
食用的	-19952
▁过去的	-19953
不好意思	-19954
不寻常的	-19955
众所周知	-19956
另外一种	-19957
可以肯定	-19958
国有企业	-19959
坚定不移	-19960
她是一个	-19961
寻求帮助	-19962
少数几个	-19963
层次结构	-19964
现实意义	-19965
百万富翁	-19966
的大规模	-19967
简直就是	-19968
苏格拉底	-19969
都是为了	-19970
阿拉巴马	-19971
非常简单	-19972
Manag	-19973
▁如果你能	-19974
▁这种情况	-19975
了一个新的	-19976
每一个人都	-19977
4%	-19978
41	-19979
:,	-19980
Te	-19981
▁七	-19982
▁雨	-19983
不挠	-19984
亚述	-19985
介于	-19986
优异	-19987
你都	-19988
侏儒	-19989
俚语	-19990
修斯	-19991
借钱	-19992
储层	-19993
内向	-19994
前就	-19995
印有	-19996
吃着	-19997
周到	-19998
和爱	-19999
品格	-20000
在各	-20001
在无	-20002
地盘	-20003
基底	-20004
增生	-20005
大步	-20006
巢穴	-20007
工商	-20008
巴尼	-20009
并于	-20010
径直	-20011
得要	-20012
我这	-20013
投篮	-20014
挣钱	-20015
接手	-20016
推论	-20017
搬迁	-20018
撤军	-20019
数个	-20020
斯堡	-20021
旗下	-20022
有可	-20023
有条	-20024
朱莉	-20025
来吧	-20026
欢欣	-20027
水泵	-20028
油井	-20029
溶于	-20030
烟花	-20031
狂暴	-20032
结识	-20033
绿茶	-20034
缝合	-20035
缤纷	-20036
羊羔	-20037
而未	-20038
耐磨	-20039
花果	-20040
血小	-20041
观望	-20042
言行	-20043
该值	-20044
贵宾	-20045
起舞	-20046
轮机	-20047
这使	-20048
送上	-20049
重演	-20050
钢笔	-20051
钻孔	-20052
难于	-20053
顾虑	-20054
麦芽	-20055
,20	-20056
ker	-20057
lin	-20058
▁人的	-20059
▁偶尔	-20060
▁环境	-20061
▁软件	-20062
不久的	-20063
中存在	-20064
了一天	-20065
了几个	-20066
但同时	-20067
农民工	-20068
几百万	-20069
利用了	-20070
制定了	-20071
办公桌	-20072
单纯的	-20073
和保护	-20074
太大的	-20075
奴隶制	-20076
她可以	-20077
应用的	-20078
您应该	-20079
战利品	-20080
才能够	-20081
把那些	-20082
持续性	-20083
斯科尼	-20084
最小化	-20085
极高的	-20086
消息的	-20087
满足感	-20088
的优点	-20089
的内部	-20090
的最低	-20091
目标和	-20092
程序中	-20093
类固醇	-20094
精确地	-20095
组件的	-20096
给出的	-20097
自由基	-20098
苍白的	-20099
视而不	-20100
让一个	-20101
该项目	-20102
负面的	-20103
责任心	-20104
起居室	-20105
超自然	-20106
还可能	-20107
马拉雅	-20108
able	-20109
▁另一位	-20110
▁并不是	-20111
▁有一些	-20112
▁民主党	-20113
▁理论上	-20114
世界银行	-20115
事实证明	-20116
什么都不	-20117
但我认为	-20118
可以降低	-20119
团队合作	-20120
在不同的	-20121
处理方法	-20122
威廉姆斯	-20123
已经不再	-20124
希望自己	-20125
思维方式	-20126
我们开始	-20127
提出一个	-20128
最主要的	-20129
没有理由	-20130
电子产品	-20131
等离子体	-20132
计算机上	-20133
那个时代	-20134
▁可以使用	-20135
可持续发展	-20136
对我们来说	-20137
自己的生活	-20138
DS	-20139
EA	-20140
▁男	-20141
▁脑	-20142
一职	-20143
不孕	-20144
主帅	-20145
义齿	-20146
之家	-20147
乎乎	-20148
他到	-20149
低音	-20150
你却	-20151
先天	-20152
兴旺	-20153
冲向	-20154
决不	-20155
出众	-20156
出境	-20157
出资	-20158
勋爵	-20159
华人	-20160
[...]
