<pad>	0
<unk>	0
<s>	0
</s>	0
▁t	-0
▁a	-1
he	-2
in	-3
▁the	-4
▁o	-5
▁s	-6
re	-7
▁w	-8
er	-9
on	-10
▁c	-11
at	-12
▁b	-13
en	-14
it	-15
is	-16
▁f	-17
an	-18
▁p	-19
▁m	-20
ou	-21
▁an	-22
▁of	-23
or	-24
es	-25
▁to	-26
ing	-27
ed	-28
▁in	-29
al	-30
▁d	-31
▁h	-32
ar	-33
▁and	-34
ic	-35
le	-36
▁th	-37
as	-38
ion	-39
om	-40
▁n	-41
▁l	-42
▁e	-43
▁be	-44
ent	-45
▁re	-46
ll	-47
ve	-48
ro	-49
▁g	-50
st	-51
ly	-52
ct	-53
▁y	-54
ut	-55
▁is	-56
ot	-57
▁he	-58
id	-59
▁on	-60
▁u	-61
et	-62
im	-63
▁'	-64
▁it	-65
▁you	-66
ow	-67
▁for	-68
ce	-69
▁st	-70
ad	-71
se	-72
ld	-73
▁that	-74
ig	-75
ay	-76
ver	-77
ation	-78
ur	-79
▁I	-80
ch	-81
ith	-82
▁with	-83
if	-84
ir	-85
▁as	-86
ra	-87
▁"	-88
▁we	-89
▁@	-90
-@	-91
▁@-@	-92
▁wh	-93
am	-94
ol	-95
il	-96
▁con	-97
ul	-98
ter	-99
od	-100
▁was	-101
▁de	-102
ke	-103
▁se	-104
▁pro	-105
ill	-106
her	-107
ge	-108
▁not	-109
ate	-110
ess	-111
▁ha	-112
▁r	-113
▁or	-114
▁com	-115
▁at	-116
▁C	-117
nd	-118
▁are	-119
▁sh	-120
igh	-121
▁S	-122
▁su	-123
op	-124
ore	-125
ment	-126
▁ex	-127
▁ne	-128
ac	-129
ers	-130
▁fr	-131
and	-132
▁this	-133
us	-134
est	-135
ist	-136
ble	-137
pp	-138
▁but	-139
ould	-140
ive	-141
ity	-142
ant	-143
qu	-144
▁v	-145
ect	-146
ain	-147
em	-148
th	-149
ure	-150
um	-151
▁al	-152
▁ch	-153
▁have	-154
ri	-155
▁M	-156
▁by	-157
▁his	-158
ight	-159
▁le	-160
os	-161
▁can	-162
nt	-163
▁A	-164
▁sp	-165
ust	-166
▁so	-167
▁me	-168
▁from	-169
all	-170
art	-171
▁do	-172
ort	-173
gh	-174
▁whe	-175
el	-176
res	-177
end	-178
un	-179
▁wor	-180
ome	-181
▁go	-182
▁lo	-183
▁sa	-184
▁k	-185
▁int	-186
▁all	-187
▁li	-188
ard	-189
ast	-190
ap	-191
ous	-192
ial	-193
▁j	-194
▁they	-195
▁will	-196
▁your	-197
▁pl	-198
ies	-199
▁out	-200
▁one	-201
red	-202
▁P	-203
▁if	-204
ough	-205
▁tr	-206
ong	-207
▁has	-208
▁comp	-209
▁up	-210
▁B	-211
▁us	-212
ud	-213
▁ab	-214
ie	-215
▁T	-216
out	-217
ine	-218
iv	-219
ide	-220
ak	-221
▁im	-222
ical	-223
ff	-224
▁man	-225
ag	-226
ok	-227
ear	-228
▁her	-229
ound	-230
pt	-231
▁un	-232
▁en	-233
our	-234
ther	-235
per	-236
▁cl	-237
ind	-238
age	-239
ost	-240
▁my	-241
▁ar	-242
ab	-243
▁she	-244
ck	-245
▁had	-246
▁G	-247
ip	-248
ack	-249
ich	-250
▁when	-251
one	-252
▁ad	-253
▁cont	-254
▁dis	-255
iz	-256
able	-257
ake	-258
▁res	-259
▁there	-260
ice	-261
▁said	-262
very	-263
act	-264
▁D	-265
▁te	-266
ry	-267
▁more	-268
▁H	-269
▁their	-270
ans	-271
▁would	-272
▁fe	-273
ime	-274
og	-275
▁ac	-276
▁L	-277
▁no	-278
▁E	-279
ance	-280
▁like	-281
ult	-282
▁R	-283
ace	-284
ally	-285
▁its	-286
ated	-287
▁which	-288
▁some	-289
pl	-290
▁ev	-291
▁app	-292
▁who	-293
ays	-294
▁W	-295
du	-296
are	-297
▁were	-298
▁Ch	-299
so	-300
ign	-301
▁pe	-302
ction	-303
▁into	-304
▁qu	-305
au	-306
ue	-307
▁F	-308
▁co	-309
ang	-310
▁kn	-311
ater	-312
▁ro	-313
ass	-314
ame	-315
▁sc	-316
orm	-317
▁been	-318
▁other	-319
▁how	-320
ence	-321
▁ag	-322
ress	-323
ach	-324
▁him	-325
▁time	-326
ep	-327
ary	-328
ition	-329
ite	-330
ru	-331
▁imp	-332
▁per	-333
▁over	-334
▁fl	-335
▁bec	-336
reat	-337
ire	-338
▁part	-339
▁about	-340
own	-341
▁year	-342
▁J	-343
▁N	-344
ile	-345
ish	-346
vel	-347
▁what	-348
▁off	-349
ase	-350
▁pr	-351
▁them	-352
▁work	-353
▁bl	-354
ount	-355
▁also	-356
▁inc	-357
ose	-358
▁any	-359
ere	-360
av	-361
ark	-362
ia	-363
▁1	-364
▁than	-365
ink	-366
▁new	-367
ec	-368
▁-	-369
▁sy	-370
ople	-371
ree	-372
▁af	-373
▁)	-374
▁pre	-375
▁(	-376
▁gr	-377
▁people	-378
ild	-379
▁tw	-380
ations	-381
ber	-382
▁po	-383
▁may	-384
ens	-385
ick	-386
wn	-387
▁U	-388
▁am	-389
ade	-390
ood	-391
▁our	-392
▁only	-393
▁des	-394
▁just	-395
ond	-396
▁could	-397
cess	-398
mer	-399
itt	-400
ious	-401
▁bo	-402
▁und	-403
int	-404
▁after	-405
ings	-406
ub	-407
lic	-408
ory	-409
▁ind	-410
▁see	-411
ors	-412
ions	-413
ife	-414
eth	-415
▁rec	-416
form	-417
we	-418
urn	-419
ise	-420
ause	-421
lf	-422
▁fir	-423
▁O	-424
ord	-425
▁get	-426
ject	-427
▁bet	-428
▁sm	-429
ient	-430
▁then	-431
▁under	-432
▁Chin	-433
▁ob	-434
▁these	-435
▁two	-436
rough	-437
hed	-438
▁most	-439
▁now	-440
▁ra	-441
ail	-442
iff	-443
▁mo	-444
▁should	-445
▁even	-446
▁look	-447
▁know	-448
stem	-449
▁eff	-450
oc	-451
▁exp	-452
▁ser	-453
▁mu	-454
▁cons	-455
▁rel	-456
ren	-457
row	-458
ved	-459
te	-460
ian	-461
▁rep	-462
▁long	-463
tern	-464
▁every	-465
ft	-466
▁used	-467
▁back	-468
ces	-469
▁good	-470
erm	-471
▁att	-472
▁comm	-473
ib	-474
▁inv	-475
▁system	-476
▁2	-477
▁bu	-478
▁first	-479
▁tra	-480
▁need	-481
▁dec	-482
ving	-483
ph	-484
▁make	-485
▁very	-486
ual	-487
fore	-488
ates	-489
▁much	-490
other	-491
▁acc	-492
▁em	-493
olog	-494
▁produ	-495
▁rem	-496
▁br	-497
ied	-498
ful	-499
▁many	-500
▁through	-501
▁car	-502
▁act	-503
▁ph	-504
▁K	-505
ility	-506
▁diff	-507
lect	-508
▁sur	-509
▁down	-510
xt	-511
▁well	-512
▁did	-513
ict	-514
ning	-515
▁use	-516
▁such	-517
ull	-518
ell	-519
▁life	-520
ower	-521
▁stud	-522
les	-523
ness	-524
ob	-525
▁because	-526
ced	-527
..	-528
▁want	-529
ily	-530
ific	-531
ating	-532
vers	-533
ents	-534
▁str	-535
▁sl	-536
▁way	-537
▁col	-538
rit	-539
oss	-540
ank	-541
▁pol	-542
▁think	-543
ys	-544
ons	-545
▁mod	-546
▁world	-547
▁hand	-548
▁reg	-549
▁hel	-550
ath	-551
ible	-552
▁gen	-553
▁ke	-554
ert	-555
▁gl	-556
ves	-557
▁high	-558
oth	-559
ular	-560
▁years	-561
▁sub	-562
cy	-563
ange	-564
▁sec	-565
ments	-566
pe	-567
▁call	-568
▁though	-569
iss	-570
ative	-571
ract	-572
00	-573
▁pers	-574
▁fo	-575
▁own	-576
▁again	-577
▁day	-578
con	-579
▁St	-580
▁help	-581
▁form	-582
self	-583
▁ear	-584
▁made	-585
ng	-586
velop	-587
ism	-588
oy	-589
▁count	-590
ics	-591
ple	-592
▁ent	-593
▁trans	-594
▁end	-595
▁inf	-596
ather	-597
▁set	-598
ward	-599
▁compan	-600
hes	-601
▁take	-602
▁add	-603
way	-604
▁sim	-605
▁say	-606
▁before	-607
▁ins	-608
alk	-609
▁inst	-610
▁where	-611
▁water	-612
▁pres	-613
▁still	-614
ident	-615
▁spec	-616
get	-617
▁supp	-618
iness	-619
ying	-620
▁mark	-621
aw	-622
▁fin	-623
▁mon	-624
ween	-625
▁develop	-626
ature	-627
ational	-628
▁child	-629
ten	-630
ually	-631
cept	-632
▁right	-633
▁between	-634
▁disc	-635
▁seem	-636
uring	-637
ave	-638
▁bel	-639
▁effect	-640
ram	-641
▁show	-642
▁def	-643
▁must	-644
ittle	-645
ew	-646
▁sk	-647
▁don	-648
gg	-649
ize	-650
▁China	-651
▁cor	-652
▁det	-653
▁inter	-654
▁result	-655
ting	-656
arm	-657
ities	-658
ese	-659
▁might	-660
air	-661
ock	-662
▁Mr	-663
gan	-664
▁ref	-665
rib	-666
▁che	-667
ric	-668
▁while	-669
▁those	-670
ody	-671
▁great	-672
▁each	-673
▁let	-674
als	-675
▁little	-676
aking	-677
▁prov	-678
▁few	-679
ution	-680
old	-681
▁bus	-682
▁Y	-683
▁V	-684
▁som	-685
▁being	-686
ty	-687
ever	-688
▁differe	-689
▁hum	-690
▁ext	-691
▁does	-692
less	-693
▁found	-694
conom	-695
ited	-696
▁bas	-697
▁cur	-698
cial	-699
▁conc	-700
▁read	-701
▁ret	-702
▁feel	-703
▁op	-704
ros	-705
ek	-706
led	-707
▁exper	-708
ts	-709
▁conf	-710
▁real	-711
▁econom	-712
▁person	-713
▁wom	-714
▁old	-715
day	-716
ethod	-717
iet	-718
lud	-719
▁char	-720
▁cle	-721
▁val	-722
▁dep	-723
its	-724
li	-725
▁sign	-726
▁put	-727
▁gu	-728
hip	-729
▁too	-730
▁small	-731
▁cap	-732
ouse	-733
▁fact	-734
chn	-735
read	-736
▁gener	-737
▁point	-738
ways	-739
▁last	-740
▁head	-741
meric	-742
▁min	-743
▁Americ	-744
▁mat	-745
▁contro	-746
▁cr	-747
▁import	-748
vern	-749
▁process	-750
▁play	-751
▁turn	-752
▁resp	-753
▁method	-754
▁fam	-755
und	-756
▁eas	-757
ince	-758
▁pat	-759
▁around	-760
▁ass	-761
ner	-762
▁main	-763
▁market	-764
▁lar	-765
▁find	-766
▁next	-767
blem	-768
ash	-769
▁aut	-770
arch	-771
▁company	-772
▁dist	-773
ont	-774
▁cent	-775
iew	-776
▁often	-777
▁however	-778
▁start	-779
▁never	-780
▁another	-781
imes	-782
▁num	-783
▁always	-784
▁ask	-785
▁ty	-786
ale	-787
▁design	-788
ork	-789
▁problem	-790
ax	-791
ix	-792
ense	-793
ures	-794
ists	-795
▁fore	-796
▁techn	-797
▁says	-798
▁air	-799
▁med	-800
▁cre	-801
akes	-802
▁run	-803
▁requ	-804
land	-805
▁without	-806
▁dat	-807
ology	-808
▁come	-809
▁able	-810
▁love	-811
▁spe	-812
▁happ	-813
ically	-814
ool	-815
▁power	-816
ural	-817
▁during	-818
ience	-819
uc	-820
▁pub	-821
▁ey	-822
▁bro	-823
▁includ	-824
▁week	-825
oup	-826
ute	-827
▁light	-828
ared	-829
▁lead	-830
▁govern	-831
▁art	-832
▁hard	-833
▁Un	-834
▁both	-835
▁business	-836
▁state	-837
▁sol	-838
ven	-839
ruct	-840
▁different	-841
gy	-842
ined	-843
▁open	-844
ered	-845
▁rese	-846
▁home	-847
ern	-848
ices	-849
▁heart	-850
ield	-851
▁here	-852
ality	-853
▁stand	-854
▁going	-855
▁place	-856
alth	-857
▁test	-858
▁plan	-859
ars	-860
ove	-861
▁grow	-862
▁three	-863
▁pass	-864
▁invest	-865
▁mem	-866
▁same	-867
▁anal	-868
vice	-869
▁vis	-870
▁big	-871
▁cour	-872
▁rest	-873
▁comple	-874
▁loc	-875
▁incre	-876
man	-877
ger	-878
▁gre	-879
ues	-880
▁object	-881
ends	-882
llow	-883
▁met	-884
gr	-885
amp	-886
▁giv	-887
▁Chinese	-888
oney	-889
ason	-890
ized	-891
▁ed	-892
▁dire	-893
▁dr	-894
up	-895
gin	-896
▁3	-897
▁product	-898
▁important	-899
ling	-900
▁once	-901
▁contin	-902
▁ide	-903
▁word	-904
hen	-905
ene	-906
▁expl	-907
ross	-908
▁fri	-909
ters	-910
uss	-911
▁body	-912
ization	-913
▁kind	-914
▁beh	-915
▁sw	-916
▁poss	-917
▁class	-918
rop	-919
▁dem	-920
▁belie	-921
ital	-922
formation	-923
cc	-924
orn	-925
der	-926
ages	-927
ention	-928
stand	-929
ator	-930
▁di	-931
▁control	-932
▁prog	-933
▁less	-934
▁unt	-935
▁const	-936
▁In	-937
ency	-938
▁oper	-939
▁since	-940
oun	-941
▁equ	-942
pr	-943
▁term	-944
▁best	-945
▁shall	-946
▁allow	-947
▁sch	-948
▁away	-949
▁bre	-950
ected	-951
▁human	-952
▁against	-953
▁applic	-954
▁tri	-955
▁give	-956
▁wr	-957
▁care	-958
▁things	-959
ething	-960
ott	-961
▁men	-962
▁bank	-963
▁adv	-964
▁prot	-965
▁something	-966
▁data	-967
▁country	-968
▁become	-969
▁ele	-970
ier	-971
▁keep	-972
▁partic	-973
▁law	-974
▁far	-975
▁war	-976
ided	-977
▁least	-978
▁got	-979
▁build	-980
hing	-981
▁large	-982
atic	-983
▁tell	-984
ines	-985
ret	-986
ering	-987
▁ca	-988
acter	-989
▁children	-990
▁par	-991
▁called	-992
▁var	-993
▁book	-994
ium	-995
▁full	-996
▁money	-997
▁el	-998
▁second	-999
ertain	-1000
ination	-1001
▁fil	-1002
▁ris	-1003
▁really	-1004
iron	-1005
▁better	-1006
▁gra	-1007
▁group	-1008
▁prof	-1009
▁top	-1010
...	-1011
osition	-1012
ants	-1013
▁month	-1014
▁thought	-1015
▁pur	-1016
io	-1017
orts	-1018
▁public	-1019
ne	-1020
▁indust	-1021
ains	-1022
▁tem	-1023
ries	-1024
ins	-1025
az	-1026
▁tre	-1027
▁aff	-1028
▁government	-1029
ides	-1030
outh	-1031
▁ste	-1032
▁elect	-1033
ope	-1034
▁trying	-1035
ream	-1036
osed	-1037
▁using	-1038
rent	-1039
▁number	-1040
▁level	-1041
▁av	-1042
ially	-1043
ulation	-1044
erest	-1045
▁exam	-1046
uro	-1047
▁es	-1048
ases	-1049
▁wind	-1050
ection	-1051
▁change	-1052
▁quest	-1053
▁land	-1054
ai	-1055
▁follow	-1056
ets	-1057
▁cond	-1058
▁food	-1059
▁dra	-1060
▁young	-1061
aper	-1062
ability	-1063
▁mar	-1064
▁bit	-1065
▁left	-1066
▁face	-1067
▁came	-1068
thing	-1069
▁enough	-1070
ior	-1071
augh	-1072
▁leg	-1073
▁pop	-1074
que	-1075
atch	-1076
▁).	-1077
▁information	-1078
▁strong	-1079
▁near	-1080
▁mean	-1081
ately	-1082
ably	-1083
▁yet	-1084
▁perform	-1085
▁name	-1086
ption	-1087
▁interest	-1088
▁19	-1089
▁The	-1090
▁why	-1091
▁sal	-1092
ently	-1093
▁prom	-1094
▁school	-1095
▁opp	-1096
▁night	-1097
▁understand	-1098
▁talk	-1099
▁study	-1100
▁mater	-1101
ished	-1102
▁chang	-1103
▁imm	-1104
▁prev	-1105
▁days	-1106
▁fun	-1107
ron	-1108
▁pri	-1109
ision	-1110
▁house	-1111
▁side	-1112
uck	-1113
aut	-1114
▁Sh	-1115
▁prop	-1116
ted	-1117
lish	-1118
▁occ	-1119
▁model	-1120
sp	-1121
▁impro	-1122
ired	-1123
▁mom	-1124
▁hy	-1125
▁commun	-1126
▁move	-1127
eng	-1128
▁ple	-1129
sel	-1130
▁treat	-1131
ral	-1132
▁whether	-1133
▁polit	-1134
nce	-1135
bo	-1136
▁case	-1137
▁ma	-1138
▁list	-1139
▁cost	-1140
▁est	-1141
▁mind	-1142
▁lear	-1143
▁free	-1144
▁mother	-1145
ration	-1146
▁infl	-1147
ird	-1148
▁health	-1149
▁sing	-1150
not	-1151
ised	-1152
me	-1153
▁sit	-1154
ee	-1155
▁ant	-1156
▁pain	-1157
▁cult	-1158
▁pay	-1159
ush	-1160
line	-1161
▁room	-1162
▁red	-1163
▁material	-1164
▁cal	-1165
ump	-1166
▁5	-1167
▁mor	-1168
▁direct	-1169
▁meet	-1170
▁mil	-1171
▁hist	-1172
▁ve	-1173
▁means	-1174
▁lot	-1175
▁begin	-1176
▁view	-1177
▁easy	-1178
▁env	-1179
▁trad	-1180
▁today	-1181
▁line	-1182
▁short	-1183
ury	-1184
▁press	-1185
ining	-1186
▁development	-1187
▁God	-1188
▁results	-1189
arent	-1190
face	-1191
cing	-1192
ified	-1193
▁low	-1194
▁organ	-1195
▁self	-1196
ane	-1197
▁arm	-1198
▁sn	-1199
▁took	-1200
▁return	-1201
▁told	-1202
▁hal	-1203
aring	-1204
ged	-1205
ci	-1206
work	-1207
▁meas	-1208
let	-1209
ivers	-1210
▁cut	-1211
▁wa	-1212
err	-1213
▁proper	-1214
▁project	-1215
▁family	-1216
▁past	-1217
▁mus	-1218
▁pract	-1219
▁team	-1220
irc	-1221
▁sun	-1222
▁intern	-1223
▁bra	-1224
▁others	-1225
▁hold	-1226
▁women	-1227
ery	-1228
erv	-1229
▁walk	-1230
here	-1231
▁known	-1232
▁support	-1233
▁eyes	-1234
▁among	-1235
▁appro	-1236
▁within	-1237
ode	-1238
▁offic	-1239
▁city	-1240
used	-1241
inal	-1242
den	-1243
▁character	-1244
▁eng	-1245
▁seems	-1246
iety	-1247
▁later	-1248
agn	-1249
▁appear	-1250
ched	-1251
▁cho	-1252
▁present	-1253
▁American	-1254
▁redu	-1255
▁stop	-1256
▁went	-1257
aster	-1258
mb	-1259
ained	-1260
itive	-1261
▁iss	-1262
▁cell	-1263
▁woman	-1264
ug	-1265
▁4	-1266
▁Eng	-1267
▁ener	-1268
ploy	-1269
▁certain	-1270
ks	-1271
▁job	-1272
ustom	-1273
ify	-1274
aps	-1275
▁clear	-1276
▁adm	-1277
▁program	-1278
▁four	-1279
ider	-1280
ware	-1281
▁hot	-1282
▁fall	-1283
ending	-1284
▁until	-1285
▁fac	-1286
iver	-1287
be	-1288
▁New	-1289
ned	-1290
▁thing	-1291
irl	-1292
ional	-1293
▁flow	-1294
▁beaut	-1295
▁research	-1296
raph	-1297
▁pot	-1298
aken	-1299
ov	-1300
▁try	-1301
ah	-1302
▁activ	-1303
pped	-1304
▁Euro	-1305
▁condition	-1306
▁fur	-1307
oid	-1308
▁along	-1309
▁field	-1310
▁report	-1311
▁application	-1312
most	-1313
▁toget	-1314
▁together	-1315
rodu	-1316
ctions	-1317
▁course	-1318
▁desc	-1319
br	-1320
▁200	-1321
istic	-1322
▁hour	-1323
ex	-1324
ape	-1325
bers	-1326
▁dri	-1327
▁value	-1328
▁environ	-1329
inc	-1330
▁Europe	-1331
ured	-1332
▁rev	-1333
ats	-1334
▁current	-1335
▁area	-1336
▁bar	-1337
▁Th	-1338
side	-1339
ased	-1340
▁fail	-1341
omm	-1342
ead	-1343
▁circ	-1344
▁fre	-1345
▁common	-1346
▁social	-1347
▁sense	-1348
▁industry	-1349
ither	-1350
▁sum	-1351
ives	-1352
att	-1353
▁paper	-1354
▁sever	-1355
▁ever	-1356
▁oil	-1357
▁exc	-1358
▁began	-1359
▁nothing	-1360
▁soft	-1361
▁enc	-1362
par	-1363
iment	-1364
▁cannot	-1365
▁possible	-1366
usion	-1367
oint	-1368
▁reason	-1369
▁As	-1370
▁super	-1371
▁moment	-1372
▁deal	-1373
▁sure	-1374
▁struct	-1375
▁custom	-1376
▁Ind	-1377
▁post	-1378
▁times	-1379
▁relations	-1380
▁close	-1381
▁making	-1382
▁".	-1383
▁fire	-1384
▁early	-1385
▁service	-1386
▁sil	-1387
▁United	-1388
▁half	-1389
ential	-1390
▁rad	-1391
uation	-1392
▁black	-1393
▁looking	-1394
▁special	-1395
▁front	-1396
hor	-1397
▁matter	-1398
▁makes	-1399
orth	-1400
▁given	-1401
▁white	-1402
▁deep	-1403
▁rather	-1404
▁having	-1405
▁order	-1406
▁energy	-1407
▁quality	-1408
osp	-1409
▁polic	-1410
▁economic	-1411
oh	-1412
▁lim	-1413
ients	-1414
▁mid	-1415
▁net	-1416
▁environment	-1417
▁z	-1418
▁determ	-1419
yn	-1420
▁maj	-1421
icult	-1422
ready	-1423
▁type	-1424
▁win	-1425
▁already	-1426
over	-1427
▁key	-1428
though	-1429
▁saw	-1430
▁several	-1431
▁upon	-1432
ened	-1433
ysis	-1434
▁comb	-1435
▁sound	-1436
oud	-1437
▁whole	-1438
▁non	-1439
▁quick	-1440
▁manage	-1441
▁live	-1442
ried	-1443
iting	-1444
▁friends	-1445
▁saf	-1446
▁local	-1447
▁comput	-1448
angu	-1449
ler	-1450
▁step	-1451
▁accord	-1452
ression	-1453
▁across	-1454
▁surface	-1455
▁although	-1456
pec	-1457
▁Ar	-1458
▁rece	-1459
▁bad	-1460
▁finan	-1461
▁mot	-1462
▁based	-1463
▁usually	-1464
▁question	-1465
▁blood	-1466
▁Is	-1467
app	-1468
▁countries	-1469
▁difficult	-1470
▁almost	-1471
▁creat	-1472
iod	-1473
ivid	-1474
ggest	-1475
▁swe	-1476
ands	-1477
▁seen	-1478
▁dou	-1479
▁opt	-1480
▁mess	-1481
▁nat	-1482
▁sle	-1483
ung	-1484
▁death	-1485
itional	-1486
▁suggest	-1487
▁fut	-1488
▁typ	-1489
▁glob	-1490
▁obs	-1491
▁girl	-1492
▁mult	-1493
ification	-1494
▁vol	-1495
iously	-1496
▁sent	-1497
▁sat	-1498
▁toward	-1499
illed	-1500
▁conn	-1501
▁bene	-1502
▁working	-1503
▁particular	-1504
▁anim	-1505
▁Brit	-1506
ibility	-1507
▁dark	-1508
▁deb	-1509
por	-1510
▁major	-1511
▁lay	-1512
▁bott	-1513
▁leave	-1514
omp	-1515
▁believe	-1516
ote	-1517
ising	-1518
ilt	-1519
ames	-1520
ully	-1521
▁cause	-1522
ift	-1523
▁space	-1524
selves	-1525
▁cou	-1526
▁US	-1527
▁ago	-1528
ograph	-1529
▁risk	-1530
▁phot	-1531
▁consum	-1532
ude	-1533
▁door	-1534
▁problems	-1535
idence	-1536
▁colle	-1537
▁pie	-1538
▁likely	-1539
▁ho	-1540
▁Be	-1541
▁suff	-1542
▁20	-1543
hers	-1544
▁words	-1545
elt	-1546
▁crit	-1547
▁dise	-1548
▁miss	-1549
ony	-1550
▁complete	-1551
▁exist	-1552
sy	-1553
▁Pro	-1554
apan	-1555
▁experience	-1556
ique	-1557
unt	-1558
▁phys	-1559
dle	-1560
▁break	-1561
▁sour	-1562
▁abs	-1563
▁heav	-1564
▁simple	-1565
▁asked	-1566
▁position	-1567
▁cra	-1568
▁ann	-1569
ards	-1570
▁Re	-1571
▁further	-1572
ister	-1573
▁Japan	-1574
ological	-1575
▁hands	-1576
▁langu	-1577
icle	-1578
▁mach	-1579
▁economy	-1580
▁idea	-1581
ctor	-1582
▁technology	-1583
ored	-1584
▁sex	-1585
els	-1586
▁including	-1587
ended	-1588
▁educ	-1589
rist	-1590
▁somet	-1591
aim	-1592
acy	-1593
▁account	-1594
ortun	-1595
ances	-1596
bs	-1597
arc	-1598
ued	-1599
▁bed	-1600
▁emb	-1601
▁dev	-1602
▁due	-1603
af	-1604
▁ill	-1605
▁parent	-1606
▁compet	-1607
▁done	-1608
▁father	-1609
▁ground	-1610
▁rele	-1611
▁soon	-1612
▁writ	-1613
ruction	-1614
uff	-1615
▁discuss	-1616
uit	-1617
▁States	-1618
▁products	-1619
▁himself	-1620
▁hig	-1621
▁growth	-1622
tal	-1623
▁dam	-1624
▁hope	-1625
▁official	-1626
lo	-1627
eb	-1628
ories	-1629
▁general	-1630
▁check	-1631
ively	-1632
▁author	-1633
▁ident	-1634
▁dom	-1635
▁students	-1636
▁tax	-1637
▁period	-1638
▁espec	-1639
oke	-1640
▁future	-1641
▁lab	-1642
▁foot	-1643
▁scient	-1644
ians	-1645
▁sometimes	-1646
▁wife	-1647
▁sens	-1648
▁wall	-1649
▁unc	-1650
▁spr	-1651
cer	-1652
▁above	-1653
▁clean	-1654
▁rate	-1655
▁age	-1656
ton	-1657
asing	-1658
fully	-1659
▁orig	-1660
▁neg	-1661
▁longer	-1662
▁history	-1663
▁objective	-1664
▁ver	-1665
▁provide	-1666
ze	-1667
urity	-1668
▁looked	-1669
light	-1670
▁especially	-1671
▁prob	-1672
irt	-1673
▁Fr	-1674
▁An	-1675
▁stra	-1676
▁according	-1677
▁ur	-1678
▁hair	-1679
▁spir	-1680
ison	-1681
ening	-1682
▁single	-1683
▁analy	-1684
▁someone	-1685
▁record	-1686
▁financial	-1687
▁ready	-1688
▁fund	-1689
▁influ	-1690
▁Sp	-1691
itor	-1692
▁slow	-1693
▁sty	-1694
tain	-1695
iter	-1696
▁manag	-1697
urs	-1698
▁bring	-1699
▁ap	-1700
▁mill	-1701
▁game	-1702
iful	-1703
mp	-1704
▁needs	-1705
▁signific	-1706
▁bi	-1707
▁instead	-1708
▁sho	-1709
▁dream	-1710
ones	-1711
▁analysis	-1712
▁America	-1713
▁quite	-1714
▁relationship	-1715
▁road	-1716
imate	-1717
of	-1718
▁event	-1719
▁comes	-1720
▁global	-1721
▁improve	-1722
lement	-1723
▁employ	-1724
lling	-1725
ging	-1726
▁therefore	-1727
chan	-1728
▁attack	-1729
▁dest	-1730
▁actually	-1731
aves	-1732
chie	-1733
▁friend	-1734
▁living	-1735
by	-1736
▁norm	-1737
ef	-1738
aid	-1739
rown	-1740
▁earth	-1741
oon	-1742
▁treatment	-1743
ots	-1744
▁create	-1745
▁6	-1746
ann	-1747
ilar	-1748
fact	-1749
▁individ	-1750
▁Christ	-1751
utes	-1752
ication	-1753
▁behind	-1754
▁serv	-1755
▁plac	-1756
pect	-1757
▁repl	-1758
cent	-1759
▁enter	-1760
ges	-1761
▁performance	-1762
▁fear	-1763
hem	-1764
▁port	-1765
▁taken	-1766
▁political	-1767
▁hor	-1768
▁respons	-1769
ien	-1770
cu	-1771
▁sea	-1772
▁management	-1773
▁cy	-1774
▁div	-1775
▁prep	-1776
▁modern	-1777
ises	-1778
▁stay	-1779
▁five	-1780
▁months	-1781
▁English	-1782
▁building	-1783
▁accept	-1784
▁priv	-1785
▁natural	-1786
▁foc	-1787
▁green	-1788
use	-1789
▁example	-1790
▁color	-1791
▁require	-1792
ament	-1793
ember	-1794
▁mic	-1795
ipp	-1796
▁necess	-1797
omes	-1798
edi	-1799
▁perf	-1800
▁doing	-1801
erence	-1802
▁party	-1803
▁amount	-1804
▁subject	-1805
▁stren	-1806
fer	-1807
olution	-1808
empt	-1809
▁film	-1810
▁nature	-1811
▁pick	-1812
▁pack	-1813
ressed	-1814
▁temper	-1815
▁production	-1816
▁wide	-1817
▁Af	-1818
▁Sc	-1819
eral	-1820
▁true	-1821
▁ans	-1822
▁itself	-1823
iversity	-1824
▁individual	-1825
itting	-1826
rap	-1827
▁mis	-1828
▁gave	-1829
▁skin	-1830
▁expect	-1831
▁coll	-1832
▁mass	-1833
▁table	-1834
▁stat	-1835
het	-1836
▁benef	-1837
▁story	-1838
▁access	-1839
▁introdu	-1840
▁wanted	-1841
▁rul	-1842
▁text	-1843
▁foreign	-1844
▁tool	-1845
▁language	-1846
▁pred	-1847
▁capital	-1848
rug	-1849
▁He	-1850
▁gold	-1851
▁streng	-1852
▁pressure	-1853
ival	-1854
sc	-1855
▁flo	-1856
▁invol	-1857
▁image	-1858
anc	-1859
▁network	-1860
uth	-1861
▁enj	-1862
▁engine	-1863
▁10	-1864
▁watch	-1865
▁national	-1866
etic	-1867
▁inside	-1868
▁ce	-1869
▁price	-1870
▁fig	-1871
▁methods	-1872
▁structure	-1873
▁policy	-1874
ills	-1875
▁turned	-1876
haps	-1877
▁music	-1878
▁describ	-1879
ogn	-1880
▁gas	-1881
▁poor	-1882
▁mount	-1883
▁content	-1884
▁didn	-1885
▁ball	-1886
▁everything	-1887
▁behav	-1888
▁outside	-1889
lt	-1890
▁felt	-1891
▁mechan	-1892
bit	-1893
▁parts	-1894
▁similar	-1895
ulate	-1896
oph	-1897
▁perhaps	-1898
▁anything	-1899
sh	-1900
erc	-1901
▁changes	-1902
▁consider	-1903
uses	-1904
▁suc	-1905
ox	-1906
gest	-1907
ived	-1908
ids	-1909
eter	-1910
▁cred	-1911
▁repres	-1912
▁investig	-1913
▁bur	-1914
▁sort	-1915
▁size	-1916
▁achie	-1917
▁corre	-1918
▁Con	-1919
astic	-1920
▁imag	-1921
▁speed	-1922
▁taking	-1923
ply	-1924
▁camp	-1925
▁soc	-1926
▁companies	-1927
▁disp	-1928
▁increase	-1929
wer	-1930
▁buy	-1931
▁profess	-1932
▁cold	-1933
ster	-1934
▁fav	-1935
▁prec	-1936
▁rock	-1937
▁Se	-1938
▁either	-1939
atory	-1940
▁vi	-1941
▁fa	-1942
ators	-1943
ission	-1944
▁resour	-1945
▁tar	-1946
▁fast	-1947
▁force	-1948
▁son	-1949
▁arg	-1950
iation	-1951
ule	-1952
▁pict	-1953
▁beautiful	-1954
▁won	-1955
inist	-1956
▁fish	-1957
▁shows	-1958
▁higher	-1959
▁desp	-1960
▁ability	-1961
uge	-1962
▁cop	-1963
▁emer	-1964
ley	-1965
▁Cl	-1966
ask	-1967
▁estab	-1968
▁boy	-1969
▁yourself	-1970
port	-1971
▁please	-1972
▁ship	-1973
▁stre	-1974
any	-1975
▁i	-1976
▁claim	-1977
▁beginning	-1978
iple	-1979
▁police	-1980
▁wond	-1981
▁),	-1982
▁arr	-1983
▁office	-1984
ached	-1985
▁dog	-1986
▁enjoy	-1987
rate	-1988
▁stri	-1989
▁concept	-1990
▁carry	-1991
aff	-1992
▁pen	-1993
▁path	-1994
inary	-1995
▁grad	-1996
▁flu	-1997
▁lost	-1998
rought	-1999
icient	-2000
▁code	-2001
▁share	-2002
▁firm	-2003
▁action	-2004
▁ord	-2005
▁drink	-2006
▁sleep	-2007
▁computer	-2008
soci	-2009
▁cover	-2010
▁Germ	-2011
▁bal	-2012
▁feature	-2013
▁became	-2014
▁conv	-2015
itary	-2016
▁themselves	-2017
▁started	-2018
▁scre	-2019
▁dead	-2020
▁role	-2021
head	-2022
umb	-2023
▁morning	-2024
▁warm	-2025
▁eat	-2026
eness	-2027
▁decided	-2028
▁indic	-2029
▁wood	-2030
▁everyone	-2031
▁attempt	-2032
ows	-2033
▁react	-2034
▁displ	-2035
unch	-2036
▁Al	-2037
aching	-2038
▁getting	-2039
▁er	-2040
▁shop	-2041
resh	-2042
▁effects	-2043
▁news	-2044
gen	-2045
▁recent	-2046
▁plant	-2047
▁8	-2048
ama	-2049
dden	-2050
▁else	-2051
cle	-2052
inate	-2053
▁disease	-2054
▁vo	-2055
▁knew	-2056
▁Le	-2057
room	-2058
anger	-2059
▁jud	-2060
▁parents	-2061
▁yes	-2062
▁hours	-2063
ledge	-2064
▁tou	-2065
▁separ	-2066
▁patients	-2067
erve	-2068
▁concern	-2069
ao	-2070
▁areas	-2071
▁avoid	-2072
▁culture	-2073
▁unf	-2074
▁avail	-2075
▁probably	-2076
▁cat	-2077
▁forward	-2078
▁teac	-2079
itude	-2080
▁speak	-2081
▁appe	-2082
▁international	-2083
▁spirit	-2084
▁box	-2085
▁thous	-2086
▁pull	-2087
▁ways	-2088
uous	-2089
▁tele	-2090
▁lower	-2091
▁init	-2092
▁fat	-2093
▁happy	-2094
▁sudden	-2095
▁drug	-2096
▁travel	-2097
itation	-2098
▁aud	-2099
▁quickly	-2100
▁six	-2101
▁rich	-2102
▁hon	-2103
▁card	-2104
ension	-2105
▁inn	-2106
▁detail	-2107
▁link	-2108
ume	-2109
▁coun	-2110
▁exec	-2111
oming	-2112
vert	-2113
▁docu	-2114
pid	-2115
▁De	-2116
ief	-2117
go	-2118
ires	-2119
▁terms	-2120
▁base	-2121
▁round	-2122
▁ir	-2123
estern	-2124
egr	-2125
▁simply	-2126
▁sold	-2127
itch	-2128
▁members	-2129
▁fight	-2130
▁agree	-2131
▁president	-2132
▁princ	-2133
▁source	-2134
▁works	-2135
▁security	-2136
▁extra	-2137
▁fle	-2138
▁cross	-2139
▁entire	-2140
▁education	-2141
▁tend	-2142
▁ut	-2143
▁lack	-2144
▁squ	-2145
▁popular	-2146
itted	-2147
▁hear	-2148
▁bottom	-2149
▁strate	-2150
iction	-2151
▁dig	-2152
iant	-2153
▁site	-2154
▁theory	-2155
▁brain	-2156
▁society	-2157
▁systems	-2158
▁sky	-2159
istics	-2160
ivity	-2161
▁temperature	-2162
▁personal	-2163
▁store	-2164
▁significant	-2165
▁doub	-2166
▁heat	-2167
▁viol	-2168
artment	-2169
▁third	-2170
▁remember	-2171
▁hop	-2172
▁Ph	-2173
ij	-2174
une	-2175
put	-2176
▁South	-2177
▁style	-2178
rom	-2179
▁coming	-2180
▁Mar	-2181
▁contain	-2182
▁complex	-2183
▁protect	-2184
▁needed	-2185
▁trade	-2186
▁block	-2187
▁opportun	-2188
cl	-2189
▁appl	-2190
▁effective	-2191
▁piece	-2192
▁cris	-2193
▁concl	-2194
▁bill	-2195
▁vers	-2196
▁respect	-2197
ables	-2198
▁calc	-2199
▁surpr	-2200
▁interv	-2201
▁Wh	-2202
amed	-2203
▁demand	-2204
▁running	-2205
▁Russ	-2206
▁anc	-2207
▁ess	-2208
▁thus	-2209
atter	-2210
▁operation	-2211
▁fra	-2212
▁star	-2213
▁Gr	-2214
▁chall	-2215
▁extre	-2216
▁blue	-2217
▁eye	-2218
▁specific	-2219
ps	-2220
▁ang	-2221
▁traditional	-2222
▁visit	-2223
sych	-2224
▁chem	-2225
▁prim	-2226
body	-2227
▁hur	-2228
ivil	-2229
to	-2230
▁except	-2231
▁resist	-2232
▁heard	-2233
▁British	-2234
▁user	-2235
▁looks	-2236
▁researc	-2237
▁cry	-2238
▁town	-2239
▁stock	-2240
▁ten	-2241
▁bab	-2242
▁magn	-2243
▁fine	-2244
▁wrong	-2245
▁success	-2246
iding	-2247
▁threat	-2248
▁function	-2249
▁cases	-2250
▁deg	-2251
▁",	-2252
▁draw	-2253
▁feeling	-2254
ches	-2255
irth	-2256
oura	-2257
▁ens	-2258
iny	-2259
▁To	-2260
osis	-2261
▁various	-2262
▁del	-2263
▁target	-2264
▁takes	-2265
▁truth	-2266
▁held	-2267
▁added	-2268
▁leaders	-2269
osing	-2270
▁loss	-2271
ety	-2272
▁seemed	-2273
▁perfect	-2274
▁fem	-2275
▁situation	-2276
▁arch	-2277
▁measure	-2278
eration	-2279
▁subst	-2280
▁immedi	-2281
▁practice	-2282
▁thinking	-2283
lished	-2284
fort	-2285
▁hyd	-2286
▁tried	-2287
▁brought	-2288
ensive	-2289
▁deli	-2290
▁farm	-2291
▁tree	-2292
▁glass	-2293
▁machine	-2294
oul	-2295
▁standard	-2296
▁Gu	-2297
▁offer	-2298
▁include	-2299
▁meeting	-2300
▁9	-2301
▁recogn	-2302
▁remain	-2303
▁autom	-2304
ners	-2305
▁prevent	-2306
▁represent	-2307
▁experiment	-2308
urb	-2309
itable	-2310
▁conditions	-2311
▁led	-2312
▁harm	-2313
▁frequ	-2314
▁famil	-2315
▁et	-2316
amm	-2317
leg	-2318
▁jo	-2319
▁pattern	-2320
▁issue	-2321
▁compon	-2322
▁huge	-2323
▁susp	-2324
where	-2325
▁approach	-2326
▁aw	-2327
▁log	-2328
▁fly	-2329
▁stru	-2330
orrow	-2331
▁cool	-2332
▁select	-2333
ney	-2334
▁following	-2335
▁Intern	-2336
▁doll	-2337
▁cells	-2338
▁continue	-2339
▁fix	-2340
▁crisis	-2341
▁Bl	-2342
▁contract	-2343
▁available	-2344
▁file	-2345
▁associ	-2346
▁knowledge	-2347
▁Pl	-2348
irm	-2349
▁collect	-2350
▁doesn	-2351
▁spread	-2352
illing	-2353
error	-2354
co	-2355
▁distrib	-2356
▁necessary	-2357
▁peace	-2358
ped	-2359
rench	-2360
▁dry	-2361
▁search	-2362
ondon	-2363
▁saying	-2364
▁integr	-2365
unk	-2366
▁Car	-2367
▁mist	-2368
ades	-2369
ocr	-2370
▁services	-2371
ancy	-2372
band	-2373
onst	-2374
▁media	-2375
▁impact	-2376
▁prices	-2377
▁sales	-2378
▁former	-2379
umn	-2380
▁showed	-2381
▁season	-2382
lier	-2383
zy	-2384
eed	-2385
▁reve	-2386
idered	-2387
▁built	-2388
▁Ob	-2389
▁London	-2390
▁lif	-2391
anced	-2392
idge	-2393
▁hus	-2394
▁learn	-2395
itten	-2396
▁secret	-2397
▁Go	-2398
▁late	-2399
▁regard	-2400
▁article	-2401
aught	-2402
▁myself	-2403
▁potential	-2404
▁ones	-2405
▁la	-2406
▁summer	-2407
▁voice	-2408
▁optim	-2409
oses	-2410
▁military	-2411
bon	-2412
▁Ex	-2413
▁host	-2414
just	-2415
▁produce	-2416
▁middle	-2417
son	-2418
ilities	-2419
▁pret	-2420
▁cand	-2421
▁expected	-2422
▁increasing	-2423
▁mag	-2424
aughter	-2425
▁property	-2426
▁message	-2427
▁software	-2428
▁Joh	-2429
▁hit	-2430
ball	-2431
▁fair	-2432
wh	-2433
▁attention	-2434
▁equip	-2435
▁strength	-2436
▁developed	-2437
▁ter	-2438
▁feet	-2439
▁wild	-2440
come	-2441
▁contr	-2442
▁psych	-2443
▁mal	-2444
▁da	-2445
▁tour	-2446
▁Afric	-2447
▁lives	-2448
vere	-2449
▁civil	-2450
hold	-2451
king	-2452
▁condu	-2453
▁markets	-2454
▁implement	-2455
▁jour	-2456
oll	-2457
▁shown	-2458
izing	-2459
uan	-2460
▁broad	-2461
▁weeks	-2462
▁considered	-2463
hel	-2464
▁easily	-2465
▁North	-2466
▁weight	-2467
ground	-2468
iar	-2469
▁liter	-2470
▁focus	-2471
▁normal	-2472
▁region	-2473
like	-2474
▁amp	-2475
▁trou	-2476
hood	-2477
attle	-2478
ufact	-2479
▁meaning	-2480
▁rain	-2481
▁advant	-2482
▁safe	-2483
uel	-2484
iling	-2485
▁burn	-2486
▁century	-2487
▁ge	-2488
▁total	-2489
▁alone	-2490
▁wish	-2491
▁whose	-2492
▁occur	-2493
▁goal	-2494
lled	-2495
▁vac	-2496
▁exce	-2497
▁court	-2498
▁disapp	-2499
▁feed	-2500
▁Ad	-2501
▁Col	-2502
lear	-2503
▁University	-2504
ript	-2505
▁clin	-2506
▁mix	-2507
ously	-2508
oring	-2509
▁esc	-2510
▁John	-2511
▁growing	-2512
▁mouth	-2513
ength	-2514
asc	-2515
▁sett	-2516
hib	-2517
▁construction	-2518
000	-2519
▁ult	-2520
▁page	-2521
▁influence	-2522
▁banks	-2523
▁reduce	-2524
▁created	-2525
▁materials	-2526
▁stage	-2527
▁goes	-2528
dom	-2529
▁bird	-2530
▁basic	-2531
▁officials	-2532
▁caused	-2533
▁fresh	-2534
orld	-2535
▁manufact	-2536
▁Li	-2537
men	-2538
▁wants	-2539
▁researchers	-2540
▁print	-2541
▁Ear	-2542
▁rise	-2543
uted	-2544
▁grand	-2545
▁load	-2546
hern	-2547
▁private	-2548
▁emot	-2549
OR	-2550
▁activity	-2551
▁percent	-2552
▁born	-2553
▁serious	-2554
▁solution	-2555
undred	-2556
arr	-2557
▁vict	-2558
▁designed	-2559
val	-2560
▁levels	-2561
iable	-2562
▁despite	-2563
▁request	-2564
▁dyn	-2565
▁relative	-2566
▁bright	-2567
▁York	-2568
▁mov	-2569
onse	-2570
▁reflect	-2571
▁mer	-2572
ashing	-2573
▁pair	-2574
arily	-2575
oe	-2576
▁Tr	-2577
▁hundred	-2578
▁Pres	-2579
▁heavy	-2580
▁training	-2581
orce	-2582
ijing	-2583
▁insp	-2584
▁birth	-2585
ties	-2586
▁contact	-2587
▁administ	-2588
▁tast	-2589
▁poll	-2590
amic	-2591
▁decl	-2592
▁Sy	-2593
▁den	-2594
▁sell	-2595
ples	-2596
▁ast	-2597
▁enterpr	-2598
nal	-2599
▁inj	-2600
▁phone	-2601
▁range	-2602
▁chance	-2603
ought	-2604
▁Beijing	-2605
▁scientists	-2606
ighb	-2607
▁worth	-2608
▁affect	-2609
▁answer	-2610
▁king	-2611
verse	-2612
▁credit	-2613
▁dim	-2614
▁maybe	-2615
▁minutes	-2616
▁related	-2617
utions	-2618
▁track	-2619
▁writing	-2620
ming	-2621
▁surv	-2622
▁physical	-2623
pper	-2624
sequ	-2625
▁equipment	-2626
▁resources	-2627
▁micro	-2628
epend	-2629
▁wonder	-2630
▁Kore	-2631
▁achieve	-2632
▁finally	-2633
▁Man	-2634
▁item	-2635
▁pow	-2636
rict	-2637
ma	-2638
▁hosp	-2639
bed	-2640
▁decision	-2641
▁evidence	-2642
▁liqu	-2643
wise	-2644
▁Pr	-2645
▁users	-2646
ny	-2647
▁central	-2648
▁neighb	-2649
▁obv	-2650
▁drive	-2651
ulated	-2652
▁anyone	-2653
▁device	-2654
ulf	-2655
▁required	-2656
▁vill	-2657
▁board	-2658
▁15	-2659
▁addition	-2660
▁pan	-2661
ici	-2662
▁send	-2663
▁breat	-2664
▁pos	-2665
rupt	-2666
▁pal	-2667
▁wat	-2668
ences	-2669
▁European	-2670
ady	-2671
ipe	-2672
ding	-2673
▁cloud	-2674
apt	-2675
▁extreme	-2676
aving	-2677
▁Te	-2678
▁points	-2679
▁husband	-2680
▁response	-2681
▁dro	-2682
▁workers	-2683
▁ice	-2684
▁eval	-2685
▁towards	-2686
ole	-2687
▁weak	-2688
▁danger	-2689
▁books	-2690
▁stress	-2691
▁correct	-2692
▁provided	-2693
ina	-2694
▁conclusion	-2695
▁forest	-2696
▁provides	-2697
▁nuc	-2698
▁memory	-2699
▁questions	-2700
▁center	-2701
▁allowed	-2702
▁fram	-2703
rest	-2704
aur	-2705
ees	-2706
▁Comm	-2707
oms	-2708
▁display	-2709
▁damage	-2710
▁Can	-2711
▁nation	-2712
▁behavior	-2713
ken	-2714
▁cast	-2715
▁exerc	-2716
▁final	-2717
▁trust	-2718
▁choose	-2719
▁write	-2720
▁Rep	-2721
ography	-2722
▁arri	-2723
▁moving	-2724
▁cook	-2725
▁wait	-2726
▁World	-2727
▁electric	-2728
▁progress	-2729
na	-2730
yl	-2731
▁doubt	-2732
▁brother	-2733
▁isn	-2734
set	-2735
▁choice	-2736
▁nut	-2737
▁nor	-2738
▁rules	-2739
▁allows	-2740
▁har	-2741
▁factors	-2742
▁sweet	-2743
▁suddenly	-2744
mon	-2745
▁floor	-2746
▁groups	-2747
▁length	-2748
board	-2749
▁series	-2750
ites	-2751
▁investment	-2752
▁vir	-2753
▁effort	-2754
urch	-2755
rael	-2756
▁reb	-2757
▁thick	-2758
▁cam	-2759
▁rare	-2760
▁match	-2761
▁issues	-2762
▁direction	-2763
gar	-2764
▁rob	-2765
▁below	-2766
▁defin	-2767
▁hol	-2768
▁vide	-2769
▁favor	-2770
▁shape	-2771
iqu	-2772
▁compl	-2773
othes	-2774
▁Israel	-2775
▁satis	-2776
▁couple	-2777
▁dress	-2778
ental	-2779
▁purp	-2780
▁18	-2781
▁community	-2782
reg	-2783
arden	-2784
rial	-2785
back	-2786
▁baby	-2787
▁save	-2788
rew	-2789
▁supply	-2790
▁touch	-2791
itution	-2792
▁Obama	-2793
▁French	-2794
▁science	-2795
▁connect	-2796
▁safety	-2797
▁snow	-2798
▁India	-2799
yond	-2800
▁aim	-2801
▁bound	-2802
▁Ro	-2803
▁sam	-2804
▁song	-2805
overy	-2806
isc	-2807
▁rout	-2808
iled	-2809
lation	-2810
▁document	-2811
▁becomes	-2812
▁comfort	-2813
▁pet	-2814
▁reported	-2815
▁beyond	-2816
cious	-2817
▁kept	-2818
▁exact	-2819
▁gone	-2820
raft	-2821
▁etc	-2822
▁pun	-2823
▁Earth	-2824
▁quar	-2825
▁original	-2826
▁medic	-2827
▁spring	-2828
aled	-2829
▁efforts	-2830
▁ancient	-2831
▁gives	-2832
▁master	-2833
uate	-2834
▁gets	-2835
omb	-2836
▁reform	-2837
▁Ge	-2838
▁debt	-2839
ran	-2840
▁attract	-2841
▁ign	-2842
▁sand	-2843
ellow	-2844
verage	-2845
aged	-2846
▁address	-2847
ech	-2848
▁regular	-2849
▁fing	-2850
ublic	-2851
▁counter	-2852
▁investors	-2853
▁earlier	-2854
asons	-2855
▁install	-2856
▁applied	-2857
▁President	-2858
▁30	-2859
▁App	-2860
lor	-2861
▁ox	-2862
▁online	-2863
▁independ	-2864
▁particularly	-2865
▁din	-2866
▁enem	-2867
▁positive	-2868
▁animals	-2869
▁hous	-2870
▁encoura	-2871
▁element	-2872
▁leaves	-2873
ha	-2874
▁continued	-2875
▁soul	-2876
▁sem	-2877
zz	-2878
▁figure	-2879
▁Res	-2880
▁date	-2881
▁rapid	-2882
▁degree	-2883
▁remains	-2884
▁thr	-2885
▁basis	-2886
▁famous	-2887
▁mechanism	-2888
▁spl	-2889
▁activities	-2890
▁command	-2891
▁And	-2892
vey	-2893
▁iron	-2894
▁immediately	-2895
▁window	-2896
▁experien	-2897
▁quiet	-2898
▁particip	-2899
▁bud	-2900
▁completely	-2901
▁reach	-2902
▁studies	-2903
iciency	-2904
▁written	-2905
▁Part	-2906
▁exch	-2907
▁plans	-2908
ropri	-2909
▁express	-2910
▁learning	-2911
▁rot	-2912
▁relig	-2913
▁cancer	-2914
ux	-2915
▁directly	-2916
▁reading	-2917
▁datab	-2918
▁rights	-2919
oo	-2920
▁recently	-2921
▁egg	-2922
▁diss	-2923
▁fort	-2924
▁uses	-2925
▁apply	-2926
uls	-2927
airs	-2928
▁thank	-2929
inct	-2930
▁trees	-2931
▁medical	-2932
▁opportunity	-2933
▁Web	-2934
overed	-2935
▁param	-2936
▁types	-2937
riage	-2938
▁acqu	-2939
▁capt	-2940
▁picture	-2941
▁fruit	-2942
▁eth	-2943
▁customers	-2944
▁train	-2945
hy	-2946
▁chemical	-2947
aint	-2948
▁changed	-2949
▁Japanese	-2950
▁indeed	-2951
ev	-2952
▁virt	-2953
▁Har	-2954
▁Dr	-2955
ping	-2956
▁acid	-2957
▁impl	-2958
▁unique	-2959
▁histor	-2960
▁thousands	-2961
▁legal	-2962
▁quant	-2963
▁bag	-2964
▁movement	-2965
▁ideas	-2966
▁symb	-2967
▁spend	-2968
acity	-2969
▁scale	-2970
▁bes	-2971
▁soil	-2972
▁giving	-2973
inated	-2974
ague	-2975
▁appears	-2976
▁accur	-2977
▁costs	-2978
antic	-2979
▁anti	-2980
▁playing	-2981
▁tro	-2982
estic	-2983
▁rule	-2984
▁river	-2985
▁slight	-2986
▁species	-2987
wards	-2988
▁12	-2989
antly	-2990
▁worked	-2991
▁adop	-2992
▁difference	-2993
▁stick	-2994
▁server	-2995
▁repe	-2996
iers	-2997
▁million	-2998
▁ye	-2999
ronic	-3000
▁drop	-3001
▁moved	-3002
ault	-3003
rief	-3004
▁contrib	-3005
▁hang	-3006
▁tear	-3007
▁staff	-3008
▁steel	-3009
▁forces	-3010
▁instru	-3011
▁nearly	-3012
▁Or	-3013
▁spect	-3014
▁increased	-3015
▁spent	-3016
uly	-3017
▁lat	-3018
▁clim	-3019
▁street	-3020
▁wear	-3021
▁diagn	-3022
▁pleas	-3023
▁adjust	-3024
▁events	-3025
▁features	-3026
ibly	-3027
▁symbol	-3028
▁doctor	-3029
▁announ	-3030
▁screen	-3031
▁gar	-3032
▁ren	-3033
iday	-3034
▁review	-3035
the	-3036
ik	-3037
▁sym	-3038
▁Lord	-3039
▁powerful	-3040
▁strugg	-3041
enty	-3042
▁animal	-3043
▁beauty	-3044
order	-3045
lection	-3046
▁poly	-3047
▁understanding	-3048
ym	-3049
▁purs	-3050
▁applications	-3051
▁West	-3052
▁concent	-3053
▁At	-3054
iang	-3055
mit	-3056
▁die	-3057
▁shar	-3058
amb	-3059
▁argu	-3060
▁died	-3061
▁conduct	-3062
gor	-3063
▁Br	-3064
ffic	-3065
▁demonst	-3066
▁Cent	-3067
▁places	-3068
▁crow	-3069
ender	-3070
oration	-3071
asion	-3072
▁hom	-3073
▁ep	-3074
iced	-3075
▁cru	-3076
pping	-3077
▁liquid	-3078
▁Gen	-3079
▁mob	-3080
▁straight	-3081
▁bow	-3082
▁highly	-3083
▁fro	-3084
▁phil	-3085
▁nice	-3086
▁depend	-3087
▁certainly	-3088
▁veh	-3089
▁fell	-3090
ashion	-3091
eds	-3092
▁ensure	-3093
omen	-3094
oting	-3095
▁waste	-3096
▁Cal	-3097
▁cove	-3098
▁characteristics	-3099
▁forg	-3100
▁ban	-3101
▁task	-3102
▁nuclear	-3103
fl	-3104
▁tal	-3105
▁der	-3106
▁Sw	-3107
aign	-3108
vant	-3109
▁member	-3110
▁commer	-3111
▁amb	-3112
▁section	-3113
round	-3114
▁jump	-3115
▁prepared	-3116
▁tub	-3117
ager	-3118
aker	-3119
▁received	-3120
▁wine	-3121
▁hotel	-3122
▁lines	-3123
▁novel	-3124
▁values	-3125
▁protection	-3126
▁cele	-3127
▁greater	-3128
▁patient	-3129
▁Co	-3130
mark	-3131
▁mut	-3132
ithm	-3133
▁carbon	-3134
▁proced	-3135
istan	-3136
▁passed	-3137
iber	-3138
▁note	-3139
load	-3140
▁willing	-3141
▁leading	-3142
▁000	-3143
▁unlike	-3144
▁agg	-3145
▁gun	-3146
otic	-3147
aling	-3148
arian	-3149
▁Shan	-3150
▁establish	-3151
▁appeared	-3152
▁park	-3153
▁maintain	-3154
▁south	-3155
▁student	-3156
▁qual	-3157
▁ahead	-3158
▁regul	-3159
▁convers	-3160
▁measures	-3161
▁Aust	-3162
▁sad	-3163
ips	-3164
▁199	-3165
▁waiting	-3166
ring	-3167
▁standing	-3168
▁states	-3169
iate	-3170
▁opened	-3171
▁scen	-3172
▁manager	-3173
▁population	-3174
▁speech	-3175
▁useful	-3176
atives	-3177
▁double	-3178
▁wealth	-3179
▁consist	-3180
de	-3181
▁database	-3182
using	-3183
▁rub	-3184
▁island	-3185
▁brand	-3186
▁generally	-3187
▁uns	-3188
▁thin	-3189
ipl	-3190
▁hydro	-3191
ops	-3192
rated	-3193
▁tit	-3194
▁fit	-3195
▁Asia	-3196
▁vent	-3197
▁failure	-3198
▁predict	-3199
▁unit	-3200
▁fashion	-3201
key	-3202
ugg	-3203
▁layer	-3204
▁clos	-3205
▁female	-3206
▁filled	-3207
▁bul	-3208
ores	-3209
gment	-3210
▁advantage	-3211
▁veget	-3212
▁goods	-3213
▁happened	-3214
▁clinical	-3215
eters	-3216
▁Par	-3217
▁faith	-3218
▁campaign	-3219
▁teacher	-3220
▁determine	-3221
aces	-3222
▁surround	-3223
▁transport	-3224
▁kill	-3225
▁compared	-3226
▁Jes	-3227
▁grass	-3228
▁causes	-3229
▁desire	-3230
▁interview	-3231
▁100	-3232
▁mir	-3233
ellig	-3234
▁altern	-3235
▁lock	-3236
▁trend	-3237
▁War	-3238
▁Ital	-3239
▁spot	-3240
▁We	-3241
ests	-3242
▁includes	-3243
▁bear	-3244
▁aware	-3245
▁recomm	-3246
▁metal	-3247
▁college	-3248
▁bond	-3249
cil	-3250
tered	-3251
book	-3252
▁garden	-3253
▁flowers	-3254
hetic	-3255
▁lose	-3256
▁prior	-3257
▁sight	-3258
reci	-3259
rete	-3260
▁unp	-3261
atever	-3262
icate	-3263
▁tight	-3264
▁corpor	-3265
▁expression	-3266
▁labor	-3267
icles	-3268
▁mainly	-3269
▁rat	-3270
▁coff	-3271
▁spok	-3272
▁innov	-3273
▁refer	-3274
▁pretty	-3275
▁assist	-3276
▁daughter	-3277
▁communication	-3278
tle	-3279
hens	-3280
▁shap	-3281
▁catch	-3282
vision	-3283
▁rates	-3284
▁destro	-3285
▁plants	-3286
▁execut	-3287
▁reasons	-3288
▁elements	-3289
.,	-3290
▁Bar	-3291
itect	-3292
uct	-3293
▁pure	-3294
▁station	-3295
▁whatever	-3296
▁biggest	-3297
▁teaching	-3298
▁cash	-3299
▁solid	-3300
▁video	-3301
▁career	-3302
▁reality	-3303
▁followed	-3304
▁winter	-3305
hest	-3306
▁requirements	-3307
nces	-3308
▁strategy	-3309
▁carried	-3310
▁produced	-3311
▁involved	-3312
▁Gree	-3313
▁technique	-3314
▁male	-3315
▁processing	-3316
my	-3317
isions	-3318
▁critic	-3319
resp	-3320
▁talking	-3321
aches	-3322
erved	-3323
▁sitting	-3324
▁advert	-3325
▁leader	-3326
▁cit	-3327
▁freed	-3328
▁stood	-3329
oted	-3330
while	-3331
▁City	-3332
▁wasn	-3333
▁balance	-3334
▁professional	-3335
rote	-3336
▁tools	-3337
▁stone	-3338
▁version	-3339
▁dust	-3340
▁wave	-3341
▁status	-3342
▁throughout	-3343
▁north	-3344
mosp	-3345
▁smo	-3346
▁eight	-3347
▁stuff	-3348
▁Comp	-3349
cket	-3350
▁purch	-3351
aging	-3352
▁variety	-3353
lim	-3354
▁ring	-3355
▁confirm	-3356
▁Oh	-3357
▁coal	-3358
iles	-3359
▁appropri	-3360
▁stim	-3361
oma	-3362
▁played	-3363
▁analyz	-3364
▁returned	-3365
ternal	-3366
▁smile	-3367
▁covered	-3368
AT	-3369
▁clothes	-3370
▁horse	-3371
kes	-3372
▁core	-3373
▁shot	-3374
▁meant	-3375
▁hospital	-3376
▁associated	-3377
▁introduced	-3378
▁ec	-3379
▁tea	-3380
ushed	-3381
▁seek	-3382
icit	-3383
▁201	-3384
ato	-3385
▁option	-3386
▁cloth	-3387
▁properties	-3388
hou	-3389
▁sac	-3390
▁milk	-3391
▁laws	-3392
▁cultural	-3393
▁movie	-3394
▁Su	-3395
▁arms	-3396
▁gent	-3397
ingly	-3398
▁Russia	-3399
enge	-3400
▁weather	-3401
▁slowly	-3402
lig	-3403
▁ran	-3404
▁fuel	-3405
▁transfer	-3406
cast	-3407
▁sen	-3408
▁daily	-3409
▁active	-3410
▁paid	-3411
▁weap	-3412
▁Dav	-3413
▁clearly	-3414
dy	-3415
ike	-3416
▁distance	-3417
itions	-3418
▁circum	-3419
▁listen	-3420
▁mention	-3421
▁existing	-3422
▁TV	-3423
▁charge	-3424
▁Ste	-3425
▁cere	-3426
▁yellow	-3427
cean	-3428
▁enh	-3429
▁German	-3430
▁prefer	-3431
▁opening	-3432
▁seven	-3433
▁widely	-3434
▁luck	-3435
▁Washing	-3436
▁kids	-3437
▁forget	-3438
▁boss	-3439
▁unto	-3440
▁Jesus	-3441
▁shr	-3442
urance	-3443
▁50	-3444
mar	-3445
▁exercise	-3446
ares	-3447
▁roll	-3448
▁described	-3449
▁fully	-3450
▁stream	-3451
▁none	-3452
▁plate	-3453
▁atmosp	-3454
▁config	-3455
▁average	-3456
▁corner	-3457
▁absor	-3458
▁income	-3459
ession	-3460
▁chair	-3461
▁Washington	-3462
era	-3463
▁princip	-3464
▁mail	-3465
▁race	-3466
▁crowd	-3467
▁skills	-3468
▁multiple	-3469
▁chief	-3470
uration	-3471
▁studied	-3472
ban	-3473
▁joint	-3474
▁reached	-3475
enn	-3476
onal	-3477
ipped	-3478
▁od	-3479
▁failed	-3480
adem	-3481
mission	-3482
ius	-3483
eless	-3484
tical	-3485
▁minim	-3486
▁ing	-3487
gency	-3488
▁Jack	-3489
▁killed	-3490
ils	-3491
gorithm	-3492
▁previous	-3493
▁spending	-3494
▁tom	-3495
▁club	-3496
▁factor	-3497
sec	-3498
omy	-3499
▁coop	-3500
▁plat	-3501
▁England	-3502
▁negative	-3503
semb	-3504
▁moon	-3505
▁wrote	-3506
▁respond	-3507
▁industrial	-3508
▁battle	-3509
▁knows	-3510
▁happen	-3511
▁learned	-3512
ship	-3513
▁neck	-3514
▁Republic	-3515
▁notice	-3516
ER	-3517
▁customer	-3518
ky	-3519
▁Mic	-3520
▁origin	-3521
▁consequ	-3522
▁shut	-3523
▁walked	-3524
▁helped	-3525
▁architect	-3526
▁phen	-3527
▁intellig	-3528
▁tail	-3529
action	-3530
▁flight	-3531
iveness	-3532
▁eating	-3533
olute	-3534
▁explain	-3535
▁wis	-3536
road	-3537
▁Africa	-3538
▁Internet	-3539
▁developing	-3540
▁Britain	-3541
ription	-3542
▁mountain	-3543
▁decre	-3544
▁climate	-3545
▁House	-3546
▁shock	-3547
atically	-3548
▁Americans	-3549
itc	-3550
▁release	-3551
▁objects	-3552
▁testing	-3553
onic	-3554
▁edge	-3555
▁images	-3556
▁interp	-3557
▁ideal	-3558
ghai	-3559
▁boat	-3560
▁calls	-3561
ervation	-3562
▁named	-3563
▁plastic	-3564
▁hyp	-3565
▁smooth	-3566
▁flat	-3567
▁pump	-3568
▁excell	-3569
▁unless	-3570
▁generation	-3571
▁broken	-3572
▁evening	-3573
▁rid	-3574
ino	-3575
▁Me	-3576
▁fab	-3577
▁throw	-3578
▁established	-3579
▁philos	-3580
▁receive	-3581
▁appearance	-3582
▁Med	-3583
▁forms	-3584
▁pig	-3585
▁aspect	-3586
oman	-3587
▁tim	-3588
▁primary	-3589
▁otherwise	-3590
▁Pal	-3591
▁steps	-3592
▁player	-3593
▁complic	-3594
▁conflic	-3595
idents	-3596
▁organization	-3597
▁joy	-3598
▁diet	-3599
▁caught	-3600
akers	-3601
ula	-3602
▁marriage	-3603
▁thou	-3604
▁liber	-3605
oles	-3606
▁coast	-3607
▁compar	-3608
cies	-3609
▁Cont	-3610
▁dial	-3611
▁pra	-3612
▁wel	-3613
▁worry	-3614
rel	-3615
▁statement	-3616
▁Ira	-3617
▁proposed	-3618
▁players	-3619
▁internal	-3620
▁seeing	-3621
▁responsible	-3622
▁monitor	-3623
▁leaving	-3624
▁believed	-3625
▁algorithm	-3626
▁band	-3627
▁planet	-3628
▁walking	-3629
▁brief	-3630
▁trouble	-3631
▁National	-3632
▁hole	-3633
▁meanwhile	-3634
osite	-3635
▁flex	-3636
▁Western	-3637
▁commercial	-3638
▁domestic	-3639
rapy	-3640
▁contains	-3641
▁Iraq	-3642
▁click	-3643
▁enemy	-3644
▁largest	-3645
iance	-3646
ception	-3647
aries	-3648
▁upper	-3649
ada	-3650
rage	-3651
right	-3652
iving	-3653
▁trip	-3654
▁helps	-3655
▁King	-3656
▁appreci	-3657
▁competition	-3658
▁habit	-3659
▁candid	-3660
▁limited	-3661
▁Sch	-3662
▁unw	-3663
▁prote	-3664
▁inform	-3665
▁Shanghai	-3666
▁negot	-3667
▁unable	-3668
▁wed	-3669
▁dram	-3670
▁hero	-3671
▁motor	-3672
▁taste	-3673
▁projects	-3674
▁distribution	-3675
▁benefits	-3676
▁principle	-3677
▁id	-3678
▁max	-3679
▁Char	-3680
▁Ab	-3681
▁nav	-3682
vent	-3683
▁Sec	-3684
▁fixed	-3685
ensity	-3686
▁healthy	-3687
asm	-3688
▁column	-3689
▁speaking	-3690
now	-3691
rical	-3692
▁lived	-3693
▁tests	-3694
▁severe	-3695
▁technical	-3696
▁mort	-3697
▁sche	-3698
▁reports	-3699
craft	-3700
▁familiar	-3701
▁placed	-3702
▁remind	-3703
▁challeng	-3704
rol	-3705
gent	-3706
▁belong	-3707
▁fields	-3708
▁ded	-3709
▁fed	-3710
▁expand	-3711
▁Per	-3712
▁thy	-3713
▁actual	-3714
▁flower	-3715
▁Bank	-3716
▁environmental	-3717
▁limit	-3718
▁starting	-3719
▁wit	-3720
▁mere	-3721
▁opin	-3722
eal	-3723
iger	-3724
▁cup	-3725
▁mel	-3726
▁larger	-3727
▁Cong	-3728
▁empt	-3729
▁Min	-3730
▁indu	-3731
▁crack	-3732
▁detect	-3733
▁god	-3734
▁remo	-3735
▁purpose	-3736
▁capacity	-3737
asty	-3738
▁components	-3739
oly	-3740
▁requires	-3741
oking	-3742
▁wheel	-3743
ressive	-3744
reed	-3745
▁restaur	-3746
rant	-3747
▁meat	-3748
eper	-3749
▁copy	-3750
▁scene	-3751
▁swim	-3752
▁numer	-3753
▁curren	-3754
▁forced	-3755
▁happiness	-3756
▁eventually	-3757
▁benefit	-3758
▁gain	-3759
▁games	-3760
esty	-3761
▁sor	-3762
▁discovered	-3763
▁jobs	-3764
tained	-3765
alt	-3766
▁destroy	-3767
▁accident	-3768
ctors	-3769
lymp	-3770
▁construct	-3771
nel	-3772
▁State	-3773
▁sides	-3774
▁assess	-3775
izes	-3776
▁imagine	-3777
▁setting	-3778
▁remark	-3779
▁holding	-3780
▁row	-3781
iring	-3782
▁sports	-3783
orge	-3784
▁minute	-3785
▁exchange	-3786
▁Fl	-3787
▁extremely	-3788
▁responsibility	-3789
▁formed	-3790
olic	-3791
water	-3792
▁earn	-3793
▁adult	-3794
▁serve	-3795
▁details	-3796
▁traffic	-3797
anch	-3798
▁Germany	-3799
▁seat	-3800
▁ther	-3801
ifying	-3802
▁sharp	-3803
▁alc	-3804
▁dut	-3805
▁bath	-3806
hu	-3807
wood	-3808
▁nar	-3809
▁rising	-3810
ented	-3811
▁Olymp	-3812
▁numbers	-3813
nes	-3814
▁resistance	-3815
▁East	-3816
▁mur	-3817
▁exactly	-3818
char	-3819
▁onto	-3820
▁interesting	-3821
▁names	-3822
lin	-3823
ales	-3824
▁freedom	-3825
▁presented	-3826
▁Ser	-3827
▁cart	-3828
ixt	-3829
▁tum	-3830
▁pray	-3831
▁instance	-3832
▁girls	-3833
▁thanks	-3834
▁radio	-3835
▁shad	-3836
▁raised	-3837
▁practical	-3838
▁enterprise	-3839
▁error	-3840
▁11	-3841
reet	-3842
house	-3843
▁newsp	-3844
▁cities	-3845
ML	-3846
▁Ms	-3847
▁citiz	-3848
▁output	-3849
etry	-3850
▁You	-3851
▁items	-3852
▁initial	-3853
▁location	-3854
raid	-3855
spect	-3856
▁recovery	-3857
▁furn	-3858
▁coffee	-3859
▁operations	-3860
▁France	-3861
▁planning	-3862
▁occup	-3863
▁Hu	-3864
▁kid	-3865
▁sav	-3866
▁valid	-3867
▁transform	-3868
ishing	-3869
▁relax	-3870
▁sexual	-3871
▁client	-3872
▁signal	-3873
itute	-3874
▁raise	-3875
respond	-3876
ounds	-3877
▁whom	-3878
▁Austral	-3879
▁plane	-3880
gic	-3881
aked	-3882
▁syn	-3883
▁reaction	-3884
▁ble	-3885
umin	-3886
▁colour	-3887
▁White	-3888
▁confidence	-3889
vest	-3890
▁closed	-3891
▁becoming	-3892
▁connection	-3893
▁webs	-3894
▁thoughts	-3895
▁appropriate	-3896
▁hall	-3897
▁vision	-3898
▁Am	-3899
eding	-3900
▁sick	-3901
▁essential	-3902
▁challenge	-3903
urer	-3904
▁correspond	-3905
iam	-3906
▁attrib	-3907
▁celebr	-3908
▁dinner	-3909
▁tiny	-3910
aul	-3911
▁vib	-3912
erate	-3913
▁Iran	-3914
mas	-3915
▁Bo	-3916
▁manner	-3917
▁background	-3918
▁flav	-3919
▁imper	-3920
▁youth	-3921
▁herself	-3922
▁strange	-3923
▁stability	-3924
▁determined	-3925
▁tick	-3926
▁smell	-3927
▁afraid	-3928
▁phenomen	-3929
ingu	-3930
▁tur	-3931
▁partner	-3932
▁fal	-3933
orous	-3934
▁actions	-3935
osure	-3936
▁mode	-3937
▁efficient	-3938
ext	-3939
▁storm	-3940
▁feelings	-3941
▁bacter	-3942
ae	-3943
▁san	-3944
▁Korea	-3945
▁phase	-3946
aly	-3947
ocol	-3948
▁letter	-3949
▁atmosphere	-3950
▁cab	-3951
▁fill	-3952
▁victim	-3953
▁push	-3954
▁vit	-3955
▁church	-3956
▁changing	-3957
▁wearing	-3958
udd	-3959
▁efficiency	-3960
▁tor	-3961
▁easier	-3962
▁remove	-3963
▁army	-3964
▁maxim	-3965
▁crim	-3966
ules	-3967
▁sympt	-3968
lder	-3969
▁stret	-3970
yal	-3971
rier	-3972
▁sin	-3973
▁web	-3974
▁synt	-3975
▁driving	-3976
bing	-3977
▁chann	-3978
acters	-3979
▁commit	-3980
▁cars	-3981
▁western	-3982
▁25	-3983
▁files	-3984
porary	-3985
▁excess	-3986
▁medicine	-3987
phone	-3988
▁apart	-3989
▁turns	-3990
▁presence	-3991
▁Dem	-3992
ortion	-3993
▁River	-3994
▁graph	-3995
▁agreement	-3996
▁16	-3997
▁mine	-3998
ache	-3999
racy	-4000
▁smaller	-4001
▁Bra	-4002
▁guy	-4003
▁Dep	-4004
▁laugh	-4005
▁En	-4006
▁neither	-4007
under	-4008
▁humans	-4009
▁contrast	-4010
▁watching	-4011
▁relatively	-4012
▁Mc	-4013
▁sed	-4014
▁prem	-4015
▁index	-4016
▁join	-4017
▁scientific	-4018
arant	-4019
▁realize	-4020
▁univers	-4021
▁standards	-4022
▁decades	-4023
raction	-4024
cop	-4025
▁Sat	-4026
▁additional	-4027
▁conven	-4028
▁apparent	-4029
▁emph	-4030
rehens	-4031
▁ax	-4032
iques	-4033
lex	-4034
▁sust	-4035
▁comment	-4036
ricult	-4037
▁drugs	-4038
▁fault	-4039
orter	-4040
▁stars	-4041
▁budget	-4042
▁overall	-4043
▁blind	-4044
▁urban	-4045
ror	-4046
▁beat	-4047
▁flood	-4048
▁creating	-4049
uing	-4050
▁tun	-4051
▁improved	-4052
aced	-4053
AR	-4054
off	-4055
▁blow	-4056
▁grew	-4057
▁tiss	-4058
▁component	-4059
▁Tai	-4060
▁sister	-4061
▁absolute	-4062
▁prospect	-4063
AS	-4064
▁parties	-4065
▁politic	-4066
▁rough	-4067
▁models	-4068
▁separate	-4069
▁pu	-4070
idden	-4071
gu	-4072
sts	-4073
▁assum	-4074
▁delic	-4075
▁sequ	-4076
orage	-4077
▁schools	-4078
▁height	-4079
▁pieces	-4080
▁reference	-4081
IN	-4082
gypt	-4083
▁vast	-4084
▁latest	-4085
▁authorities	-4086
▁bod	-4087
▁gentle	-4088
▁greatest	-4089
▁simpl	-4090
anged	-4091
▁finding	-4092
▁slightly	-4093
▁combination	-4094
▁prison	-4095
▁election	-4096
▁department	-4097
▁gro	-4098
▁minister	-4099
do	-4100
▁No	-4101
▁Egypt	-4102
▁signs	-4103
▁critical	-4104
▁stopped	-4105
▁currently	-4106
▁characters	-4107
ham	-4108
▁television	-4109
▁Indian	-4110
▁cutting	-4111
▁All	-4112
ancing	-4113
▁excellent	-4114
ray	-4115
▁ju	-4116
▁elim	-4117
▁located	-4118
zen	-4119
▁mole	-4120
▁rice	-4121
▁explore	-4122
▁replace	-4123
oked	-4124
▁rose	-4125
▁employees	-4126
▁couldn	-4127
▁bull	-4128
▁journal	-4129
▁brown	-4130
ogen	-4131
▁fif	-4132
▁amaz	-4133
▁mobile	-4134
istry	-4135
▁independent	-4136
▁revolution	-4137
▁Fed	-4138
▁Gl	-4139
▁chap	-4140
▁motion	-4141
▁satisf	-4142
▁conscious	-4143
▁therm	-4144
een	-4145
▁shoes	-4146
ompl	-4147
wan	-4148
gery	-4149
ructure	-4150
▁General	-4151
▁stro	-4152
outhern	-4153
▁digital	-4154
▁suggests	-4155
hered	-4156
▁breath	-4157
▁terror	-4158
▁inner	-4159
▁40	-4160
itis	-4161
▁platform	-4162
▁abst	-4163
▁noise	-4164
▁visual	-4165
▁leaf	-4166
rab	-4167
▁handle	-4168
▁wid	-4169
▁rail	-4170
ON	-4171
▁conver	-4172
▁tall	-4173
▁yield	-4174
▁resol	-4175
▁string	-4176
▁partners	-4177
inf	-4178
▁alcoh	-4179
▁rom	-4180
▁diseases	-4181
▁Ed	-4182
▁imposs	-4183
▁map	-4184
▁forth	-4185
▁treated	-4186
▁obvious	-4187
▁passion	-4188
▁guarant	-4189
▁agent	-4190
▁tears	-4191
olf	-4192
field	-4193
▁existence	-4194
▁Mrs	-4195
ogle	-4196
▁Party	-4197
▁goals	-4198
pective	-4199
gel	-4200
▁wet	-4201
▁calm	-4202
▁loved	-4203
▁sounds	-4204
ORD	-4205
▁assemb	-4206
▁trib	-4207
▁judge	-4208
▁offers	-4209
iration	-4210
▁belief	-4211
▁currency	-4212
rence	-4213
ipping	-4214
▁dynamic	-4215
▁Val	-4216
▁beg	-4217
▁moral	-4218
▁anx	-4219
▁David	-4220
▁included	-4221
▁chick	-4222
ulating	-4223
▁typical	-4224
▁salt	-4225
▁dollar	-4226
▁narrow	-4227
▁Mid	-4228
rim	-4229
▁hurt	-4230
time	-4231
▁mental	-4232
▁circumst	-4233
▁dangerous	-4234
▁hat	-4235
▁sugar	-4236
▁offered	-4237
▁bread	-4238
▁fert	-4239
▁Mich	-4240
▁legs	-4241
rep	-4242
▁west	-4243
▁tank	-4244
▁remote	-4245
agon	-4246
▁zone	-4247
▁recess	-4248
icon	-4249
▁Cor	-4250
▁ton	-4251
itely	-4252
ront	-4253
reen	-4254
▁mig	-4255
▁context	-4256
▁wire	-4257
▁birds	-4258
▁err	-4259
isation	-4260
gn	-4261
▁married	-4262
▁operating	-4263
▁evil	-4264
▁van	-4265
uster	-4266
▁miles	-4267
▁arrived	-4268
▁obst	-4269
▁concrete	-4270
nam	-4271
aser	-4272
▁LORD	-4273
▁agreed	-4274
▁upd	-4275
▁giant	-4276
▁quarter	-4277
▁adapt	-4278
▁aftern	-4279
▁Congress	-4280
ios	-4281
▁mood	-4282
▁Google	-4283
▁consumers	-4284
ugh	-4285
▁lie	-4286
▁keeping	-4287
▁collection	-4288
▁depart	-4289
▁village	-4290
▁philosoph	-4291
▁estim	-4292
rain	-4293
▁suit	-4294
▁thousand	-4295
▁consult	-4296
▁happens	-4297
▁stories	-4298
▁il	-4299
▁families	-4300
▁cott	-4301
igation	-4302
▁silver	-4303
▁engineering	-4304
bre	-4305
rie	-4306
▁breast	-4307
▁turning	-4308
eff	-4309
acle	-4310
▁rig	-4311
▁ves	-4312
▁Bush	-4313
more	-4314
itate	-4315
▁switch	-4316
0.	-4317
▁bare	-4318
▁cate	-4319
▁experts	-4320
▁gradually	-4321
▁billion	-4322
▁affected	-4323
ulous	-4324
▁driver	-4325
▁tradition	-4326
▁interested	-4327
▁pul	-4328
▁smoke	-4329
▁May	-4330
▁System	-4331
▁reduced	-4332
▁dism	-4333
▁guide	-4334
▁discussion	-4335
▁empty	-4336
▁virus	-4337
fall	-4338
▁cert	-4339
▁worse	-4340
▁nort	-4341
▁depth	-4342
▁published	-4343
▁fellow	-4344
▁transl	-4345
▁fundament	-4346
▁Ac	-4347
equ	-4348
▁restrict	-4349
uries	-4350
▁divers	-4351
▁pref	-4352
▁teeth	-4353
▁academ	-4354
▁occasion	-4355
▁Will	-4356
▁paint	-4357
▁shell	-4358
▁Street	-4359
▁walls	-4360
▁pictures	-4361
▁teachers	-4362
▁ocean	-4363
▁external	-4364
▁Christmas	-4365
▁libr	-4366
▁decide	-4367
▁prove	-4368
▁sorry	-4369
▁defined	-4370
▁adding	-4371
ES	-4372
hab	-4373
down	-4374
rees	-4375
▁drag	-4376
▁cryst	-4377
▁connected	-4378
▁grown	-4379
▁inject	-4380
▁subs	-4381
▁electro	-4382
▁administration	-4383
▁carefully	-4384
▁chain	-4385
entially	-4386
▁accompl	-4387
▁organiz	-4388
▁Mal	-4389
▁busy	-4390
▁pool	-4391
ocratic	-4392
▁resource	-4393
▁afternoon	-4394
cher	-4395
▁classes	-4396
▁frequency	-4397
▁techniques	-4398
▁Great	-4399
▁continuous	-4400
▁governments	-4401
▁pil	-4402
▁fool	-4403
▁behavi	-4404
▁advanced	-4405
▁discussed	-4406
▁Sun	-4407
▁false	-4408
▁13	-4409
▁owners	-4410
▁importance	-4411
▁dance	-4412
▁combined	-4413
▁wouldn	-4414
▁lies	-4415
▁suitable	-4416
▁policies	-4417
▁trick	-4418
▁medium	-4419
bur	-4420
▁mostly	-4421
▁audience	-4422
▁politics	-4423
born	-4424
▁Wall	-4425
▁east	-4426
▁consumer	-4427
▁ourselves	-4428
ey	-4429
usive	-4430
▁bridge	-4431
anted	-4432
inder	-4433
▁Sund	-4434
▁pulled	-4435
▁14	-4436
abor	-4437
▁tough	-4438
▁gather	-4439
▁effectively	-4440
▁Calif	-4441
ushing	-4442
▁finished	-4443
met	-4444
▁older	-4445
▁emphas	-4446
▁dollars	-4447
▁director	-4448
▁determination	-4449
▁hung	-4450
▁crime	-4451
▁decor	-4452
▁reven	-4453
▁default	-4454
▁university	-4455
▁Mus	-4456
▁depos	-4457
▁arrange	-4458
▁messages	-4459
▁profit	-4460
elf	-4461
▁emp	-4462
▁isol	-4463
▁tells	-4464
uce	-4465
▁gift	-4466
▁scar	-4467
▁proved	-4468
▁vessel	-4469
▁pin	-4470
NA	-4471
▁Stud	-4472
▁corporate	-4473
▁cas	-4474
ero	-4475
iform	-4476
▁pregn	-4477
▁Pre	-4478
icy	-4479
▁rank	-4480
▁guard	-4481
▁guess	-4482
ching	-4483
▁dipl	-4484
▁suppl	-4485
▁investigate	-4486
▁bought	-4487
▁possess	-4488
▁processes	-4489
▁impossible	-4490
orters	-4491
▁borrow	-4492
▁unfortun	-4493
▁conce	-4494
▁concerned	-4495
esh	-4496
▁El	-4497
▁kil	-4498
well	-4499
▁lit	-4500
▁journey	-4501
▁selling	-4502
▁released	-4503
▁supposed	-4504
▁violence	-4505
itchen	-4506
▁camera	-4507
▁deliver	-4508
▁expensive	-4509
▁Park	-4510
▁claims	-4511
▁factory	-4512
che	-4513
▁lad	-4514
▁via	-4515
irty	-4516
▁Russian	-4517
▁programs	-4518
ana	-4519
▁Ne	-4520
▁equal	-4521
▁lic	-4522
▁advice	-4523
▁opinion	-4524
▁showing	-4525
sect	-4526
ittee	-4527
▁bone	-4528
▁stem	-4529
▁reject	-4530
▁spokes	-4531
▁agricult	-4532
▁decade	-4533
▁fol	-4534
▁sites	-4535
▁continues	-4536
▁soldiers	-4537
▁frame	-4538
▁oblig	-4539
▁sources	-4540
▁firms	-4541
▁minor	-4542
▁attend	-4543
▁hundreds	-4544
▁interests	-4545
▁aid	-4546
▁funds	-4547
▁Christian	-4548
▁fer	-4549
▁intr	-4550
ocracy	-4551
▁motiv	-4552
▁storage	-4553
▁streets	-4554
▁increasingly	-4555
▁asc	-4556
▁illeg	-4557
▁depends	-4558
▁fighting	-4559
▁plays	-4560
tes	-4561
riend	-4562
▁religious	-4563
▁deeply	-4564
▁thread	-4565
▁interface	-4566
ker	-4567
▁Lib	-4568
apers	-4569
oured	-4570
▁pros	-4571
▁bless	-4572
▁truly	-4573
▁accomp	-4574
▁square	-4575
▁suggested	-4576
▁roof	-4577
▁input	-4578
▁photo	-4579
▁consumption	-4580
▁Phil	-4581
▁assign	-4582
▁devices	-4583
▁nations	-4584
▁increases	-4585
bles	-4586
▁tox	-4587
ocation	-4588
▁injury	-4589
▁welcome	-4590
ceed	-4591
ester	-4592
▁euro	-4593
▁flying	-4594
▁shaped	-4595
▁diam	-4596
▁ordinary	-4597
kin	-4598
▁Sm	-4599
▁exhib	-4600
▁confident	-4601
rum	-4602
▁fet	-4603
icity	-4604
▁toler	-4605
▁insist	-4606
▁volunt	-4607
ata	-4608
▁friendly	-4609
▁inflation	-4610
▁Em	-4611
osen	-4612
▁realized	-4613
ashed	-4614
▁kiss	-4615
▁legis	-4616
▁fabric	-4617
▁controlled	-4618
inet	-4619
▁She	-4620
▁fan	-4621
▁delay	-4622
▁fiber	-4623
▁escape	-4624
▁Pe	-4625
ours	-4626
▁Arab	-4627
▁volume	-4628
▁falling	-4629
▁vehicle	-4630
ded	-4631
▁dil	-4632
▁bell	-4633
▁dear	-4634
▁export	-4635
▁persist	-4636
icip	-4637
▁nose	-4638
uary	-4639
▁blog	-4640
▁seed	-4641
▁protein	-4642
▁International	-4643
▁kick	-4644
▁Tw	-4645
imately	-4646
ught	-4647
▁assets	-4648
▁illust	-4649
▁careful	-4650
▁cycle	-4651
▁compens	-4652
▁promote	-4653
▁Californ	-4654
▁conflict	-4655
▁obviously	-4656
ico	-4657
▁marketing	-4658
ael	-4659
erior	-4660
▁appoint	-4661
▁surprise	-4662
apse	-4663
▁bid	-4664
▁bub	-4665
▁smart	-4666
▁survey	-4667
▁witness	-4668
place	-4669
▁script	-4670
▁attitude	-4671
▁resc	-4672
▁boost	-4673
▁annual	-4674
▁identify	-4675
▁sets	-4676
▁putting	-4677
▁football	-4678
▁differences	-4679
▁investigation	-4680
AN	-4681
▁Ma	-4682
▁Mor	-4683
▁cow	-4684
ander	-4685
▁Lu	-4686
▁dreams	-4687
▁majority	-4688
▁evolution	-4689
ked	-4690
odes	-4691
race	-4692
▁Tom	-4693
▁worst	-4694
▁desk	-4695
▁interf	-4696
▁website	-4697
point	-4698
utation	-4699
▁senior	-4700
▁buildings	-4701
word	-4702
▁Day	-4703
▁vot	-4704
▁bigger	-4705
▁ru	-4706
grad	-4707
iments	-4708
▁heaven	-4709
▁referred	-4710
hus	-4711
▁lady	-4712
▁notes	-4713
▁wonderful	-4714
▁experimental	-4715
▁Mon	-4716
▁root	-4717
▁calling	-4718
▁administr	-4719
▁pill	-4720
▁alcohol	-4721
▁creation	-4722
▁millions	-4723
raw	-4724
▁Sunday	-4725
▁prompt	-4726
▁argument	-4727
▁encourage	-4728
asks	-4729
inding	-4730
▁expert	-4731
▁significance	-4732
▁implementation	-4733
▁ben	-4734
▁shift	-4735
▁views	-4736
▁arrest	-4737
▁desert	-4738
▁advance	-4739
▁kitchen	-4740
▁crop	-4741
▁prepar	-4742
▁moreover	-4743
▁patterns	-4744
▁foundation	-4745
ara	-4746
▁sector	-4747
▁transp	-4748
ms	-4749
▁defect	-4750
▁stable	-4751
bal	-4752
erves	-4753
night	-4754
ava	-4755
urt	-4756
▁proud	-4757
▁twice	-4758
▁brings	-4759
▁fib	-4760
▁relevant	-4761
iot	-4762
bert	-4763
▁198	-4764
inter	-4765
uated	-4766
▁fans	-4767
▁aer	-4768
andon	-4769
▁risks	-4770
▁trial	-4771
▁landsc	-4772
▁mission	-4773
▁surgery	-4774
▁favorite	-4775
▁cream	-4776
▁explos	-4777
▁telling	-4778
isher	-4779
iverse	-4780
▁aircraft	-4781
▁repeated	-4782
▁era	-4783
▁vacc	-4784
▁trig	-4785
▁facing	-4786
entional	-4787
▁typically	-4788
▁Conf	-4789
▁hunt	-4790
▁faces	-4791
ishment	-4792
▁extract	-4793
▁managed	-4794
▁alternative	-4795
ya	-4796
▁mixed	-4797
isp	-4798
▁Hong	-4799
▁butter	-4800
▁emergency	-4801
▁Sam	-4802
▁capable	-4803
▁cos	-4804
▁orient	-4805
ulations	-4806
▁communic	-4807
eline	-4808
▁tube	-4809
▁skill	-4810
▁tissue	-4811
▁Pol	-4812
▁alle	-4813
▁prol	-4814
▁filter	-4815
▁perman	-4816
▁Sen	-4817
ighter	-4818
▁border	-4819
▁odd	-4820
▁Taiwan	-4821
ait	-4822
▁feels	-4823
▁waves	-4824
▁obtained	-4825
hang	-4826
▁spoke	-4827
▁talks	-4828
▁citizens	-4829
ogue	-4830
▁fluid	-4831
▁asking	-4832
▁documents	-4833
arsh	-4834
▁teach	-4835
▁individuals	-4836
▁obtain	-4837
▁photograph	-4838
cles	-4839
▁moist	-4840
▁disappoint	-4841
▁alt	-4842
▁bomb	-4843
standing	-4844
▁insurance	-4845
oty	-4846
▁unus	-4847
▁solar	-4848
▁margin	-4849
▁entered	-4850
▁analyzed	-4851
celer	-4852
ruption	-4853
▁cultiv	-4854
▁nearby	-4855
▁loud	-4856
▁invent	-4857
▁recommend	-4858
alle	-4859
▁chest	-4860
▁tired	-4861
▁symptoms	-4862
▁lux	-4863
▁eggs	-4864
▁solve	-4865
▁underst	-4866
▁ped	-4867
▁hill	-4868
▁kinds	-4869
▁carrying	-4870
▁hem	-4871
rog	-4872
▁owner	-4873
▁causing	-4874
▁Paul	-4875
▁Port	-4876
▁runs	-4877
▁horiz	-4878
▁procedure	-4879
aud	-4880
osal	-4881
rene	-4882
▁Asian	-4883
zhou	-4884
▁promot	-4885
▁theore	-4886
▁formation	-4887
▁abandon	-4888
▁Tur	-4889
▁coat	-4890
▁attacks	-4891
▁painting	-4892
aks	-4893
▁Des	-4894
▁gall	-4895
▁util	-4896
▁parameters	-4897
▁thee	-4898
▁formal	-4899
▁trading	-4900
▁characteristic	-4901
▁finish	-4902
▁tomorrow	-4903
▁remained	-4904
▁infection	-4905
▁instrument	-4906
lying	-4907
▁broke	-4908
▁multi	-4909
▁Mad	-4910
▁lots	-4911
▁discover	-4912
▁improvement	-4913
▁Ag	-4914
▁Pak	-4915
▁bask	-4916
▁batter	-4917
▁powder	-4918
▁repair	-4919
▁Trans	-4920
icial	-4921
▁photos	-4922
▁besides	-4923
▁diagnosis	-4924
▁prime	-4925
▁driven	-4926
▁comfortable	-4927
▁Ant	-4928
▁sample	-4929
▁gate	-4930
▁strict	-4931
▁spin	-4932
▁till	-4933
mitted	-4934
▁rural	-4935
▁honest	-4936
▁forever	-4937
▁watched	-4938
▁describe	-4939
▁specified	-4940
haust	-4941
▁boys	-4942
▁teen	-4943
▁contem	-4944
▁suffering	-4945
▁vul	-4946
agues	-4947
uable	-4948
▁surf	-4949
▁drinking	-4950
▁mountains	-4951
▁sensitive	-4952
gged	-4953
▁Micro	-4954
▁rational	-4955
▁hide	-4956
rows	-4957
▁housing	-4958
▁package	-4959
can	-4960
▁It	-4961
▁nom	-4962
▁cheap	-4963
▁authority	-4964
▁conversation	-4965
▁Budd	-4966
▁historical	-4967
▁sufficient	-4968
▁Mex	-4969
▁pad	-4970
iture	-4971
▁launch	-4972
▁conference	-4973
asp	-4974
▁Afgh	-4975
▁Miss	-4976
▁golden	-4977
▁glad	-4978
▁schol	-4979
▁excl	-4980
▁proof	-4981
▁announced	-4982
▁businesses	-4983
▁vig	-4984
▁expans	-4985
▁interact	-4986
▁struggle	-4987
then	-4988
rible	-4989
▁lawy	-4990
▁colon	-4991
▁advent	-4992
▁diplom	-4993
▁Union	-4994
▁newspaper	-4995
▁leads	-4996
▁extent	-4997
▁du	-4998
ette	-4999
lessly	-5000
▁homes	-5001
▁lying	-5002
▁begins	-5003
▁constant	-5004
▁revealed	-5005
▁spiritual	-5006
▁literature	-5007
▁Che	-5008
▁usual	-5009
▁yester	-5010
▁passing	-5011
▁surprised	-5012
▁My	-5013
▁tow	-5014
▁champ	-5015
▁hopes	-5016
▁buying	-5017
▁wedding	-5018
▁restaurant	-5019
asy	-5020
husi	-5021
▁guid	-5022
▁recall	-5023
▁removed	-5024
▁emotional	-5025
aming	-5026
▁coord	-5027
▁regions	-5028
▁conclud	-5029
▁Pakistan	-5030
▁distinct	-5031
▁truck	-5032
▁UK	-5033
▁Apple	-5034
▁angry	-5035
▁honey	-5036
▁enthusi	-5037
▁massive	-5038
▁nurs	-5039
▁ended	-5040
ica	-5041
▁mad	-5042
▁sees	-5043
▁waters	-5044
▁allowing	-5045
▁California	-5046
ses	-5047
▁pit	-5048
pet	-5049
▁gri	-5050
▁nit	-5051
inent	-5052
▁sport	-5053
ologies	-5054
▁courage	-5055
▁experienced	-5056
lands	-5057
▁fant	-5058
▁starts	-5059
▁farmers	-5060
▁entertain	-5061
ellect	-5062
▁bottle	-5063
▁faster	-5064
▁occurs	-5065
▁suffer	-5066
aze	-5067
▁meal	-5068
▁doctors	-5069
▁uniform	-5070
▁intended	-5071
▁tends	-5072
▁finger	-5073
inger	-5074
itors	-5075
▁opposite	-5076
▁electronic	-5077
▁Mil	-5078
▁craft	-5079
▁pleasure	-5080
▁dish	-5081
▁organic	-5082
▁performed	-5083
exp	-5084
▁II	-5085
▁Red	-5086
▁anger	-5087
▁creative	-5088
▁comprehens	-5089
▁raw	-5090
▁served	-5091
▁enhance	-5092
ateral	-5093
▁Afghan	-5094
▁promise	-5095
rot	-5096
mber	-5097
▁duty	-5098
▁spell	-5099
ployment	-5100
▁decisions	-5101
▁bodies	-5102
▁shared	-5103
▁Wang	-5104
▁sole	-5105
▁fract	-5106
▁knock	-5107
▁Canada	-5108
▁picked	-5109
▁shadow	-5110
▁interpret	-5111
▁yesterday	-5112
▁concerns	-5113
▁opposition	-5114
▁simulation	-5115
▁Mond	-5116
▁aren	-5117
encies	-5118
▁wound	-5119
▁Friday	-5120
▁ack	-5121
roduct	-5122
▁frequently	-5123
roll	-5124
▁Coun	-5125
ologist	-5126
aret	-5127
▁grav	-5128
▁stom	-5129
▁clock	-5130
▁honor	-5131
▁George	-5132
▁unk	-5133
▁clouds	-5134
▁houses	-5135
▁offering	-5136
amin	-5137
▁elev	-5138
▁lights	-5139
▁regist	-5140
▁acts	-5141
▁fold	-5142
▁Michael	-5143
com	-5144
▁circuit	-5145
▁bon	-5146
▁acknow	-5147
▁accepted	-5148
▁ash	-5149
▁Govern	-5150
▁merely	-5151
▁executive	-5152
ID	-5153
▁Dyn	-5154
▁mac	-5155
▁nine	-5156
▁magic	-5157
▁grace	-5158
▁channel	-5159
▁innovation	-5160
arn	-5161
▁Sea	-5162
▁brill	-5163
▁manif	-5164
▁discip	-5165
▁haven	-5166
▁hardly	-5167
▁holiday	-5168
▁possibility	-5169
▁relationships	-5170
athy	-5171
▁Air	-5172
med	-5173
▁mathem	-5174
▁treas	-5175
▁consid	-5176
▁prepare	-5177
rid	-5178
▁flag	-5179
▁fulf	-5180
▁hyper	-5181
▁debate	-5182
▁acceler	-5183
▁matters	-5184
▁pip	-5185
▁neut	-5186
▁sustain	-5187
▁leadership	-5188
orough	-5189
▁initi	-5190
▁explan	-5191
▁whenever	-5192
▁dogs	-5193
▁insert	-5194
▁burning	-5195
▁delight	-5196
▁manufacturing	-5197
▁ven	-5198
icious	-5199
▁moves	-5200
▁African	-5201
▁greatly	-5202
▁knowing	-5203
▁southern	-5204
▁Mo	-5205
▁angle	-5206
▁household	-5207
▁mud	-5208
▁ske	-5209
▁unre	-5210
ixture	-5211
▁overse	-5212
▁helping	-5213
stone	-5214
▁Mary	-5215
▁Prov	-5216
▁corn	-5217
▁charm	-5218
▁email	-5219
▁plain	-5220
▁retail	-5221
▁incor	-5222
▁agency	-5223
▁1.	-5224
enger	-5225
▁intellect	-5226
▁Law	-5227
▁clients	-5228
▁options	-5229
▁examples	-5230
▁uncertain	-5231
za	-5232
rous	-5233
▁sale	-5234
▁shopping	-5235
▁cooperation	-5236
imp	-5237
olly	-5238
▁Sing	-5239
▁domin	-5240
unction	-5241
▁taught	-5242
▁mistake	-5243
pes	-5244
▁hun	-5245
▁sacr	-5246
▁tact	-5247
▁tong	-5248
▁title	-5249
issions	-5250
▁universe	-5251
▁everybody	-5252
ari	-5253
▁circumstances	-5254
aph	-5255
▁ham	-5256
▁vari	-5257
▁blank	-5258
▁troops	-5259
▁Australia	-5260
▁colleagues	-5261
▁evaluation	-5262
IT	-5263
enth	-5264
▁hearing	-5265
▁noticed	-5266
▁records	-5267
▁ride	-5268
▁weapons	-5269
▁mechanical	-5270
oral	-5271
▁Jew	-5272
▁magaz	-5273
▁possibly	-5274
omic	-5275
▁gal	-5276
eping	-5277
▁hidden	-5278
▁instit	-5279
▁dropped	-5280
▁genetic	-5281
▁missing	-5282
▁attached	-5283
▁satisfact	-5284
▁perspective	-5285
▁scr	-5286
icing	-5287
▁abroad	-5288
▁Jan	-5289
▁plenty	-5290
▁earthqu	-5291
▁turb	-5292
isters	-5293
▁lunch	-5294
▁molec	-5295
▁Dan	-5296
▁intelligence	-5297
▁gear	-5298
▁precise	-5299
oot	-5300
▁Im	-5301
▁ath	-5302
orial	-5303
▁categ	-5304
▁influen	-5305
▁previously	-5306
uits	-5307
▁Ber	-5308
▁voc	-5309
▁Gold	-5310
▁negoti	-5311
▁finance	-5312
▁foods	-5313
▁seeking	-5314
▁indicate	-5315
▁recession	-5316
gies	-5317
▁stir	-5318
▁beach	-5319
▁Monday	-5320
▁entirely	-5321
▁UN	-5322
agger	-5323
alysis	-5324
stream	-5325
▁units	-5326
▁muscle	-5327
tion	-5328
▁Soc	-5329
▁normally	-5330
▁explained	-5331
▁composition	-5332
▁tot	-5333
▁High	-5334
urally	-5335
▁Black	-5336
▁accum	-5337
▁cotton	-5338
▁visible	-5339
aneous	-5340
▁centre	-5341
0,	-5342
▁laid	-5343
▁vote	-5344
▁stomach	-5345
▁Ken	-5346
▁Mart	-5347
▁ends	-5348
▁figures	-5349
going	-5350
▁pages	-5351
▁drawing	-5352
▁criminal	-5353
▁disaster	-5354
▁seriously	-5355
▁colors	-5356
▁dimens	-5357
▁delivery	-5358
izer	-5359
rast	-5360
tery	-5361
▁wise	-5362
estival	-5363
tenance	-5364
▁infect	-5365
▁analysts	-5366
▁fundamental	-5367
▁pipe	-5368
▁wisdom	-5369
▁defense	-5370
▁observed	-5371
▁printing	-5372
oir	-5373
fast	-5374
▁Cap	-5375
▁eleg	-5376
▁wake	-5377
▁Water	-5378
▁frust	-5379
erative	-5380
lock	-5381
▁closer	-5382
▁stands	-5383
yr	-5384
umber	-5385
▁therapy	-5386
▁politicians	-5387
rogen	-5388
▁hell	-5389
▁alarm	-5390
▁chapter	-5391
▁phenomenon	-5392
tic	-5393
anda	-5394
nder	-5395
▁wash	-5396
▁reasonable	-5397
▁enterprises	-5398
rect	-5399
rian	-5400
▁His	-5401
▁defe	-5402
▁Italy	-5403
▁properly	-5404
▁structures	-5405
ifts	-5406
▁Fin	-5407
▁wra	-5408
allow	-5409
olt	-5410
▁closely	-5411
▁largely	-5412
▁complain	-5413
▁automatically	-5414
▁unfortunately	-5415
inity	-5416
▁shirt	-5417
▁astron	-5418
IC	-5419
▁highest	-5420
▁believes	-5421
▁democracy	-5422
▁providing	-5423
▁scan	-5424
▁afford	-5425
zil	-5426
wide	-5427
▁tempt	-5428
▁incident	-5429
▁SO	-5430
▁ment	-5431
▁Paris	-5432
▁owned	-5433
▁rapidly	-5434
och	-5435
▁teams	-5436
▁fourth	-5437
▁exhaust	-5438
▁neighbor	-5439
▁selected	-5440
!!	-5441
▁steam	-5442
▁button	-5443
eer	-5444
▁dow	-5445
irect	-5446
▁whis	-5447
▁tasks	-5448
▁topic	-5449
▁holds	-5450
▁cleaning	-5451
▁oxy	-5452
icated	-5453
▁acute	-5454
▁pollution	-5455
▁faced	-5456
▁refused	-5457
▁elder	-5458
▁William	-5459
▁clothing	-5460
▁visitors	-5461
▁lamp	-5462
▁thinks	-5463
lets	-5464
▁cig	-5465
▁nerv	-5466
▁reward	-5467
▁weekend	-5468
▁selection	-5469
▁challenges	-5470
▁opportunities	-5471
enses	-5472
▁Prof	-5473
▁identity	-5474
hent	-5475
erson	-5476
▁Yang	-5477
▁nobody	-5478
▁poison	-5479
▁stored	-5480
usal	-5481
▁spark	-5482
▁branch	-5483
▁shel	-5484
▁aside	-5485
▁Brazil	-5486
▁justice	-5487
▁beam	-5488
▁tooth	-5489
▁native	-5490
▁talent	-5491
▁mentioned	-5492
andom	-5493
▁cards	-5494
▁forgot	-5495
▁fasc	-5496
▁hate	-5497
▁Isl	-5498
ework	-5499
▁configuration	-5500
vis	-5501
ificial	-5502
▁Department	-5503
hi	-5504
▁bat	-5505
▁persu	-5506
▁radiation	-5507
▁examination	-5508
▁heads	-5509
▁San	-5510
▁disturb	-5511
▁federal	-5512
▁returns	-5513
ett	-5514
▁twenty	-5515
▁superior	-5516
▁occurred	-5517
▁architecture	-5518
irst	-5519
▁evol	-5520
▁format	-5521
▁intense	-5522
▁bacteria	-5523
▁valuable	-5524
▁maintenance	-5525
cks	-5526
▁Jer	-5527
uations	-5528
▁Korean	-5529
▁secure	-5530
▁entr	-5531
▁inev	-5532
▁dressed	-5533
▁jack	-5534
▁rect	-5535
rates	-5536
▁compound	-5537
▁rent	-5538
▁begun	-5539
▁completed	-5540
bits	-5541
▁stab	-5542
▁alive	-5543
▁regional	-5544
osc	-5545
itter	-5546
icide	-5547
oom	-5548
▁sod	-5549
verty	-5550
▁Mark	-5551
▁ears	-5552
▁loose	-5553
▁withd	-5554
aded	-5555
chron	-5556
▁Mount	-5557
▁writer	-5558
▁principles	-5559
EN	-5560
▁tone	-5561
usions	-5562
▁observe	-5563
▁poverty	-5564
▁warning	-5565
▁managers	-5566
▁identified	-5567
▁personality	-5568
ago	-5569
ums	-5570
▁experiences	-5571
osph	-5572
▁2008	-5573
▁powers	-5574
▁abstract	-5575
▁internet	-5576
iao	-5577
roc	-5578
raint	-5579
▁ster	-5580
▁Group	-5581
▁planned	-5582
auc	-5583
iest	-5584
▁rum	-5585
▁lake	-5586
itative	-5587
▁landscape	-5588
▁Hy	-5589
▁rod	-5590
▁incl	-5591
▁chicken	-5592
▁convenient	-5593
▁rab	-5594
▁engage	-5595
▁session	-5596
▁criticism	-5597
▁EU	-5598
▁wing	-5599
▁surprising	-5600
▁Wed	-5601
▁mild	-5602
▁linked	-5603
▁trem	-5604
▁renew	-5605
▁shoulder	-5606
▁significantly	-5607
rome	-5608
▁Pat	-5609
▁pace	-5610
▁conserv	-5611
▁accurate	-5612
▁definition	-5613
▁measurement	-5614
▁chosen	-5615
▁insect	-5616
▁divided	-5617
▁philosophy	-5618
▁reputation	-5619
etary	-5620
▁favour	-5621
▁refere	-5622
▁prosper	-5623
▁myst	-5624
▁drawn	-5625
▁achieved	-5626
ulus	-5627
▁scheme	-5628
▁routine	-5629
BC	-5630
▁plus	-5631
atical	-5632
▁struck	-5633
▁evaluate	-5634
ED	-5635
▁enorm	-5636
▁circle	-5637
▁containing	-5638
▁60	-5639
▁Ham	-5640
▁Int	-5641
▁Inst	-5642
▁inher	-5643
▁victory	-5644
▁controls	-5645
EC	-5646
mes	-5647
▁Atl	-5648
▁Mod	-5649
▁functions	-5650
▁gray	-5651
▁surely	-5652
▁pointed	-5653
▁contents	-5654
▁complicated	-5655
ford	-5656
▁machines	-5657
▁residents	-5658
▁monitoring	-5659
▁manufacturer	-5660
ls	-5661
oil	-5662
ecess	-5663
▁dict	-5664
▁laun	-5665
▁noted	-5666
▁unusual	-5667
▁measured	-5668
▁romantic	-5669
▁substant	-5670
▁Commun	-5671
▁estate	-5672
▁random	-5673
▁signed	-5674
mony	-5675
soft	-5676
cture	-5677
▁grain	-5678
▁Tre	-5679
▁silk	-5680
▁expressed	-5681
▁institutions	-5682
ste	-5683
angle	-5684
▁inqu	-5685
▁pocket	-5686
▁fingers	-5687
▁Bur	-5688
▁Dis	-5689
▁tip	-5690
▁sheet	-5691
▁desper	-5692
▁mirror	-5693
▁fishing	-5694
▁letters	-5695
cont	-5696
▁For	-5697
▁Span	-5698
▁buff	-5699
▁prost	-5700
▁basket	-5701
▁ingred	-5702
▁exception	-5703
▁poem	-5704
▁immig	-5705
▁incred	-5706
▁authent	-5707
▁chronic	-5708
▁decline	-5709
▁maximum	-5710
▁sentence	-5711
▁understood	-5712
▁tab	-5713
▁lone	-5714
▁accompan	-5715
▁Ben	-5716
▁dynam	-5717
▁chocol	-5718
han	-5719
wing	-5720
athered	-5721
▁instant	-5722
▁consists	-5723
▁Microsoft	-5724
▁listening	-5725
▁strengthen	-5726
▁enf	-5727
▁silence	-5728
▁PC	-5729
▁gir	-5730
▁lift	-5731
▁particles	-5732
ller	-5733
charge	-5734
▁saving	-5735
▁telephone	-5736
uild	-5737
▁reducing	-5738
▁solutions	-5739
▁rarely	-5740
▁gap	-5741
▁org	-5742
▁Tues	-5743
▁outer	-5744
▁remem	-5745
▁oxygen	-5746
gence	-5747
▁laser	-5748
▁marked	-5749
▁concentration	-5750
▁innoc	-5751
▁losing	-5752
▁leather	-5753
▁24	-5754
▁Reg	-5755
▁strike	-5756
▁exposure	-5757
ading	-5758
ourse	-5759
▁domain	-5760
▁emotion	-5761
▁officer	-5762
▁rhy	-5763
▁sink	-5764
▁territ	-5765
▁detection	-5766
AP	-5767
omet	-5768
gl	-5769
▁oppon	-5770
liament	-5771
▁defend	-5772
▁illness	-5773
▁producing	-5774
how	-5775
▁vehicles	-5776
▁childhood	-5777
uk	-5778
ria	-5779
utch	-5780
▁lau	-5781
▁chart	-5782
▁profession	-5783
zer	-5784
▁regime	-5785
▁relation	-5786
▁electrical	-5787
▁electricity	-5788
illa	-5789
onna	-5790
▁unem	-5791
▁Roman	-5792
▁talked	-5793
▁Italian	-5794
▁focused	-5795
▁library	-5796
▁virtual	-5797
▁fu	-5798
▁Cam	-5799
▁adopted	-5800
▁advertising	-5801
▁fier	-5802
▁keeps	-5803
▁mouse	-5804
▁disappear	-5805
▁Brown	-5806
▁tested	-5807
▁payment	-5808
▁smoking	-5809
▁findings	-5810
▁suffered	-5811
inton	-5812
▁Tuesday	-5813
▁exposed	-5814
▁expansion	-5815
min	-5816
▁Aut	-5817
▁asp	-5818
erent	-5819
▁lean	-5820
▁lung	-5821
▁bearing	-5822
▁lips	-5823
▁thro	-5824
▁equival	-5825
▁academic	-5826
▁emerging	-5827
▁studying	-5828
▁preparation	-5829
▁cock	-5830
▁quot	-5831
▁fright	-5832
▁generated	-5833
roph	-5834
▁Pac	-5835
▁symp	-5836
▁grade	-5837
▁constantly	-5838
amber	-5839
arrass	-5840
▁artist	-5841
▁windows	-5842
▁distingu	-5843
ili	-5844
othe	-5845
▁Greek	-5846
▁banking	-5847
▁x	-5848
illy	-5849
what	-5850
▁lob	-5851
▁generate	-5852
▁magnetic	-5853
▁Bro	-5854
▁depending	-5855
nown	-5856
▁cub	-5857
▁gene	-5858
▁rooms	-5859
▁framework	-5860
ns	-5861
coming	-5862
▁worried	-5863
▁purchase	-5864
▁embarrass	-5865
▁Kong	-5866
▁antib	-5867
▁reinf	-5868
▁stuck	-5869
▁wings	-5870
▁Greece	-5871
▁supported	-5872
▁answ	-5873
▁volt	-5874
▁convin	-5875
▁manip	-5876
▁thorough	-5877
▁represents	-5878
▁Net	-5879
▁cyl	-5880
▁cord	-5881
▁tens	-5882
▁James	-5883
▁Sim	-5884
▁Const	-5885
▁northern	-5886
▁ink	-5887
wered	-5888
▁tort	-5889
▁Muslim	-5890
▁harder	-5891
▁rescue	-5892
▁creates	-5893
▁religion	-5894
▁everywhere	-5895
ona	-5896
▁eg	-5897
▁hanging	-5898
▁brilliant	-5899
mate	-5900
▁outs	-5901
▁fears	-5902
▁shout	-5903
▁fertil	-5904
▁relief	-5905
▁vel	-5906
▁cheer	-5907
▁genes	-5908
▁autumn	-5909
▁joined	-5910
▁21	-5911
▁Year	-5912
▁pink	-5913
▁valve	-5914
▁handed	-5915
▁detailed	-5916
▁Hen	-5917
▁logic	-5918
▁overw	-5919
▁confirmed	-5920
▁naturally	-5921
▁adds	-5922
▁downt	-5923
▁Wednes	-5924
▁dy	-5925
▁unb	-5926
▁guest	-5927
▁improving	-5928
▁absolutely	-5929
▁apparently	-5930
▁depression	-5931
▁facilities	-5932
▁transmission	-5933
IS	-5934
sen	-5935
utter	-5936
▁recru	-5937
▁Olympic	-5938
▁accuracy	-5939
....	-5940
berg	-5941
iece	-5942
urable	-5943
▁Satur	-5944
▁acting	-5945
▁je	-5946
▁discl	-5947
▁description	-5948
box	-5949
▁loan	-5950
rating	-5951
▁presc	-5952
▁sheep	-5953
▁fallen	-5954
▁degrees	-5955
▁province	-5956
▁unn	-5957
ifier	-5958
print	-5959
▁recover	-5960
▁immediate	-5961
▁temporary	-5962
▁phr	-5963
arity	-5964
▁sque	-5965
▁Act	-5966
▁Green	-5967
▁seconds	-5968
▁assembly	-5969
▁somewhat	-5970
▁resulting	-5971
inery	-5972
▁Techn	-5973
▁advoc	-5974
▁orders	-5975
▁Wednesday	-5976
▁earthquake	-5977
uity	-5978
▁finds	-5979
▁sword	-5980
▁dealing	-5981
atin	-5982
zzle	-5983
▁nic	-5984
▁cuts	-5985
edy	-5986
berry	-5987
▁younger	-5988
▁friendship	-5989
itud	-5990
pless	-5991
▁Cons	-5992
▁eager	-5993
▁greet	-5994
▁issued	-5995
▁scenar	-5996
▁practices	-5997
▁1,	-5998
▁charges	-5999
▁fisc	-6000
▁hence	-6001
▁score	-6002
▁survive	-6003
▁consequences	-6004
esc	-6005
iner	-6006
▁Fore	-6007
▁nervous	-6008
▁readers	-6009
▁cav	-6010
▁hast	-6011
▁advantages	-6012
ulator	-6013
▁falls	-6014
add	-6015
▁shoot	-6016
▁theme	-6017
▁Council	-6018
▁darkness	-6019
▁resolution	-6020
▁experiments	-6021
udge	-6022
zing	-6023
▁myth	-6024
herent	-6025
▁exists	-6026
▁victims	-6027
▁Afghanistan	-6028
▁Cup	-6029
▁Rich	-6030
▁flash	-6031
▁likes	-6032
▁wooden	-6033
▁operate	-6034
▁profile	-6035
▁manifest	-6036
▁comparison	-6037
▁institution	-6038
ras	-6039
▁ought	-6040
▁recip	-6041
▁School	-6042
▁subsid	-6043
▁weapon	-6044
▁accounts	-6045
▁electron	-6046
itory	-6047
▁Wind	-6048
▁bold	-6049
▁puts	-6050
▁entry	-6051
▁unlikely	-6052
▁ratio	-6053
▁Him	-6054
▁Saturday	-6055
rastructure	-6056
▁worker	-6057
▁illegal	-6058
▁OK	-6059
▁cher	-6060
▁gram	-6061
▁stup	-6062
▁Spain	-6063
▁unexp	-6064
oric	-6065
atell	-6066
▁bitter	-6067
▁flexible	-6068
▁supplies	-6069
power	-6070
▁gang	-6071
▁saved	-6072
ographic	-6073
▁transaction	-6074
quar	-6075
▁irr	-6076
▁undert	-6077
ilateral	-6078
▁commonly	-6079
▁behaviour	-6080
lete	-6081
▁Harry	-6082
▁paying	-6083
▁Da	-6084
bled	-6085
ifice	-6086
organ	-6087
▁Inter	-6088
▁beneath	-6089
▁involve	-6090
▁parameter	-6091
▁rib	-6092
▁lucky	-6093
▁schem	-6094
oes	-6095
▁tap	-6096
▁parad	-6097
▁appeal	-6098
▁aspects	-6099
▁recognition	-6100
▁How	-6101
▁Sol	-6102
▁weld	-6103
▁zero	-6104
▁singing	-6105
▁highlight	-6106
west	-6107
pling	-6108
▁Pacific	-6109
▁killing	-6110
▁numerous	-6111
▁consciousness	-6112
alf	-6113
▁fate	-6114
▁route	-6115
▁commod	-6116
▁Company	-6117
▁belt	-6118
▁demands	-6119
▁ordered	-6120
▁unknown	-6121
▁regulation	-6122
▁Sept	-6123
▁guys	-6124
▁marry	-6125
▁fiscal	-6126
▁excited	-6127
▁mixture	-6128
▁vegetables	-6129
▁horm	-6130
▁Sil	-6131
grade	-6132
▁pron	-6133
ulsion	-6134
▁Nor	-6135
▁Sov	-6136
▁pond	-6137
▁abund	-6138
▁argue	-6139
▁facts	-6140
▁raising	-6141
▁suspect	-6142
▁arranged	-6143
▁extended	-6144
▁Mac	-6145
elled	-6146
ishes	-6147
ograp	-6148
▁Guang	-6149
▁consc	-6150
▁define	-6151
▁competitive	-6152
▁mos	-6153
▁award	-6154
▁portion	-6155
▁subsequ	-6156
▁chocolate	-6157
AL	-6158
otted	-6159
▁crew	-6160
▁Soviet	-6161
▁birthday	-6162
▁unexpected	-6163
▁comments	-6164
▁guarantee	-6165
▁Off	-6166
rition	-6167
▁array	-6168
▁flour	-6169
▁gently	-6170
▁amazing	-6171
▁commitment	-6172
▁regardless	-6173
cul	-6174
ris	-6175
rix	-6176
arer	-6177
elling	-6178
▁fortun	-6179
▁guests	-6180
▁AN	-6181
▁tie	-6182
▁pharm	-6183
▁collapse	-6184
▁describes	-6185
▁Lou	-6186
earch	-6187
roscop	-6188
▁label	-6189
▁stronger	-6190
▁apartment	-6191
▁organizations	-6192
emic	-6193
▁DNA	-6194
▁physic	-6195
▁winning	-6196
ogy	-6197
▁Mexico	-6198
▁disorder	-6199
▁profound	-6200
▁definitely	-6201
omin	-6202
▁unh	-6203
▁explo	-6204
▁ships	-6205
▁songs	-6206
▁subjects	-6207
▁Del	-6208
▁disk	-6209
▁loyal	-6210
▁entrep	-6211
▁density	-6212
▁basically	-6213
▁attractive	-6214
▁intellectual	-6215
onym	-6216
▁Grand	-6217
▁permanent	-6218
▁cha	-6219
▁dad	-6220
▁ancest	-6221
▁reliable	-6222
▁considering	-6223
oster	-6224
▁brush	-6225
▁chrom	-6226
▁losses	-6227
▁prosec	-6228
▁Central	-6229
▁classic	-6230
▁critics	-6231
icked	-6232
▁March	-6233
▁penal	-6234
▁candidate	-6235
▁trop	-6236
▁silent	-6237
▁extraord	-6238
▁transc	-6239
▁announce	-6240
OM	-6241
oop	-6242
omas	-6243
▁links	-6244
▁profits	-6245
▁procedures	-6246
sis	-6247
abet	-6248
▁June	-6249
anches	-6250
▁advis	-6251
cel	-6252
▁ease	-6253
▁mamm	-6254
lectric	-6255
▁beside	-6256
▁tender	-6257
▁harvest	-6258
gs	-6259
▁grab	-6260
ibilities	-6261
▁sharehold	-6262
▁artificial	-6263
▁difficulty	-6264
aft	-6265
▁hes	-6266
acing	-6267
▁muse	-6268
▁forming	-6269
▁explanation	-6270
▁technologies	-6271
look	-6272
▁sleeping	-6273
▁terrible	-6274
ean	-6275
nic	-6276
▁cong	-6277
▁myster	-6278
▁samples	-6279
orders	-6280
▁immun	-6281
▁juice	-6282
▁resid	-6283
rations	-6284
▁editor	-6285
▁shares	-6286
▁paralle	-6287
▁district	-6288
▁transition	-6289
▁Com	-6290
▁Tra	-6291
▁scal	-6292
▁oneself	-6293
▁reduction	-6294
▁Wu	-6295
dule	-6296
▁Tib	-6297
▁pale	-6298
▁casual	-6299
▁regret	-6300
▁claimed	-6301
lu	-6302
itan	-6303
▁500	-6304
▁Chen	-6305
▁pushed	-6306
▁introduce	-6307
lar	-6308
oust	-6309
▁dece	-6310
▁tables	-6311
▁breaking	-6312
▁variable	-6313
▁automatic	-6314
▁armed	-6315
▁extend	-6316
▁stores	-6317
▁perfectly	-6318
ipt	-6319
arse	-6320
▁Fig	-6321
▁Mer	-6322
oxide	-6323
▁chop	-6324
▁angel	-6325
▁membr	-6326
▁scope	-6327
▁specif	-6328
▁bringing	-6329
▁fee	-6330
▁adults	-6331
fe	-6332
▁Do	-6333
▁IT	-6334
▁tape	-6335
▁amounts	-6336
▁Province	-6337
▁attempts	-6338
▁discovery	-6339
▁Art	-6340
▁sup	-6341
heast	-6342
▁mand	-6343
uction	-6344
▁Thurs	-6345
▁inhib	-6346
inating	-6347
▁tension	-6348
▁conventional	-6349
▁intention	-6350
▁remaining	-6351
▁beer	-6352
▁reck	-6353
asters	-6354
▁assessment	-6355
▁successful	-6356
iac	-6357
▁AS	-6358
▁Lee	-6359
▁perce	-6360
▁screw	-6361
itarian	-6362
▁encoun	-6363
▁warned	-6364
quis	-6365
gging	-6366
▁compr	-6367
▁spray	-6368
▁wheat	-6369
▁alumin	-6370
▁temple	-6371
▁equally	-6372
▁tu	-6373
▁subt	-6374
▁Count	-6375
▁stamp	-6376
▁reveal	-6377
▁swimming	-6378
▁recognize	-6379
▁entreprene	-6380
outs	-6381
▁Apr	-6382
▁plug	-6383
▁burst	-6384
▁taxes	-6385
▁burden	-6386
▁hoping	-6387
▁airport	-6388
▁spokesman	-6389
iler	-6390
▁Haw	-6391
▁soph	-6392
▁chlor	-6393
▁vulner	-6394
▁moments	-6395
irts	-6396
▁blame	-6397
▁Method	-6398
▁rubber	-6399
▁compare	-6400
▁Thursday	-6401
▁professor	-6402
anges	-6403
ivered	-6404
▁crucial	-6405
▁officers	-6406
▁computers	-6407
▁Aug	-6408
▁cosm	-6409
▁combat	-6410
▁tongue	-6411
▁hardware	-6412
▁promised	-6413
idity	-6414
▁amid	-6415
▁anyway	-6416
▁enable	-6417
▁violent	-6418
▁forecast	-6419
▁elsewhere	-6420
▁2.	-6421
inge	-6422
wear	-6423
▁mold	-6424
▁films	-6425
▁propag	-6426
uke	-6427
▁Dar	-6428
▁Center	-6429
▁cigaret	-6430
▁admitted	-6431
▁difficulties	-6432
uman	-6433
peror	-6434
plate	-6435
▁Tibet	-6436
▁irrit	-6437
▁consol	-6438
▁copper	-6439
▁phosph	-6440
ologists	-6441
▁helpful	-6442
▁rolling	-6443
▁execution	-6444
▁ultimately	-6445
▁Han	-6446
▁dump	-6447
▁outcome	-6448
▁La	-6449
▁encl	-6450
▁mature	-6451
▁orange	-6452
▁inflamm	-6453
▁controvers	-6454
▁corruption	-6455
▁infrastructure	-6456
▁assume	-6457
▁invited	-6458
▁developers	-6459
etime	-6460
▁vary	-6461
▁doors	-6462
▁replaced	-6463
▁breakfast	-6464
▁integration	-6465
▁requirement	-6466
▁0	-6467
rich	-6468
bered	-6469
▁perm	-6470
▁liver	-6471
▁indicates	-6472
▁psychological	-6473
▁knife	-6474
▁ceremony	-6475
▁economies	-6476
lly	-6477
teen	-6478
anging	-6479
▁newly	-6480
▁certific	-6481
▁contained	-6482
▁destroyed	-6483
▁indicated	-6484
▁biological	-6485
▁discipline	-6486
hesis	-6487
▁cler	-6488
▁hack	-6489
▁drunk	-6490
▁murder	-6491
▁totally	-6492
▁regulations	-6493
mn	-6494
azz	-6495
▁TH	-6496
owed	-6497
▁Star	-6498
active	-6499
▁linear	-6500
▁Develop	-6501
▁purposes	-6502
▁surrounding	-6503
ET	-6504
ille	-6505
▁Oct	-6506
▁gym	-6507
▁2009	-6508
▁gast	-6509
▁tack	-6510
▁luxury	-6511
▁declared	-6512
jiang	-6513
▁nest	-6514
▁approval	-6515
▁schedule	-6516
iat	-6517
▁ok	-6518
gage	-6519
ourt	-6520
▁Spanish	-6521
▁involves	-6522
pro	-6523
▁'.	-6524
pool	-6525
▁Alex	-6526
▁Java	-6527
▁vertical	-6528
▁comprehensive	-6529
jo	-6530
▁CD	-6531
attered	-6532
▁Middle	-6533
▁installed	-6534
▁languages	-6535
▁ov	-6536
▁hed	-6537
▁tech	-6538
▁blast	-6539
▁fever	-6540
▁fragr	-6541
▁liked	-6542
▁approx	-6543
▁analyze	-6544
▁charged	-6545
▁eastern	-6546
▁somebody	-6547
▁somewhere	-6548
mble	-6549
pring	-6550
▁alter	-6551
▁digest	-6552
▁Dynasty	-6553
▁translation	-6554
rag	-6555
▁80	-6556
▁bowl	-6557
▁caps	-6558
erable	-6559
▁cooking	-6560
▁branches	-6561
▁integrated	-6562
▁AP	-6563
apor	-6564
iology	-6565
▁volcan	-6566
▁concert	-6567
▁voltage	-6568
▁196	-6569
▁hoped	-6570
▁furniture	-6571
▁apple	-6572
▁composed	-6573
▁Roy	-6574
▁duck	-6575
▁merc	-6576
hemical	-6577
▁Island	-6578
▁sending	-6579
▁employee	-6580
▁magazine	-6581
▁coach	-6582
▁flesh	-6583
▁signals	-6584
▁Adm	-6585
▁Study	-6586
theless	-6587
▁satell	-6588
▁stayed	-6589
▁launched	-6590
▁impression	-6591
aren	-6592
roid	-6593
▁ampl	-6594
▁epid	-6595
▁curve	-6596
▁obser	-6597
▁hearts	-6598
▁reserv	-6599
▁affairs	-6600
▁radical	-6601
▁sequence	-6602
▁Republican	-6603
▁appreciate	-6604
▁transportation	-6605
IV	-6606
▁22	-6607
▁35	-6608
anny	-6609
ieties	-6610
▁surge	-6611
▁athlet	-6612
▁strain	-6613
▁bedroom	-6614
▁download	-6615
▁nevertheless	-6616
rics	-6617
▁Kim	-6618
▁Peter	-6619
▁trace	-6620
▁capture	-6621
▁overcome	-6622
▁regarded	-6623
▁calculation	-6624
▁butt	-6625
▁limits	-6626
▁lonely	-6627
▁committed	-6628
▁equivalent	-6629
ueen	-6630
ulpt	-6631
zard	-6632
▁carc	-6633
▁sail	-6634
▁draft	-6635
▁Analysis	-6636
▁strategic	-6637
bage	-6638
ctic	-6639
▁April	-6640
▁asset	-6641
▁seeds	-6642
▁answered	-6643
AC	-6644
▁Det	-6645
▁Vir	-6646
▁pride	-6647
▁twist	-6648
▁presents	-6649
cers	-6650
▁mice	-6651
▁rend	-6652
▁optical	-6653
▁instruct	-6654
▁universal	-6655
▁attach	-6656
▁anticip	-6657
▁constit	-6658
▁sharing	-6659
▁personnel	-6660
▁accounting	-6661
▁Ven	-6662
ipher	-6663
engers	-6664
▁contrad	-6665
oky	-6666
▁Marx	-6667
▁Viet	-6668
▁pour	-6669
bar	-6670
▁gh	-6671
▁wore	-6672
uality	-6673
▁vital	-6674
▁Democr	-6675
▁suppose	-6676
▁weakness	-6677
rape	-6678
▁rust	-6679
▁accused	-6680
▁constitution	-6681
▁participants	-6682
ails	-6683
▁lets	-6684
▁brave	-6685
▁buried	-6686
▁fairly	-6687
▁interm	-6688
▁ray	-6689
▁drain	-6690
▁spoken	-6691
▁January	-6692
▁compass	-6693
▁sincere	-6694
▁inspection	-6695
thm	-6696
▁Eff	-6697
▁diag	-6698
angers	-6699
▁loans	-6700
▁rocks	-6701
▁stiff	-6702
▁peaceful	-6703
▁substance	-6704
▁cogn	-6705
▁cheek	-6706
▁deals	-6707
▁utter	-6708
▁bubble	-6709
▁handling	-6710
▁mistakes	-6711
▁survival	-6712
▁pir	-6713
chant	-6714
▁arbit	-6715
▁marks	-6716
▁crystal	-6717
▁penet	-6718
▁relie	-6719
▁preced	-6720
esthetic	-6721
▁memories	-6722
▁container	-6723
▁recognized	-6724
▁soup	-6725
▁nerve	-6726
▁union	-6727
▁OF	-6728
▁dirty	-6729
▁legend	-6730
▁lovely	-6731
▁elegant	-6732
▁specify	-6733
▁confront	-6734
▁quantity	-6735
▁July	-6736
▁cable	-6737
▁chose	-6738
▁clever	-6739
▁immune	-6740
urd	-6741
anes	-6742
▁boom	-6743
astern	-6744
▁criter	-6745
ams	-6746
▁slee	-6747
▁painful	-6748
▁articles	-6749
▁enormous	-6750
▁gathered	-6751
owing	-6752
▁praise	-6753
▁essence	-6754
▁proceed	-6755
▁brothers	-6756
▁awareness	-6757
▁observation	-6758
▁introduction	-6759
uum	-6760
atics	-6761
▁asks	-6762
▁rely	-6763
▁equity	-6764
▁passage	-6765
▁Minister	-6766
yan	-6767
▁90	-6768
▁adequ	-6769
▁holes	-6770
▁occas	-6771
▁reaching	-6772
▁secondary	-6773
▁furthermore	-6774
anta	-6775
acious	-6776
▁arrive	-6777
▁examine	-6778
▁thermal	-6779
org	-6780
umes	-6781
▁Lin	-6782
▁keen	-6783
▁funny	-6784
▁movies	-6785
▁utility	-6786
▁parallel	-6787
▁delivered	-6788
▁industries	-6789
▁proportion	-6790
ida	-6791
▁Mong	-6792
▁feas	-6793
▁minds	-6794
▁stead	-6795
▁sculpt	-6796
▁deliber	-6797
opl	-6798
pass	-6799
▁disg	-6800
▁gran	-6801
▁peak	-6802
▁milit	-6803
ilation	-6804
▁protest	-6805
▁networks	-6806
lines	-6807
▁trave	-6808
▁agents	-6809
▁mutual	-6810
▁absence	-6811
▁fortune	-6812
▁modified	-6813
writ	-6814
▁sne	-6815
▁royal	-6816
▁Vietnam	-6817
▁minimum	-6818
▁September	-6819
▁Rec	-6820
▁chat	-6821
▁reluct	-6822
▁sought	-6823
▁static	-6824
▁produces	-6825
▁commission	-6826
rs	-6827
▁Cr	-6828
▁pian	-6829
▁sched	-6830
▁anxiety	-6831
▁segment	-6832
▁originally	-6833
rav	-6834
gers	-6835
▁Rob	-6836
▁inh	-6837
▁folk	-6838
▁genu	-6839
weight	-6840
▁potato	-6841
▁anywhere	-6842
▁precious	-6843
▁necessarily	-6844
▁lip	-6845
▁rear	-6846
▁steady	-6847
▁voters	-6848
aj	-6849
▁que	-6850
ounce	-6851
father	-6852
▁Buddh	-6853
▁straw	-6854
▁observ	-6855
▁heavily	-6856
awn	-6857
▁distant	-6858
▁proposal	-6859
▁situations	-6860
▁transformation	-6861
▁pear	-6862
▁bones	-6863
▁deploy	-6864
▁overwhel	-6865
▁theoretical	-6866
▁py	-6867
leep	-6868
omfort	-6869
▁blade	-6870
▁errors	-6871
▁stocks	-6872
▁replied	-6873
▁revenue	-6874
▁humanity	-6875
▁strongly	-6876
oding	-6877
▁yeah	-6878
▁roots	-6879
▁somehow	-6880
▁Research	-6881
▁emotions	-6882
▁communicate	-6883
▁mete	-6884
▁reli	-6885
▁explains	-6886
▁inspired	-6887
▁synchron	-6888
▁extension	-6889
nut	-6890
▁une	-6891
▁anch	-6892
▁forb	-6893
▁tent	-6894
▁blocks	-6895
▁corresponding	-6896
ota	-6897
abled	-6898
archy	-6899
gical	-6900
▁plot	-6901
▁summ	-6902
lication	-6903
▁muscles	-6904
ias	-6905
▁Sur	-6906
▁happening	-6907
▁Government	-6908
ribe	-6909
▁cake	-6910
▁shame	-6911
▁split	-6912
▁surve	-6913
▁chances	-6914
▁quietly	-6915
▁tonight	-6916
hand	-6917
osity	-6918
▁grave	-6919
▁rival	-6920
▁loving	-6921
aneously	-6922
ss	-6923
▁Smith	-6924
▁outdo	-6925
▁tower	-6926
▁assert	-6927
▁engaged	-6928
▁targets	-6929
▁conducted	-6930
▁precision	-6931
fish	-6932
asant	-6933
▁sons	-6934
▁tied	-6935
illary	-6936
▁beings	-6937
▁centuries	-6938
▁alb	-6939
▁bure	-6940
▁seal	-6941
▁worn	-6942
▁threw	-6943
▁reconst	-6944
▁designer	-6945
▁intensity	-6946
▁Sal	-6947
▁tag	-6948
▁yuan	-6949
▁refers	-6950
▁everyday	-6951
▁priority	-6952
▁committee	-6953
▁programme	-6954
▁Her	-6955
▁Met	-6956
▁mask	-6957
▁Secret	-6958
▁contest	-6959
abilities	-6960
▁compensation	-6961
▁One	-6962
▁Spec	-6963
▁robot	-6964
▁subsc	-6965
▁sweat	-6966
▁retire	-6967
▁enjoyed	-6968
▁pleasant	-6969
ocity	-6970
▁chemicals	-6971
acco	-6972
omal	-6973
▁panel	-6974
▁sauce	-6975
▁layers	-6976
▁shrink	-6977
▁touched	-6978
▁affection	-6979
igned	-6980
▁Jackson	-6981
▁dismiss	-6982
▁recorded	-6983
▁shooting	-6984
ede	-6985
ilty	-6986
▁Jim	-6987
apping	-6988
▁pursuit	-6989
▁serving	-6990
▁ultimate	-6991
gly	-6992
▁ID	-6993
▁damaged	-6994
▁genuine	-6995
▁trained	-6996
▁principal	-6997
▁educational	-6998
▁gau	-6999
mates	-7000
▁cave	-7001
▁menu	-7002
▁Mongol	-7003
▁deeper	-7004
▁exciting	-7005
▁consistent	-7006
▁occasionally	-7007
▁Colle	-7008
▁toxic	-7009
▁transf	-7010
▁judgment	-7011
▁metab	-7012
▁settle	-7013
▁supporting	-7014
apore	-7015
icted	-7016
ulent	-7017
▁Frank	-7018
▁Palest	-7019
▁remarkable	-7020
▁installation	-7021
asts	-7022
raul	-7023
▁hint	-7024
▁overt	-7025
▁pitch	-7026
▁analys	-7027
▁pursue	-7028
▁thrown	-7029
lla	-7030
oys	-7031
▁Sub	-7032
▁jet	-7033
▁captain	-7034
▁conclusions	-7035
▁imagination	-7036
makers	-7037
▁convey	-7038
▁excuse	-7039
▁poetry	-7040
▁scream	-7041
▁horizont	-7042
▁damp	-7043
▁neuro	-7044
▁entrance	-7045
▁eliminate	-7046
▁positions	-7047
▁jew	-7048
▁cens	-7049
▁frag	-7050
▁prox	-7051
▁infant	-7052
▁notion	-7053
▁persons	-7054
▁grid	-7055
▁pile	-7056
▁crops	-7057
▁evident	-7058
▁category	-7059
▁instinct	-7060
▁displayed	-7061
▁structural	-7062
▁interaction	-7063
▁potentially	-7064
utor	-7065
umble	-7066
▁grey	-7067
▁sulf	-7068
▁harmon	-7069
▁labour	-7070
▁throat	-7071
▁induced	-7072
▁visited	-7073
fol	-7074
▁adj	-7075
▁conj	-7076
urrent	-7077
▁navig	-7078
▁hydrogen	-7079
▁treating	-7080
▁injection	-7081
▁destruction	-7082
EO	-7083
ommod	-7084
▁auto	-7085
▁horn	-7086
▁terr	-7087
ometer	-7088
▁alien	-7089
▁drove	-7090
▁patch	-7091
ascular	-7092
▁Church	-7093
▁flavor	-7094
▁recept	-7095
▁interior	-7096
▁excessive	-7097
▁measuring	-7098
▁regularly	-7099
▁passengers	-7100
ora	-7101
war	-7102
norm	-7103
ugal	-7104
orted	-7105
▁hors	-7106
▁shore	-7107
▁revers	-7108
▁employment	-7109
▁node	-7110
▁Franc	-7111
▁admit	-7112
▁escap	-7113
▁Office	-7114
▁listed	-7115
▁module	-7116
▁incorpor	-7117
▁administrative	-7118
sea	-7119
▁Fu	-7120
▁Sl	-7121
▁Ty	-7122
▁iP	-7123
▁eru	-7124
▁pilot	-7125
▁lawyer	-7126
▁derived	-7127
▁expectations	-7128
1.	-7129
▁GM	-7130
asive	-7131
ights	-7132
▁crash	-7133
▁Singapore	-7134
▁prevention	-7135
▁distributed	-7136
▁agricultural	-7137
cut	-7138
▁vag	-7139
terior	-7140
▁delicate	-7141
▁worldwide	-7142
▁outstanding	-7143
OT	-7144
▁nan	-7145
▁holy	-7146
incess	-7147
▁August	-7148
▁Health	-7149
▁stabil	-7150
▁decrease	-7151
▁gest	-7152
▁grat	-7153
urities	-7154
▁partly	-7155
▁cooling	-7156
▁diamond	-7157
▁overseas	-7158
▁collected	-7159
▁receiving	-7160
ini	-7161
away	-7162
oker	-7163
▁dawn	-7164
▁Court	-7165
▁choices	-7166
▁colored	-7167
▁signature	-7168
▁similarly	-7169
▁controlling	-7170
orse	-7171
▁ate	-7172
▁battery	-7173
▁breathing	-7174
ING	-7175
▁Bel	-7176
▁dent	-7177
▁bonds	-7178
▁conqu	-7179
▁crazy	-7180
▁fifth	-7181
fulness	-7182
▁intent	-7183
▁simult	-7184
▁kingdom	-7185
▁division	-7186
▁auth	-7187
▁synd	-7188
▁stain	-7189
▁sovere	-7190
▁discrim	-7191
▁scholars	-7192
▁tendency	-7193
▁regarding	-7194
▁unemployment	-7195
▁establishment	-7196
orr	-7197
pled	-7198
▁Pan	-7199
▁shy	-7200
▁tob	-7201
▁stake	-7202
▁literary	-7203
▁economics	-7204
eem	-7205
▁yard	-7206
▁Liver	-7207
▁faint	-7208
▁glory	-7209
▁Figure	-7210
▁reader	-7211
▁resemb	-7212
▁sensor	-7213
▁filling	-7214
▁stretch	-7215
▁creature	-7216
LL	-7217
▁Ir	-7218
flow	-7219
obile	-7220
irable	-7221
nament	-7222
▁creatures	-7223
▁investigated	-7224
▁extraordinary	-7225
5,	-7226
▁Hel	-7227
eared	-7228
▁bron	-7229
▁cure	-7230
▁obsc	-7231
▁stub	-7232
▁apolog	-7233
▁lessons	-7234
▁settled	-7235
▁accommod	-7236
▁underground	-7237
aws	-7238
▁multip	-7239
▁advertise	-7240
▁Tex	-7241
▁Mars	-7242
▁suck	-7243
▁climb	-7244
▁dense	-7245
▁remov	-7246
▁roads	-7247
idation	-7248
▁Robert	-7249
▁fierce	-7250
▁frozen	-7251
▁formula	-7252
▁parliament	-7253
AD	-7254
igue	-7255
▁mining	-7256
▁publish	-7257
▁pushing	-7258
▁lifetime	-7259
▁surrounded	-7260
▁Development	-7261
▁lub	-7262
agers	-7263
plant	-7264
▁disag	-7265
▁liberal	-7266
IP	-7267
iders	-7268
▁deleg	-7269
▁infin	-7270
▁shake	-7271
▁latter	-7272
▁Service	-7273
▁Den	-7274
vation	-7275
▁naked	-7276
▁cheese	-7277
▁washing	-7278
▁pup	-7279
▁minded	-7280
▁Clinton	-7281
▁movements	-7282
EM	-7283
▁vine	-7284
▁memor	-7285
▁meetings	-7286
▁reflects	-7287
brid	-7288
▁mart	-7289
▁abuse	-7290
▁shield	-7291
▁dancing	-7292
▁reverse	-7293
▁neighbour	-7294
▁economists	-7295
▁intervention	-7296
▁ric	-7297
uting	-7298
▁squee	-7299
▁abnorm	-7300
▁repeat	-7301
▁tropical	-7302
▁satisfied	-7303
▁ingredients	-7304
▁Rev	-7305
▁aged	-7306
▁wand	-7307
▁query	-7308
▁extrem	-7309
▁headed	-7310
▁comprom	-7311
▁elections	-7312
lers	-7313
rets	-7314
▁Prot	-7315
▁Times	-7316
▁uncle	-7317
▁excite	-7318
▁retain	-7319
▁pleased	-7320
▁reservoir	-7321
raulic	-7322
▁badly	-7323
▁tries	-7324
▁reprodu	-7325
▁requests	-7326
▁resident	-7327
▁withdraw	-7328
2.	-7329
rub	-7330
fire	-7331
▁lion	-7332
▁tang	-7333
▁gifts	-7334
▁answers	-7335
▁nursing	-7336
▁trigger	-7337
▁attribute	-7338
car	-7339
aved	-7340
▁Jane	-7341
▁rush	-7342
estyle	-7343
▁fruits	-7344
▁rhythm	-7345
▁resistant	-7346
DP	-7347
▁stack	-7348
▁lesson	-7349
▁printed	-7350
bow	-7351
▁Ke	-7352
▁cro	-7353
acles	-7354
rants	-7355
▁diver	-7356
▁sorrow	-7357
▁alleged	-7358
▁heating	-7359
▁resolve	-7360
▁laboratory	-7361
▁But	-7362
▁anth	-7363
▁drew	-7364
▁cried	-7365
▁tumor	-7366
▁adap	-7367
▁okay	-7368
▁shed	-7369
change	-7370
▁Light	-7371
▁stroke	-7372
▁follows	-7373
▁feedback	-7374
▁Hot	-7375
▁soy	-7376
▁Henry	-7377
▁condem	-7378
▁contam	-7379
▁enemies	-7380
▁McC	-7381
▁cul	-7382
▁gay	-7383
mother	-7384
▁fired	-7385
▁ineff	-7386
▁meters	-7387
▁retrie	-7388
▁feather	-7389
▁Lo	-7390
pread	-7391
▁loves	-7392
▁guilty	-7393
▁tempor	-7394
▁chamber	-7395
▁partial	-7396
▁soldier	-7397
▁monetary	-7398
▁classroom	-7399
orced	-7400
▁Dist	-7401
▁Wood	-7402
▁bust	-7403
▁embed	-7404
▁spare	-7405
▁wides	-7406
▁dramatic	-7407
▁legislation	-7408
ober	-7409
▁Vict	-7410
▁grows	-7411
▁toile	-7412
▁defeat	-7413
▁ruling	-7414
▁granted	-7415
▁guidance	-7416
▁classical	-7417
▁statements	-7418
▁Ba	-7419
▁bench	-7420
▁usage	-7421
▁Associ	-7422
2,	-7423
▁Lake	-7424
▁conform	-7425
▁enables	-7426
▁sentiment	-7427
▁remembered	-7428
▁temperatures	-7429
▁bom	-7430
▁narr	-7431
unning	-7432
▁fewer	-7433
▁legisl	-7434
▁stupid	-7435
inations	-7436
▁widespread	-7437
▁,	-7438
kal	-7439
▁Liu	-7440
▁chip	-7441
▁polar	-7442
▁purple	-7443
▁inspect	-7444
▁savings	-7445
▁stepped	-7446
▁tobacco	-7447
▁approved	-7448
▁encounter	-7449
▁separated	-7450
▁assistance	-7451
yc	-7452
▁lun	-7453
▁ghost	-7454
▁barely	-7455
▁cement	-7456
▁mineral	-7457
▁destination	-7458
aine	-7459
▁List	-7460
▁Louis	-7461
▁veter	-7462
▁Prince	-7463
▁asleep	-7464
▁enforce	-7465
▁privile	-7466
▁whereas	-7467
▁pregnancy	-7468
▁secretary	-7469
▁If	-7470
case	-7471
▁flows	-7472
▁bankrupt	-7473
▁lighting	-7474
▁sophistic	-7475
▁participate	-7476
eous	-7477
ouch	-7478
reme	-7479
▁Work	-7480
▁brick	-7481
▁harsh	-7482
▁entering	-7483
▁representative	-7484
BA	-7485
acc	-7486
eers	-7487
▁ads	-7488
▁nod	-7489
▁sake	-7490
▁crown	-7491
▁stere	-7492
▁missed	-7493
▁precip	-7494
▁authors	-7495
▁designs	-7496
▁concepts	-7497
▁contemporary	-7498
1,	-7499
bl	-7500
ga	-7501
sm	-7502
aste	-7503
ipper	-7504
▁impr	-7505
▁ugly	-7506
▁Steve	-7507
▁Treas	-7508
▁aller	-7509
▁annoy	-7510
▁restore	-7511
▁contrary	-7512
▁programming	-7513
▁inex	-7514
▁consp	-7515
▁spons	-7516
▁jumped	-7517
▁neglect	-7518
▁floating	-7519
▁emissions	-7520
iry	-7521
▁Old	-7522
▁Jose	-7523
▁germ	-7524
▁actor	-7525
▁dozen	-7526
▁fraud	-7527
▁elderly	-7528
▁Republicans	-7529
ka	-7530
▁23	-7531
anium	-7532
▁Flor	-7533
▁rats	-7534
▁adopt	-7535
▁farmer	-7536
▁unhapp	-7537
▁October	-7538
isy	-7539
erry	-7540
▁Are	-7541
▁Not	-7542
▁Tang	-7543
▁inhab	-7544
▁forests	-7545
▁worship	-7546
▁frequent	-7547
▁intelligent	-7548
xi	-7549
▁Joe	-7550
andal	-7551
ifted	-7552
▁Shen	-7553
▁dies	-7554
▁slip	-7555
▁Holly	-7556
▁cruel	-7557
▁eleph	-7558
inction	-7559
▁papers	-7560
▁coating	-7561
▁captured	-7562
▁CO	-7563
▁PR	-7564
▁Feb	-7565
▁arts	-7566
▁bags	-7567
elines	-7568
▁girlf	-7569
▁ignor	-7570
▁behalf	-7571
▁ending	-7572
▁hungry	-7573
▁covering	-7574
▁moisture	-7575
▁extensive	-7576
▁separation	-7577
▁communities	-7578
vy	-7579
sey	-7580
▁300	-7581
▁Gal	-7582
▁sir	-7583
▁wre	-7584
▁humor	-7585
▁acquis	-7586
▁drinks	-7587
▁affects	-7588
▁carrier	-7589
▁tourism	-7590
▁reflection	-7591
iated	-7592
▁spat	-7593
▁warn	-7594
▁appet	-7595
▁League	-7596
ications	-7597
▁defence	-7598
▁acknowled	-7599
6,	-7600
▁Op	-7601
idal	-7602
list	-7603
▁cin	-7604
orious	-7605
▁habits	-7606
▁shower	-7607
▁artists	-7608
▁musical	-7609
▁returning	-7610
rosc	-7611
▁Bay	-7612
advant	-7613
▁alert	-7614
▁absorb	-7615
▁viewed	-7616
▁drivers	-7617
▁emerged	-7618
▁mystery	-7619
▁pregnant	-7620
▁primarily	-7621
▁territory	-7622
▁agriculture	-7623
▁dimensional	-7624
▁recommended	-7625
ado	-7626
conn	-7627
ulum	-7628
▁Inc	-7629
▁Wen	-7630
▁Swed	-7631
▁Test	-7632
▁oral	-7633
umatic	-7634
▁dying	-7635
▁passes	-7636
▁perpet	-7637
▁update	-7638
▁College	-7639
▁invention	-7640
▁consideration	-7641
yard	-7642
piece	-7643
▁prohib	-7644
▁convinced	-7645
▁initially	-7646
▁identification	-7647
obs	-7648
▁Py	-7649
stick	-7650
▁flew	-7651
▁knee	-7652
▁mile	-7653
▁summar	-7654
▁vessels	-7655
▁warming	-7656
▁instruments	-7657
▁Nort	-7658
▁dign	-7659
▁loop	-7660
▁frank	-7661
▁Effect	-7662
▁modest	-7663
▁waited	-7664
▁scenario	-7665
▁vibration	-7666
▁specifically	-7667
omer	-7668
▁arc	-7669
▁fond	-7670
▁Games	-7671
▁coinc	-7672
▁membrane	-7673
▁sunlight	-7674
▁presidential	-7675
ifferent	-7676
▁arrival	-7677
▁cluster	-7678
hyd	-7679
ymph	-7680
▁Ass	-7681
▁Pot	-7682
▁Tal	-7683
▁dare	-7684
▁poet	-7685
▁dried	-7686
▁swing	-7687
▁corros	-7688
▁matrix	-7689
▁rivers	-7690
▁displays	-7691
▁civilization	-7692
py	-7693
ifer	-7694
▁curs	-7695
▁refr	-7696
erning	-7697
▁ticket	-7698
▁membership	-7699
ui	-7700
afi	-7701
uled	-7702
▁treasure	-7703
▁candidates	-7704
▁satisfaction	-7705
rey	-7706
top	-7707
with	-7708
▁ech	-7709
▁Bill	-7710
▁priest	-7711
▁injured	-7712
▁artistic	-7713
▁chairman	-7714
▁employed	-7715
▁tourists	-7716
▁concluded	-7717
cell	-7718
▁Bab	-7719
riers	-7720
▁leak	-7721
▁mast	-7722
▁tale	-7723
onscious	-7724
▁coverage	-7725
▁protected	-7726
▁accompanied	-7727
kind	-7728
▁Out	-7729
▁gel	-7730
▁vice	-7731
▁gained	-7732
▁Profess	-7733
▁sacrifice	-7734
▁aggressive	-7735
▁approaches	-7736
kel	-7737
anche	-7738
▁hook	-7739
▁volat	-7740
▁Senate	-7741
▁stages	-7742
▁venture	-7743
otype	-7744
▁Good	-7745
▁Road	-7746
▁devast	-7747
▁museum	-7748
▁facility	-7749
▁relatives	-7750
▁essentially	-7751
HO	-7752
▁Dec	-7753
▁bin	-7754
▁laz	-7755
▁Cath	-7756
▁indo	-7757
▁wool	-7758
▁Islam	-7759
▁reass	-7760
▁Liverpool	-7761
▁disadvant	-7762
▁capability	-7763
▁lon	-7764
▁jail	-7765
▁meth	-7766
▁opens	-7767
▁shops	-7768
▁phrase	-7769
▁Project	-7770
ola	-7771
okyo	-7772
▁Ang	-7773
oning	-7774
▁News	-7775
▁Pers	-7776
▁Scot	-7777
▁Texas	-7778
▁sensit	-7779
▁deficit	-7780
▁feeding	-7781
▁bathroom	-7782
▁explicit	-7783
▁Yu	-7784
utin	-7785
▁Pen	-7786
▁batt	-7787
▁flame	-7788
▁magnet	-7789
5.	-7790
ih	-7791
fly	-7792
walk	-7793
▁Equ	-7794
ifting	-7795
▁Carol	-7796
▁Medic	-7797
▁Tokyo	-7798
▁overl	-7799
▁compat	-7800
▁fisher	-7801
▁spaces	-7802
▁arrested	-7803
▁balanced	-7804
▁complexity	-7805
▁Big	-7806
▁Tem	-7807
▁Rome	-7808
▁bree	-7809
▁abdom	-7810
▁constraint	-7811
ptic	-7812
ealous	-7813
▁Super	-7814
▁entit	-7815
▁theat	-7816
▁marine	-7817
▁calcium	-7818
▁carries	-7819
▁tremend	-7820
▁wrapped	-7821
▁forgotten	-7822
▁continuing	-7823
▁presentation	-7824
ambo	-7825
vard	-7826
▁railway	-7827
▁shoulders	-7828
▁threatened	-7829
▁IP	-7830
▁Chic	-7831
▁Jiang	-7832
▁Nations	-7833
▁glasses	-7834
▁promotion	-7835
▁effectiveness	-7836
ador	-7837
▁wealthy	-7838
▁explosion	-7839
▁machinery	-7840
▁photograp	-7841
▁ups	-7842
▁bump	-7843
▁fees	-7844
▁verb	-7845
▁bride	-7846
▁pound	-7847
▁binding	-7848
▁integrity	-7849
ghed	-7850
mers	-7851
▁Ange	-7852
▁Long	-7853
▁pled	-7854
▁ties	-7855
▁wars	-7856
esters	-7857
▁winds	-7858
▁Victor	-7859
▁Virgin	-7860
▁ignore	-7861
▁rolled	-7862
▁funding	-7863
▁logical	-7864
▁suicide	-7865
▁dependent	-7866
▁preparing	-7867
▁executives	-7868
▁independence	-7869
ema	-7870
ivals	-7871
▁buck	-7872
▁hier	-7873
▁Charles	-7874
▁exports	-7875
▁vaccine	-7876
▁settings	-7877
▁satellite	-7878
▁arrangement	-7879
▁demonstrate	-7880
▁drum	-7881
▁alleg	-7882
▁grate	-7883
▁dispute	-7884
▁statist	-7885
▁packaging	-7886
▁Exp	-7887
▁Rel	-7888
▁les	-7889
▁hospit	-7890
▁letting	-7891
▁So	-7892
▁Tim	-7893
▁Wal	-7894
▁tel	-7895
ashes	-7896
▁torn	-7897
ologic	-7898
▁nutri	-7899
▁sized	-7900
▁packed	-7901
▁tomato	-7902
▁hunting	-7903
▁neutral	-7904
▁oriented	-7905
arts	-7906
ifies	-7907
▁Face	-7908
▁shortly	-7909
▁applying	-7910
▁password	-7911
▁troubles	-7912
▁vacation	-7913
▁visiting	-7914
▁abandoned	-7915
▁preferred	-7916
▁collective	-7917
▁vulnerable	-7918
▁glo	-7919
▁Army	-7920
▁enzy	-7921
friend	-7922
▁flowing	-7923
▁organism	-7924
▁striking	-7925
▁personally	-7926
▁implemented	-7927
bral	-7928
acher	-7929
▁bail	-7930
▁cataly	-7931
▁subtle	-7932
▁license	-7933
▁agencies	-7934
▁ownership	-7935
▁underlying	-7936
▁reliability	-7937
pat	-7938
▁bars	-7939
itudes	-7940
▁weigh	-7941
▁Econom	-7942
▁locked	-7943
▁stones	-7944
▁diagram	-7945
▁isolated	-7946
▁punishment	-7947
▁supplement	-7948
▁productivity	-7949
▁FOR	-7950
▁lend	-7951
▁pine	-7952
erring	-7953
▁Other	-7954
▁Design	-7955
▁weaken	-7956
▁broadcast	-7957
▁correctly	-7958
▁On	-7959
▁ah	-7960
▁gig	-7961
▁golf	-7962
▁mini	-7963
▁pist	-7964
▁reson	-7965
▁surre	-7966
▁refuge	-7967
▁scenes	-7968
▁serves	-7969
▁Indones	-7970
▁dioxide	-7971
▁reserve	-7972
▁swallow	-7973
▁computing	-7974
▁statistics	-7975
▁restaurants	-7976
AM	-7977
▁hey	-7978
▁foss	-7979
▁facil	-7980
▁exceed	-7981
▁organs	-7982
▁endless	-7983
▁percentage	-7984
▁conservative	-7985
ION	-7986
aus	-7987
zed	-7988
▁Us	-7989
▁hi	-7990
isure	-7991
▁fart	-7992
▁deaths	-7993
▁ferment	-7994
▁mounted	-7995
▁hydraulic	-7996
▁reflected	-7997
▁mysterious	-7998
ican	-7999
▁semi	-8000
▁sits	-8001
market	-8002
▁Chang	-8003
▁patri	-8004
▁dishes	-8005
▁wishes	-8006
▁superst	-8007
▁unnecess	-8008
▁reporting	-8009
▁negotiations	-8010
6.	-8011
isk	-8012
▁IN	-8013
lude	-8014
▁Cub	-8015
▁Mass	-8016
▁galax	-8017
▁indul	-8018
▁earned	-8019
▁meteor	-8020
▁Control	-8021
▁handsome	-8022
▁stimulus	-8023
▁surgical	-8024
▁struggling	-8025
iel	-8026
yang	-8027
▁Mao	-8028
▁deck	-8029
▁legit	-8030
▁upset	-8031
▁waist	-8032
▁equipped	-8033
▁graduate	-8034
▁nitrogen	-8035
ifications	-8036
▁correlation	-8037
▁Ev	-8038
▁HT	-8039
onald	-8040
▁ramp	-8041
▁courts	-8042
▁couples	-8043
▁protective	-8044
ayer	-8045
elly	-8046
▁hob	-8047
▁irre	-8048
omatic	-8049
▁adhes	-8050
▁weren	-8051
▁searching	-8052
▁repeatedly	-8053
wl	-8054
storm	-8055
▁rigid	-8056
▁shaft	-8057
▁ethnic	-8058
▁lifted	-8059
▁Chicago	-8060
▁195	-8061
▁Cop	-8062
▁Def	-8063
▁Jud	-8064
▁Mag	-8065
▁Mosc	-8066
▁joke	-8067
▁wicked	-8068
▁deposit	-8069
atal	-8070
oned	-8071
▁Sir	-8072
matic	-8073
▁Bible	-8074
▁sorts	-8075
▁manual	-8076
▁smiled	-8077
▁mortgage	-8078
▁discharge	-8079
▁exploration	-8080
agen	-8081
apped	-8082
▁Cult	-8083
▁deem	-8084
▁dose	-8085
▁regen	-8086
▁vivid	-8087
▁dragon	-8088
▁writes	-8089
▁painted	-8090
▁Democrats	-8091
▁attributes	-8092
▁Ox	-8093
rust	-8094
abetes	-8095
▁incomp	-8096
▁traveling	-8097
ads	-8098
occ	-8099
iser	-8100
▁ware	-8101
▁Elect	-8102
▁drama	-8103
▁clinic	-8104
▁needle	-8105
▁traged	-8106
▁vacuum	-8107
▁Florida	-8108
▁physics	-8109
▁Administ	-8110
▁choosing	-8111
▁fracture	-8112
▁organized	-8113
▁contribute	-8114
▁strategies	-8115
▁connections	-8116
aza	-8117
▁Plan	-8118
▁bite	-8119
▁resort	-8120
oved	-8121
▁landing	-8122
▁smiling	-8123
▁velocity	-8124
▁disappeared	-8125
▁represented	-8126
ST	-8127
▁yog	-8128
break	-8129
woman	-8130
▁mour	-8131
▁morph	-8132
▁Moscow	-8133
▁stated	-8134
▁Atlantic	-8135
▁composite	-8136
▁This	-8137
▁Scott	-8138
▁jacket	-8139
▁surfaces	-8140
▁qualities	-8141
▁certificate	-8142
▁ST	-8143
▁194	-8144
adian	-8145
ostic	-8146
shine	-8147
▁Nove	-8148
▁eaten	-8149
▁dedicated	-8150
▁molecules	-8151
▁numerical	-8152
▁acceptance	-8153
▁uncertainty	-8154
iller	-8155
▁Form	-8156
▁clar	-8157
▁ruled	-8158
▁elastic	-8159
uch	-8160
▁Ire	-8161
▁Yan	-8162
▁Ming	-8163
▁Rock	-8164
▁brut	-8165
▁seas	-8166
▁shoe	-8167
▁Latin	-8168
▁bunch	-8169
▁piano	-8170
▁incent	-8171
▁imperial	-8172
--	-8173
osy	-8174
▁Emp	-8175
▁Los	-8176
▁dirt	-8177
▁dull	-8178
▁lens	-8179
▁rope	-8180
▁ward	-8181
▁disagree	-8182
▁Hollywood	-8183
▁encouraged	-8184
▁neighborhood	-8185
usc	-8186
asis	-8187
okes	-8188
▁slide	-8189
▁Father	-8190
▁metall	-8191
▁tunnel	-8192
▁valley	-8193
▁Ireland	-8194
▁founded	-8195
▁missile	-8196
▁declined	-8197
▁association	-8198
▁CP	-8199
atus	-8200
▁Nav	-8201
mental	-8202
▁Organ	-8203
▁aimed	-8204
▁belongs	-8205
▁ceiling	-8206
▁foolish	-8207
▁portray	-8208
▁reporters	-8209
▁horizontal	-8210
▁beef	-8211
atural	-8212
rained	-8213
▁auton	-8214
▁fairy	-8215
▁rises	-8216
▁Martin	-8217
▁carcin	-8218
▁leisure	-8219
▁shareholders	-8220
▁universities	-8221
▁jewel	-8222
▁perme	-8223
▁inherit	-8224
▁November	-8225
▁Institute	-8226
▁settlement	-8227
▁AT	-8228
oded	-8229
leton	-8230
▁dimin	-8231
▁makers	-8232
▁salary	-8233
▁courses	-8234
▁heading	-8235
▁Palestin	-8236
fit	-8237
▁Di	-8238
aria	-8239
▁Mot	-8240
▁Dece	-8241
▁celeb	-8242
▁enlar	-8243
▁combine	-8244
▁removal	-8245
▁righteous	-8246
▁enthusiasm	-8247
▁generations	-8248
▁instruction	-8249
▁Fe	-8250
▁slop	-8251
▁Ocean	-8252
▁snake	-8253
▁aluminum	-8254
▁dominant	-8255
amboo	-8256
▁chin	-8257
▁inch	-8258
▁aggreg	-8259
▁dissol	-8260
▁prayer	-8261
▁prince	-8262
▁detected	-8263
▁versions	-8264
▁accordance	-8265
▁creativity	-8266
▁girlfriend	-8267
▁achievement	-8268
▁flexibility	-8269
▁demonstrated	-8270
aven	-8271
▁Ren	-8272
▁lap	-8273
adays	-8274
▁hath	-8275
▁keys	-8276
keeper	-8277
▁managing	-8278
▁seemingly	-8279
▁contribution	-8280
oli	-8281
umph	-8282
▁jun	-8283
front	-8284
▁Chel	-8285
acular	-8286
▁Dutch	-8287
▁fails	-8288
▁shark	-8289
▁slope	-8290
▁burned	-8291
▁mothers	-8292
rob	-8293
▁seam	-8294
▁deter	-8295
▁dread	-8296
▁recon	-8297
ressing	-8298
▁Mother	-8299
▁convert	-8300
▁islands	-8301
▁festival	-8302
▁compassion	-8303
tains	-8304
▁dorm	-8305
▁plum	-8306
▁unst	-8307
▁boxes	-8308
▁babies	-8309
lessness	-8310
▁divorce	-8311
▁pulling	-8312
▁writers	-8313
▁Olympics	-8314
▁laughter	-8315
▁directory	-8316
▁gathering	-8317
▁characterized	-8318
win	-8319
▁duct	-8320
▁Libya	-8321
▁audio	-8322
▁crude	-8323
▁tiger	-8324
▁Windows	-8325
▁mankind	-8326
▁texture	-8327
▁spectrum	-8328
▁supports	-8329
▁performing	-8330
▁subsequent	-8331
▁interpretation	-8332
eman	-8333
▁Eliz	-8334
▁neat	-8335
rapeut	-8336
▁bears	-8337
▁dilig	-8338
▁gains	-8339
▁globe	-8340
▁phones	-8341
▁servant	-8342
▁discount	-8343
▁estimated	-8344
▁nutrition	-8345
▁psychology	-8346
▁considerable	-8347
hua	-8348
▁Ap	-8349
acks	-8350
▁Imp	-8351
▁rings	-8352
▁yours	-8353
▁proven	-8354
▁dispers	-8355
▁shouldn	-8356
▁injuries	-8357
▁operator	-8358
▁recording	-8359
▁accomplish	-8360
anks	-8361
aunt	-8362
heng	-8363
pered	-8364
▁roles	-8365
▁walks	-8366
▁Confuc	-8367
▁lubric	-8368
▁sodium	-8369
▁bankers	-8370
▁expense	-8371
▁checking	-8372
▁innocent	-8373
▁nowadays	-8374
osa	-8375
▁Mach	-8376
▁pier	-8377
▁alkal	-8378
▁reply	-8379
▁covers	-8380
▁splend	-8381
▁bureauc	-8382
▁thunder	-8383
▁December	-8384
▁cylinder	-8385
▁arguments	-8386
▁constructed	-8387
▁sustainable	-8388
▁Bus	-8389
▁breed	-8390
▁effic	-8391
▁panic	-8392
▁recre	-8393
▁palace	-8394
▁disrupt	-8395
▁privacy	-8396
▁confusion	-8397
▁reception	-8398
▁impressive	-8399
▁inevitable	-8400
▁28	-8401
▁lav	-8402
▁wax	-8403
ildren	-8404
▁affair	-8405
▁bullet	-8406
▁gender	-8407
▁robust	-8408
▁defects	-8409
▁periods	-8410
▁diabetes	-8411
▁particle	-8412
▁literally	-8413
ald	-8414
nis	-8415
▁Georg	-8416
ionship	-8417
▁crying	-8418
▁summit	-8419
▁toilet	-8420
▁governor	-8421
▁epis	-8422
▁fled	-8423
▁exagger	-8424
▁transact	-8425
▁virtually	-8426
▁partnership	-8427
▁3.	-8428
▁bot	-8429
ogene	-8430
▁pole	-8431
▁proc	-8432
liance	-8433
▁lands	-8434
▁ridic	-8435
▁Master	-8436
▁argued	-8437
▁pounds	-8438
▁checked	-8439
▁servers	-8440
▁Security	-8441
▁deterior	-8442
▁interrupt	-8443
▁realistic	-8444
▁mit	-8445
▁plun	-8446
▁Power	-8447
▁dwell	-8448
▁lover	-8449
umbling	-8450
▁helpless	-8451
▁magnific	-8452
▁adjustment	-8453
net	-8454
▁IM	-8455
▁Rad	-8456
▁sew	-8457
▁What	-8458
▁align	-8459
▁mould	-8460
▁dressing	-8461
▁dimension	-8462
▁permission	-8463
▁entertainment	-8464
atis	-8465
▁fog	-8466
▁barrel	-8467
▁gravity	-8468
▁opposed	-8469
▁diversity	-8470
▁absorption	-8471
▁mechanisms	-8472
▁representation	-8473
BS	-8474
rine	-8475
▁THE	-8476
▁cad	-8477
▁Mike	-8478
▁neur	-8479
▁presum	-8480
▁calculated	-8481
hew	-8482
gered	-8483
inkle	-8484
▁cycl	-8485
▁lymph	-8486
▁steep	-8487
▁trends	-8488
▁Angeles	-8489
▁HIV	-8490
▁aqu	-8491
▁toy	-8492
▁spots	-8493
▁swift	-8494
▁admire	-8495
▁collaps	-8496
▁embrace	-8497
▁lasting	-8498
▁tourist	-8499
iological	-8500
▁lifestyle	-8501
▁Democratic	-8502
imal	-8503
quet	-8504
▁Its	-8505
▁cer	-8506
▁towns	-8507
▁deadly	-8508
▁provin	-8509
▁styles	-8510
▁vitamin	-8511
▁scientist	-8512
▁variation	-8513
▁democratic	-8514
va	-8515
iana	-8516
▁AND	-8517
▁Gulf	-8518
▁bent	-8519
▁soci	-8520
▁helic	-8521
▁revol	-8522
▁strip	-8523
▁entity	-8524
▁dialect	-8525
▁harmony	-8526
▁speaker	-8527
▁equation	-8528
▁communications	-8529
mond	-8530
orus	-8531
abeth	-8532
▁Arch	-8533
▁Jour	-8534
▁orth	-8535
▁horses	-8536
liminary	-8537
▁Chelsea	-8538
▁prolong	-8539
▁earnings	-8540
▁Professor	-8541
▁respectively	-8542
▁wo	-8543
▁Mur	-8544
▁span	-8545
liness	-8546
▁paras	-8547
▁sperm	-8548
▁Federal	-8549
▁confess	-8550
▁despair	-8551
▁planets	-8552
▁succeed	-8553
▁Treasury	-8554
▁estimate	-8555
▁infected	-8556
▁thickness	-8557
▁instructions	-8558
asma	-8559
▁leap	-8560
▁orbit	-8561
▁thumb	-8562
▁collabor	-8563
▁theories	-8564
▁optimization	-8565
for	-8566
▁AC	-8567
▁Po	-8568
proof	-8569
▁maker	-8570
▁prize	-8571
▁breaks	-8572
▁divine	-8573
▁envelop	-8574
▁optimal	-8575
▁cultures	-8576
▁dialogue	-8577
▁Commission	-8578
▁45	-8579
▁Pri	-8580
▁rit	-8581
stein	-8582
sters	-8583
▁melt	-8584
▁Prime	-8585
▁meals	-8586
agement	-8587
▁elabor	-8588
▁thirty	-8589
▁Richard	-8590
▁desired	-8591
▁lending	-8592
▁rejected	-8593
▁reserves	-8594
▁exhibition	-8595
rons	-8596
wind	-8597
▁Jac	-8598
ruary	-8599
▁pity	-8600
▁trap	-8601
▁hedge	-8602
▁scrap	-8603
▁secondly	-8604
▁IS	-8605
ethe	-8606
rary	-8607
▁Men	-8608
▁pion	-8609
▁quit	-8610
▁Force	-8611
▁Indust	-8612
▁hiding	-8613
▁nights	-8614
▁anxious	-8615
▁shipping	-8616
▁gentleman	-8617
▁newspapers	-8618
▁Application	-8619
4,	-8620
ami	-8621
iary	-8622
▁mun	-8623
▁tips	-8624
▁vend	-8625
▁bored	-8626
▁catal	-8627
▁lingu	-8628
▁bamboo	-8629
▁assured	-8630
▁customs	-8631
▁informed	-8632
▁compounds	-8633
▁intermedi	-8634
▁acceptable	-8635
▁Jon	-8636
▁exit	-8637
▁mock	-8638
▁soap	-8639
ailand	-8640
ignant	-8641
usalem	-8642
▁Royal	-8643
▁deriv	-8644
▁frost	-8645
▁woods	-8646
▁Turkey	-8647
▁buyers	-8648
▁fought	-8649
▁invite	-8650
▁shapes	-8651
▁staying	-8652
▁February	-8653
▁insisted	-8654
▁tracking	-8655
▁contracts	-8656
▁precisely	-8657
▁supporters	-8658
bra	-8659
eps	-8660
▁doz	-8661
▁extr	-8662
▁medi	-8663
▁quad	-8664
icular	-8665
▁decent	-8666
▁refuse	-8667
▁riding	-8668
▁generous	-8669
▁Elizabeth	-8670
▁spreading	-8671
uv	-8672
▁EC	-8673
bean	-8674
▁exh	-8675
utive	-8676
▁hasn	-8677
▁haunt	-8678
▁stall	-8679
▁firmly	-8680
▁patience	-8681
▁Jerusalem	-8682
▁molecular	-8683
▁afterwards	-8684
▁transparent	-8685
itar	-8686
▁Lab	-8687
▁Way	-8688
▁aston	-8689
▁brows	-8690
▁exped	-8691
▁intim	-8692
▁campus	-8693
▁register	-8694
▁boyfriend	-8695
▁neighbors	-8696
▁extraction	-8697
▁popularity	-8698
▁comparative	-8699
▁Ho	-8700
urse	-8701
ilton	-8702
▁Bern	-8703
▁eyeb	-8704
▁hind	-8705
ulates	-8706
▁Valley	-8707
▁anybody	-8708
▁fatigue	-8709
▁harmful	-8710
▁Facebook	-8711
▁directed	-8712
▁celebrate	-8713
▁desperate	-8714
▁variables	-8715
▁ecological	-8716
3.	-8717
bec	-8718
uma	-8719
▁CEO	-8720
▁gonna	-8721
uilding	-8722
▁correl	-8723
▁shallow	-8724
▁sunshine	-8725
▁Secretary	-8726
▁delicious	-8727
▁Australian	-8728
▁mathematical	-8729
▁registration	-8730
▁bean	-8731
retion	-8732
stairs	-8733
▁Treat	-8734
▁glance	-8735
▁hybrid	-8736
▁sevent	-8737
imentary	-8738
▁colorful	-8739
▁syndrome	-8740
▁assistant	-8741
▁excitement	-8742
▁2,	-8743
▁ul	-8744
enda	-8745
▁Kar	-8746
▁Son	-8747
acent	-8748
actic	-8749
▁gloss	-8750
▁grasp	-8751
▁brands	-8752
▁denied	-8753
▁Thailand	-8754
▁liability	-8755
▁prominent	-8756
▁manufacturers	-8757
▁technological	-8758
see	-8759
▁Sar	-8760
▁Wil	-8761
▁jur	-8762
▁Bang	-8763
▁toss	-8764
cation	-8765
▁fatal	-8766
version	-8767
▁cattle	-8768
▁winner	-8769
▁closing	-8770
▁Catholic	-8771
▁Festival	-8772
▁misunder	-8773
▁controller	-8774
▁influenced	-8775
▁introduces	-8776
rip	-8777
orph	-8778
▁Ice	-8779
▁Squ	-8780
▁ion	-8781
▁basin	-8782
▁strat	-8783
▁curric	-8784
▁dozens	-8785
▁combust	-8786
▁reforms	-8787
▁laughing	-8788
▁involving	-8789
▁Ve	-8790
erer	-8791
igen	-8792
▁ski	-8793
worth	-8794
▁boot	-8795
ounced	-8796
▁drops	-8797
▁stops	-8798
▁eternal	-8799
▁threats	-8800
▁preserve	-8801
▁protocol	-8802
OU	-8803
life	-8804
ylon	-8805
▁Bet	-8806
▁bol	-8807
▁pel	-8808
▁pne	-8809
eller	-8810
olism	-8811
▁ages	-8812
▁probe	-8813
▁punct	-8814
quisite	-8815
▁facial	-8816
▁microb	-8817
▁fraction	-8818
▁terminal	-8819
ho	-8820
rup	-8821
bour	-8822
▁Dal	-8823
▁ore	-8824
▁vic	-8825
ether	-8826
▁Just	-8827
▁math	-8828
▁nost	-8829
▁pupp	-8830
icable	-8831
▁freely	-8832
▁columns	-8833
▁circular	-8834
▁diameter	-8835
▁vegetable	-8836
▁continuously	-8837
▁lin	-8838
▁wal	-8839
arded	-8840
cence	-8841
▁stip	-8842
▁illum	-8843
▁absurd	-8844
▁decomp	-8845
▁worthy	-8846
▁assumed	-8847
▁compete	-8848
▁picking	-8849
▁reduces	-8850
▁spirits	-8851
▁acquired	-8852
3,	-8853
eav	-8854
airy	-8855
▁obl	-8856
itage	-8857
▁Spir	-8858
▁Time	-8859
▁bicy	-8860
▁bike	-8861
▁clay	-8862
iences	-8863
▁grant	-8864
▁hills	-8865
▁invis	-8866
▁expenses	-8867
▁moderate	-8868
▁peripher	-8869
▁promising	-8870
▁therapeut	-8871
▁beneficial	-8872
▁concerning	-8873
oper	-8874
▁fid	-8875
adium	-8876
liest	-8877
▁nuts	-8878
▁fancy	-8879
▁knees	-8880
reshold	-8881
▁biology	-8882
▁tragedy	-8883
▁calculate	-8884
▁engineers	-8885
▁challenging	-8886
ube	-8887
elve	-8888
uter	-8889
▁cram	-8890
▁palm	-8891
lihood	-8892
▁Jones	-8893
▁resin	-8894
▁width	-8895
▁rocket	-8896
▁singer	-8897
aughters	-8898
▁helicop	-8899
▁replacement	-8900
▁rh	-8901
inth	-8902
play	-8903
▁jar	-8904
▁barg	-8905
▁appar	-8906
▁backed	-8907
▁collar	-8908
▁laughed	-8909
▁Committee	-8910
▁registered	-8911
▁investments	-8912
IM	-8913
gram	-8914
ifle	-8915
zone	-8916
▁NAS	-8917
▁disse	-8918
▁sanct	-8919
▁sends	-8920
▁Thomas	-8921
▁affirm	-8922
▁sheets	-8923
▁welding	-8924
▁abnormal	-8925
▁alongside	-8926
▁motivation	-8927
▁substantial	-8928
▁CT	-8929
▁Edu	-8930
▁ell	-8931
▁spo	-8932
▁escal	-8933
▁attain	-8934
▁enlight	-8935
▁promises	-8936
▁attracted	-8937
▁passenger	-8938
▁Er	-8939
uble	-8940
▁rays	-8941
▁toys	-8942
▁resur	-8943
▁emerge	-8944
▁plates	-8945
illation	-8946
▁Francis	-8947
▁roughly	-8948
▁diplomatic	-8949
▁thoroughly	-8950
▁Association	-8951
▁transformed	-8952
▁0.	-8953
▁Yi	-8954
▁cant	-8955
▁panc	-8956
▁pulse	-8957
▁spont	-8958
▁contra	-8959
▁deform	-8960
▁ritual	-8961
▁virtue	-8962
▁adverse	-8963
▁cabinet	-8964
▁satisfy	-8965
▁historic	-8966
▁stranger	-8967
▁designers	-8968
▁prosperity	-8969
ala	-8970
beat	-8971
omed	-8972
▁Bob	-8973
▁Mel	-8974
▁cats	-8975
▁mosqu	-8976
▁boring	-8977
▁brains	-8978
▁gotten	-8979
▁namely	-8980
▁reaches	-8981
▁wanting	-8982
▁efficacy	-8983
▁simultaneously	-8984
van	-8985
▁Ta	-8986
xual	-8987
▁Don	-8988
▁carn	-8989
▁fluct	-8990
▁incon	-8991
▁wider	-8992
▁enrich	-8993
▁hollow	-8994
▁Special	-8995
▁Canadian	-8996
▁acknowledge	-8997
▁aunt	-8998
▁flaw	-8999
▁succ	-9000
▁chaos	-9001
▁unity	-9002
▁suspic	-9003
▁Product	-9004
▁relaxed	-9005
▁maintained	-9006
▁persistent	-9007
▁departments	-9008
▁ol	-9009
otion	-9010
▁rhet	-9011
▁resent	-9012
▁thesis	-9013
▁barrier	-9014
▁coastal	-9015
▁jealous	-9016
▁counterp	-9017
▁pressing	-9018
▁uncomfort	-9019
▁complement	-9020
odge	-9021
▁Sum	-9022
▁elite	-9023
▁erect	-9024
▁warri	-9025
▁Jewish	-9026
▁rabbit	-9027
▁roller	-9028
▁urgent	-9029
▁corrupt	-9030
▁descend	-9031
▁forgive	-9032
▁reporter	-9033
▁cigarette	-9034
▁initiative	-9035
OS	-9036
pan	-9037
abul	-9038
bery	-9039
ogram	-9040
uates	-9041
▁Hall	-9042
▁offs	-9043
ealand	-9044
umbled	-9045
▁fleet	-9046
▁overs	-9047
agnetic	-9048
▁extens	-9049
▁rushed	-9050
▁safely	-9051
▁briefly	-9052
▁fiction	-9053
▁pressed	-9054
▁shining	-9055
▁triumph	-9056
▁sections	-9057
▁opponents	-9058
▁qualified	-9059
▁contradict	-9060
▁consequence	-9061
▁tin	-9062
olate	-9063
roach	-9064
▁Your	-9065
▁metap	-9066
▁vague	-9067
▁hunger	-9068
▁scratch	-9069
▁matching	-9070
▁optimistic	-9071
▁transplant	-9072
▁ly	-9073
▁Fre	-9074
▁Jin	-9075
▁Jul	-9076
▁gut	-9077
▁gard	-9078
▁rejo	-9079
▁appra	-9080
▁spite	-9081
▁awaken	-9082
▁hazard	-9083
▁scarce	-9084
▁fulfill	-9085
▁penalty	-9086
▁selfish	-9087
▁climbing	-9088
▁payments	-9089
▁accurately	-9090
▁conversion	-9091
ua	-9092
uis	-9093
plex	-9094
lings	-9095
▁Muse	-9096
▁deaf	-9097
▁feud	-9098
▁hadn	-9099
▁outl	-9100
▁drill	-9101
▁caution	-9102
▁immense	-9103
▁offices	-9104
▁indirect	-9105
▁accordingly	-9106
▁sophisticated	-9107
ocy	-9108
opol	-9109
asses	-9110
▁murd	-9111
▁trim	-9112
▁Swiss	-9113
▁nurse	-9114
▁radar	-9115
▁Journal	-9116
▁resolved	-9117
▁preliminary	-9118
RE	-9119
▁193	-9120
▁Fil	-9121
▁bio	-9122
▁mum	-9123
arest	-9124
▁Holy	-9125
▁gods	-9126
▁capac	-9127
▁erupt	-9128
▁paste	-9129
▁crimes	-9130
▁dining	-9131
▁crossed	-9132
▁confused	-9133
▁provision	-9134
▁incredible	-9135
▁perception	-9136
▁awk	-9137
▁Supp	-9138
▁deny	-9139
asting	-9140
▁wages	-9141
▁Joseph	-9142
▁thirst	-9143
▁commodity	-9144
▁basketball	-9145
▁distinguish	-9146
▁Cle	-9147
▁avo	-9148
▁unl	-9149
▁fare	-9150
▁aging	-9151
▁beans	-9152
▁encry	-9153
▁Social	-9154
▁reveals	-9155
▁daughters	-9156
▁innovative	-9157
▁regulatory	-9158
PS	-9159
▁',	-9160
andy	-9161
▁Ann	-9162
▁lag	-9163
▁osc	-9164
▁Mont	-9165
▁caut	-9166
▁cort	-9167
▁intu	-9168
▁prey	-9169
▁reun	-9170
astics	-9171
▁wrest	-9172
▁Israeli	-9173
▁Society	-9174
▁avoided	-9175
▁awkward	-9176
▁elected	-9177
▁channels	-9178
▁engineer	-9179
▁inherent	-9180
▁appointed	-9181
▁navigation	-9182
▁protesters	-9183
▁Je	-9184
▁bac	-9185
▁meter	-9186
▁queue	-9187
▁beloved	-9188
▁lawyers	-9189
▁champion	-9190
▁announcement	-9191
rose	-9192
ckets	-9193
ribed	-9194
utors	-9195
▁subc	-9196
arched	-9197
ichuan	-9198
ounded	-9199
▁Champ	-9200
▁cargo	-9201
▁clust	-9202
▁exert	-9203
▁trail	-9204
▁County	-9205
▁Yellow	-9206
▁solved	-9207
▁upward	-9208
▁matches	-9209
▁boundary	-9210
▁friction	-9211
▁aesthetic	-9212
▁migration	-9213
▁prospects	-9214
▁Tool	-9215
▁flee	-9216
▁nucle	-9217
ulative	-9218
▁resign	-9219
▁termin	-9220
▁highway	-9221
▁polymer	-9222
▁shelter	-9223
▁designing	-9224
▁instantly	-9225
▁appreciation	-9226
▁specification	-9227
ords	-9228
rium	-9229
opher	-9230
▁conve	-9231
▁embry	-9232
▁macro	-9233
▁Columb	-9234
▁duties	-9235
▁charity	-9236
▁imaging	-9237
▁portfol	-9238
aboration	-9239
▁attacked	-9240
▁threshold	-9241
▁discussions	-9242
▁environments	-9243
RI	-9244
pit	-9245
rared	-9246
▁glac	-9247
▁wolf	-9248
▁femin	-9249
▁hurry	-9250
▁uncon	-9251
▁discoura	-9252
▁perceived	-9253
▁processed	-9254
▁promoting	-9255
▁disappointed	-9256
9,	-9257
igan	-9258
olis	-9259
ulse	-9260
▁orb	-9261
iolet	-9262
isive	-9263
▁spur	-9264
▁drown	-9265
▁miner	-9266
▁nodes	-9267
▁behold	-9268
▁inevit	-9269
▁modify	-9270
▁tennis	-9271
▁provider	-9272
▁abilities	-9273
ita	-9274
eron	-9275
fare	-9276
▁por	-9277
▁dual	-9278
▁Model	-9279
▁warmth	-9280
▁Harvard	-9281
▁bottles	-9282
▁condens	-9283
roductive	-9284
▁refriger	-9285
▁sensitivity	-9286
pace	-9287
rove	-9288
▁apt	-9289
orate	-9290
▁cann	-9291
▁rows	-9292
agraph	-9293
ulsive	-9294
▁Hawai	-9295
▁boots	-9296
▁agenda	-9297
▁candle	-9298
▁loaded	-9299
▁lowest	-9300
▁thrust	-9301
▁auction	-9302
▁curious	-9303
▁outlook	-9304
▁appetite	-9305
▁displace	-9306
▁physically	-9307
▁productive	-9308
▁manufacture	-9309
▁BE	-9310
anna	-9311
odox	-9312
tail	-9313
otive	-9314
▁fest	-9315
inence	-9316
▁Barack	-9317
▁patent	-9318
▁topics	-9319
▁investor	-9320
▁regulators	-9321
▁suggestion	-9322
▁tremendous	-9323
mm	-9324
log	-9325
azon	-9326
pent	-9327
▁Tor	-9328
▁sul	-9329
▁dupl	-9330
▁heal	-9331
▁Niger	-9332
▁intra	-9333
▁shots	-9334
▁bother	-9335
▁layout	-9336
▁sacred	-9337
▁washed	-9338
▁Eastern	-9339
▁grounds	-9340
▁scholar	-9341
▁tightly	-9342
▁isolation	-9343
▁BP	-9344
bling	-9345
▁brid	-9346
▁unhe	-9347
▁surviv	-9348
▁diverse	-9349
▁reactor	-9350
▁recruit	-9351
▁adventure	-9352
▁continent	-9353
▁tolerance	-9354
9.	-9355
LE	-9356
▁kin	-9357
▁Post	-9358
▁puzz	-9359
▁tract	-9360
otherapy	-9361
▁emperor	-9362
▁tickets	-9363
▁breeding	-9364
▁emphasis	-9365
▁expanded	-9366
▁circulation	-9367
4.	-9368
ipse	-9369
▁Ford	-9370
▁Song	-9371
▁aims	-9372
▁tomb	-9373
▁divid	-9374
▁seats	-9375
▁breeze	-9376
▁declar	-9377
▁raises	-9378
▁anymore	-9379
▁citizen	-9380
▁criteria	-9381
▁resulted	-9382
▁expanding	-9383
▁achievements	-9384
oids	-9385
▁glow	-9386
▁rein	-9387
▁arrog	-9388
▁noble	-9389
▁rally	-9390
▁shade	-9391
▁behave	-9392
▁Johnson	-9393
▁blowing	-9394
▁discont	-9395
▁fitting	-9396
▁inhabit	-9397
▁scandal	-9398
▁sentences	-9399
boy	-9400
ura	-9401
aver	-9402
▁Huang	-9403
▁absent	-9404
▁earnest	-9405
▁embedded	-9406
▁headquar	-9407
▁Technology	-9408
▁acquisition	-9409
▁maintaining	-9410
20	-9411
tt	-9412
aic	-9413
▁Pet	-9414
▁alph	-9415
▁publ	-9416
▁recl	-9417
▁welf	-9418
▁Three	-9419
▁alloy	-9420
▁bills	-9421
▁checks	-9422
▁intest	-9423
▁compact	-9424
▁outdoor	-9425
▁opponent	-9426
▁affecting	-9427
zzy	-9428
ener	-9429
ugged	-9430
▁Book	-9431
▁Land	-9432
▁cous	-9433
▁outc	-9434
▁lists	-9435
▁Spirit	-9436
▁backup	-9437
▁drying	-9438
▁metals	-9439
▁rivals	-9440
▁sooner	-9441
▁electrom	-9442
▁metaphor	-9443
▁wondered	-9444
▁directions	-9445
bor	-9446
iban	-9447
thal	-9448
▁sof	-9449
senal	-9450
▁1990	-9451
▁bulk	-9452
▁lawn	-9453
hetics	-9454
▁gross	-9455
regular	-9456
▁pencil	-9457
▁casting	-9458
▁adequate	-9459
▁Bu	-9460
agan	-9461
iped	-9462
▁gamb	-9463
▁hire	-9464
▁pave	-9465
▁taxi	-9466
▁vest	-9467
▁fifty	-9468
▁seller	-9469
▁underm	-9470
▁diction	-9471
▁welfare	-9472
▁chemistry	-9473
▁predicted	-9474
▁responses	-9475
IDS	-9476
ige	-9477
oub	-9478
▁Dad	-9479
chest	-9480
▁Jobs	-9481
▁Linc	-9482
▁Charl	-9483
▁wheels	-9484
▁scenery	-9485
▁decreased	-9486
▁Management	-9487
▁protecting	-9488
▁inspiration	-9489
▁publication	-9490
▁traditionally	-9491
fect	-9492
▁USA	-9493
itzer	-9494
izard	-9495
▁axis	-9496
▁evac	-9497
▁album	-9498
▁blessed	-9499
▁examined	-9500
▁minority	-9501
▁protests	-9502
▁supervis	-9503
▁Indonesia	-9504
▁exercises	-9505
▁accomplished	-9506
rem	-9507
▁SC	-9508
anth	-9509
▁Yun	-9510
▁gle	-9511
▁pap	-9512
liers	-9513
oscop	-9514
▁Fire	-9515
utable	-9516
▁ninet	-9517
▁queen	-9518
osystem	-9519
▁drives	-9520
▁scared	-9521
▁Philipp	-9522
▁retreat	-9523
▁staring	-9524
▁trapped	-9525
▁enhanced	-9526
▁mainland	-9527
▁governance	-9528
▁Jo	-9529
▁Acc	-9530
▁gaz	-9531
addafi	-9532
ometers	-9533
▁allies	-9534
▁portra	-9535
▁assault	-9536
▁lateral	-9537
▁cognitive	-9538
▁financing	-9539
▁ts	-9540
role	-9541
▁dye	-9542
aired	-9543
▁Gates	-9544
▁guilt	-9545
ructive	-9546
▁assigned	-9547
▁wireless	-9548
▁photographs	-9549
▁quantitative	-9550
gle	-9551
oln	-9552
upp	-9553
▁That	-9554
▁herb	-9555
▁tons	-9556
▁urge	-9557
itated	-9558
▁coron	-9559
▁oxide	-9560
▁prest	-9561
onymous	-9562
▁cavity	-9563
▁incons	-9564
▁ignored	-9565
▁insight	-9566
▁monthly	-9567
▁Virginia	-9568
▁catching	-9569
▁crossing	-9570
▁ministry	-9571
▁stations	-9572
▁Communist	-9573
▁threatening	-9574
▁transactions	-9575
erg	-9576
anean	-9577
▁Oper	-9578
▁Well	-9579
culiar	-9580
orship	-9581
▁bloss	-9582
▁cough	-9583
▁revel	-9584
▁squad	-9585
▁Taliban	-9586
▁council	-9587
▁failing	-9588
▁handful	-9589
▁shocked	-9590
▁peculiar	-9591
▁grandfather	-9592
isa	-9593
▁Rh	-9594
cule	-9595
ench	-9596
▁idi	-9597
adequ	-9598
▁nail	-9599
▁edges	-9600
▁excav	-9601
▁catast	-9602
▁dissip	-9603
▁endeav	-9604
▁hammer	-9605
▁broader	-9606
▁distract	-9607
▁modeling	-9608
▁opinions	-9609
▁pointing	-9610
▁reactions	-9611
▁capitalism	-9612
▁provisions	-9613
ushes	-9614
▁NASA	-9615
▁cute	-9616
▁doct	-9617
▁carpet	-9618
▁landed	-9619
▁devoted	-9620
▁mosquit	-9621
▁wounded	-9622
▁invented	-9623
▁scattered	-9624
▁preventing	-9625
td	-9626
▁Bas	-9627
▁GDP	-9628
▁Rom	-9629
▁clo	-9630
▁rud	-9631
▁sore	-9632
▁tide	-9633
▁pants	-9634
issance	-9635
▁Malays	-9636
▁beliefs	-9637
▁crowded	-9638
▁expects	-9639
▁attended	-9640
▁rotation	-9641
▁template	-9642
▁behaviors	-9643
▁operators	-9644
▁journalists	-9645
▁With	-9646
imeter	-9647
ogenic	-9648
▁shook	-9649
▁souls	-9650
▁degrad	-9651
▁expend	-9652
▁evolved	-9653
▁quantum	-9654
▁thereby	-9655
▁infections	-9656
▁countryside	-9657
▁speculation	-9658
bish	-9659
olph	-9660
▁meets	-9661
▁overr	-9662
▁dialog	-9663
▁posted	-9664
▁climbed	-9665
▁horizon	-9666
▁partition	-9667
▁approached	-9668
▁ost	-9669
uters	-9670
▁Hind	-9671
▁Saud	-9672
▁radi	-9673
▁alloc	-9674
▁inval	-9675
▁seism	-9676
▁cooked	-9677
▁voices	-9678
▁Lincoln	-9679
▁actively	-9680
▁bleeding	-9681
▁compress	-9682
▁corrosion	-9683
IA	-9684
▁400	-9685
▁haw	-9686
▁bits	-9687
▁rude	-9688
▁dates	-9689
▁embod	-9690
▁grief	-9691
▁swept	-9692
▁copies	-9693
▁inches	-9694
▁oldest	-9695
▁vector	-9696
▁wholes	-9697
▁inadequ	-9698
▁powered	-9699
▁locations	-9700
▁unwilling	-9701
▁influences	-9702
itz	-9703
▁Nob	-9704
▁umb	-9705
▁coup	-9706
▁Santa	-9707
▁calib	-9708
▁gorge	-9709
▁Amazon	-9710
▁adoles	-9711
attering	-9712
▁applies	-9713
▁happily	-9714
▁enjoying	-9715
▁fragment	-9716
▁likewise	-9717
▁momentum	-9718
▁princess	-9719
▁fantastic	-9720
▁connecting	-9721
▁unnecessary	-9722
▁revolutionary	-9723
DA	-9724
EL	-9725
iah	-9726
izz	-9727
ois	-9728
▁bee	-9729
▁hub	-9730
▁bind	-9731
▁tune	-9732
estone	-9733
ometry	-9734
▁engin	-9735
▁tuber	-9736
▁ladies	-9737
▁Sichuan	-9738
▁loading	-9739
▁romance	-9740
▁converted	-9741
▁favourite	-9742
▁necessity	-9743
▁scheduled	-9744
▁specialized	-9745
▁na	-9746
esis	-9747
ensus	-9748
opard	-9749
▁Life	-9750
▁Prem	-9751
▁cope	-9752
▁lazy	-9753
▁impat	-9754
▁recur	-9755
tically	-9756
▁horror	-9757
▁resume	-9758
▁insects	-9759
▁prevail	-9760
▁attempted	-9761
▁encouraging	-9762
nan	-9763
▁Nan	-9764
▁ape	-9765
enced	-9766
ritis	-9767
▁bund	-9768
▁cage	-9769
▁debr	-9770
▁tire	-9771
atable	-9772
▁stair	-9773
▁stared	-9774
▁bargain	-9775
▁beating	-9776
▁ongoing	-9777
▁relates	-9778
▁inferior	-9779
▁estimates	-9780
▁exclusive	-9781
▁suspended	-9782
▁objectives	-9783
▁concentrate	-9784
▁grandmother	-9785
ENT	-9786
bly	-9787
rite	-9788
▁Gra	-9789
▁Cast	-9790
inging	-9791
roleum	-9792
▁recyc	-9793
▁suburb	-9794
▁circles	-9795
▁founder	-9796
▁listened	-9797
▁irregular	-9798
▁dimensions	-9799
▁documentation	-9800
▁Administration	-9801
anim	-9802
wich	-9803
▁Vol	-9804
▁cel	-9805
▁hip	-9806
▁seg	-9807
angular	-9808
▁twelve	-9809
outheast	-9810
▁Listing	-9811
▁farming	-9812
▁garbage	-9813
▁impress	-9814
▁abundant	-9815
▁proteins	-9816
▁paintings	-9817
▁suspected	-9818
▁harmonious	-9819
▁occasional	-9820
aska	-9821
orer	-9822
urry	-9823
▁dip	-9824
▁rac	-9825
oline	-9826
▁masc	-9827
▁devil	-9828
▁incom	-9829
▁county	-9830
▁stairs	-9831
osh	-9832
▁Sn	-9833
▁Ts	-9834
▁Nap	-9835
▁Club	-9836
▁corp	-9837
▁Space	-9838
▁proce	-9839
▁argues	-9840
▁engines	-9841
▁packing	-9842
▁Business	-9843
▁psychiat	-9844
▁factories	-9845
▁substances	-9846
▁fox	-9847
▁nap	-9848
▁2010	-9849
▁fake	-9850
▁herd	-9851
▁Found	-9852
▁Irish	-9853
▁Buddha	-9854
▁finite	-9855
roscopic	-9856
▁spotted	-9857
▁deposits	-9858
▁grinding	-9859
▁overhead	-9860
▁removing	-9861
▁expecting	-9862
▁occurrence	-9863
▁expressions	-9864
▁performances	-9865
uish	-9866
▁Naz	-9867
plete	-9868
shore	-9869
▁Moon	-9870
▁lust	-9871
▁mant	-9872
▁stol	-9873
▁triv	-9874
▁unav	-9875
▁fossil	-9876
▁plasma	-9877
▁unfair	-9878
▁fantasy	-9879
▁minimal	-9880
▁invasion	-9881
▁conflicts	-9882
▁wondering	-9883
▁applicable	-9884
▁securities	-9885
▁entrepreneur	-9886
oons	-9887
▁bru	-9888
idate	-9889
▁mate	-9890
▁urged	-9891
▁Spring	-9892
▁Science	-9893
▁nowhere	-9894
▁invisible	-9895
▁compromise	-9896
jud	-9897
▁nas	-9898
heart	-9899
▁nour	-9900
iosity	-9901
▁boats	-9902
▁wreck	-9903
▁breathe	-9904
▁disgust	-9905
▁drought	-9906
▁fitness	-9907
▁ambition	-9908
▁employer	-9909
▁publicly	-9910
▁conservation	-9911
▁Ca	-9912
after	-9913
ouses	-9914
▁porn	-9915
▁wrap	-9916
anship	-9917
atched	-9918
▁hired	-9919
▁silly	-9920
▁Museum	-9921
▁feared	-9922
▁offset	-9923
▁transm	-9924
▁hormone	-9925
▁monster	-9926
▁grateful	-9927
▁supplier	-9928
▁developer	-9929
OL	-9930
▁26	-9931
hess	-9932
onia	-9933
▁gymn	-9934
▁vain	-9935
▁wage	-9936
▁flock	-9937
▁trunk	-9938
▁People	-9939
▁actress	-9940
▁blanket	-9941
▁skilled	-9942
▁blessing	-9943
▁congress	-9944
▁elephant	-9945
▁integral	-9946
▁depressed	-9947
▁restricted	-9948
▁populations	-9949
▁Tun	-9950
guard	-9951
▁bark	-9952
▁mane	-9953
▁depri	-9954
▁calend	-9955
▁unders	-9956
▁Scotland	-9957
▁constitu	-9958
▁keyboard	-9959
▁reinforce	-9960
▁attraction	-9961
gi	-9962
yer	-9963
unct	-9964
▁Gar	-9965
▁Hun	-9966
▁Toy	-9967
▁gly	-9968
▁oak	-9969
▁AIDS	-9970
▁Yuan	-9971
▁pars	-9972
bridge	-9973
leness	-9974
▁Hotel	-9975
ciously	-9976
▁Berlin	-9977
▁competitors	-9978
▁CN	-9979
▁Hol	-9980
▁muc	-9981
▁Dire	-9982
▁Love	-9983
▁Mand	-9984
▁Cheng	-9985
ighters	-9986
▁debris	-9987
▁mixing	-9988
▁obsess	-9989
▁studio	-9990
▁firstly	-9991
▁spatial	-9992
▁unclear	-9993
▁charming	-9994
▁identical	-9995
▁impressed	-9996
▁volunteers	-9997
▁Ju	-9998
anol	-9999
held	-10000
iral	-10001
▁Inf	-10002
▁Mem	-10003
▁gam	-10004
eries	-10005
heric	-10006
▁feat	-10007
▁Milan	-10008
▁imposed	-10009
▁parking	-10010
▁passive	-10011
▁shaking	-10012
▁spreads	-10013
▁infrared	-10014
▁disorders	-10015
▁sovereign	-10016
▁efficiently	-10017
▁temporarily	-10018
▁availability	-10019
▁interference	-10020
▁controversial	-10021
▁reconstruction	-10022
▁Ill	-10023
osion	-10024
ringe	-10025
▁junk	-10026
▁prod	-10027
▁forty	-10028
▁mercy	-10029
▁dating	-10030
▁mighty	-10031
▁duration	-10032
▁executed	-10033
▁imagined	-10034
▁imported	-10035
▁strictly	-10036
▁throwing	-10037
▁transmit	-10038
▁synthetic	-10039
▁therapeutic	-10040
▁Ltd	-10041
▁ank	-10042
▁lam	-10043
▁procl	-10044
▁Engine	-10045
▁pedest	-10046
▁solving	-10047
▁warrant	-10048
▁departure	-10049
▁spectacular	-10050
8,	-10051
abb	-10052
emen	-10053
osals	-10054
▁icon	-10055
▁visc	-10056
inates	-10057
ivable	-10058
▁Under	-10059
▁acted	-10060
▁flies	-10061
▁fried	-10062
▁lined	-10063
▁spill	-10064
▁Bridge	-10065
▁heated	-10066
▁pillow	-10067
▁preval	-10068
▁rating	-10069
▁entitled	-10070
▁coalition	-10071
▁fragrance	-10072
▁HP	-10073
agle	-10074
▁echo	-10075
▁sack	-10076
itious	-10077
▁Human	-10078
▁shine	-10079
aterial	-10080
▁Empire	-10081
▁folder	-10082
▁insult	-10083
▁retros	-10084
▁scores	-10085
▁statue	-10086
▁timing	-10087
▁dignity	-10088
▁traders	-10089
▁astronom	-10090
▁Education	-10091
▁analyzing	-10092
▁meaningful	-10093
▁possession	-10094
▁tid	-10095
▁Conn	-10096
▁Academ	-10097
▁acquire	-10098
▁healing	-10099
▁educated	-10100
▁hypothes	-10101
▁apparatus	-10102
▁demanding	-10103
▁dominated	-10104
▁inevitably	-10105
▁operational	-10106
▁politically	-10107
▁probability	-10108
▁surprisingly	-10109
kins	-10110
lain	-10111
esity	-10112
▁peop	-10113
entric	-10114
▁airpl	-10115
▁belly	-10116
▁cabin	-10117
▁gases	-10118
▁prone	-10119
▁speaks	-10120
▁cheaper	-10121
▁shorter	-10122
▁meantime	-10123
▁ecosystem	-10124
▁fortunately	-10125
BM	-10126
rat	-10127
imen	-10128
otal	-10129
▁Ext	-10130
▁Sus	-10131
▁pork	-10132
▁heter	-10133
rection	-10134
▁Disney	-10135
▁funeral	-10136
ochemical	-10137
▁drilling	-10138
▁bankruptcy	-10139
▁foreigners	-10140
▁retirement	-10141
▁differently	-10142
asia	-10143
▁End	-10144
cular	-10145
▁Dick	-10146
▁grim	-10147
▁muff	-10148
▁wipe	-10149
rative	-10150
▁shalt	-10151
▁ultra	-10152
▁lovers	-10153
▁punish	-10154
▁yields	-10155
▁fathers	-10156
▁furnace	-10157
▁retired	-10158
▁worries	-10159
▁Southern	-10160
▁feasible	-10161
▁proposals	-10162
▁decoration	-10163
▁deformation	-10164
▁implications	-10165
IG	-10166
▁coc	-10167
▁luc	-10168
ushion	-10169
▁anten	-10170
▁arrow	-10171
▁buyer	-10172
▁slice	-10173
▁steal	-10174
▁pepper	-10175
▁existed	-10176
▁hurried	-10177
▁commerce	-10178
▁touching	-10179
▁paragraph	-10180
▁mainstream	-10181
▁--	-10182
drop	-10183
▁Dou	-10184
▁Hon	-10185
▁Step	-10186
▁grip	-10187
▁guns	-10188
▁maid	-10189
▁First	-10190
▁seized	-10191
▁spiral	-10192
▁stubborn	-10193
▁completion	-10194
▁appointment	-10195
▁suggestions	-10196
▁participation	-10197
nity	-10198
▁bog	-10199
illion	-10200
▁awake	-10201
▁blown	-10202
▁camer	-10203
▁clubs	-10204
▁fuzzy	-10205
▁slave	-10206
▁addict	-10207
▁microw	-10208
▁tracks	-10209
▁Islamic	-10210
▁consume	-10211
▁unhappy	-10212
▁descript	-10213
▁overnight	-10214
▁phenomena	-10215
▁reluctant	-10216
▁inflammation	-10217
ols	-10218
▁Id	-10219
isan	-10220
▁Cit	-10221
▁mol	-10222
▁Jews	-10223
▁Poly	-10224
▁deer	-10225
▁rehab	-10226
iversary	-10227
▁centers	-10228
▁remarks	-10229
▁talents	-10230
▁illusion	-10231
▁producer	-10232
▁inventory	-10233
▁IC	-10234
▁Ku	-10235
itty	-10236
pers	-10237
amine	-10238
▁Food	-10239
▁Hill	-10240
▁Stra	-10241
▁abol	-10242
▁candy	-10243
▁jeans	-10244
▁betray	-10245
▁masses	-10246
▁verify	-10247
▁Exchange	-10248
▁crystall	-10249
▁bilateral	-10250
ye	-10251
▁Of	-10252
aden	-10253
oard	-10254
▁cyc	-10255
▁dys	-10256
▁sus	-10257
works	-10258
▁epic	-10259
▁Press	-10260
▁skull	-10261
▁surpl	-10262
▁cleans	-10263
▁poured	-10264
▁submit	-10265
▁fragile	-10266
▁infinite	-10267
▁spinning	-10268
▁Character	-10269
▁indicating	-10270
▁restrictions	-10271
nergy	-10272
▁Turk	-10273
▁exem	-10274
▁yarn	-10275
▁Women	-10276
▁whist	-10277
ulously	-10278
▁guitar	-10279
▁sealed	-10280
▁timely	-10281
▁trials	-10282
ceptible	-10283
▁Georgia	-10284
▁Station	-10285
▁mapping	-10286
▁sisters	-10287
▁upright	-10288
▁servants	-10289
▁companion	-10290
▁expertise	-10291
▁primitive	-10292
assy	-10293
athan	-10294
ighth	-10295
▁Norm	-10296
▁buoy	-10297
▁gluc	-10298
▁logo	-10299
▁obed	-10300
▁taxp	-10301
▁arise	-10302
▁costly	-10303
▁genius	-10304
▁hotels	-10305
▁calories	-10306
▁dynamics	-10307
▁mistaken	-10308
▁quarters	-10309
▁economist	-10310
▁indicator	-10311
▁instances	-10312
▁lightning	-10313
▁statistical	-10314
▁classification	-10315
grat	-10316
▁Rio	-10317
▁twe	-10318
▁monu	-10319
▁swit	-10320
▁cliff	-10321
▁lemon	-10322
vention	-10323
▁advers	-10324
▁congrat	-10325
▁deserve	-10326
rys	-10327
▁Ji	-10328
▁dot	-10329
▁fame	-10330
asures	-10331
▁embra	-10332
▁indef	-10333
▁merch	-10334
▁depict	-10335
▁intend	-10336
▁ethical	-10337
▁shortage	-10338
▁ministers	-10339
▁portfolio	-10340
▁treatments	-10341
▁supervision	-10342
cery	-10343
▁Shi	-10344
▁dub	-10345
asure	-10346
▁puff	-10347
▁Nobel	-10348
▁arter	-10349
ogether	-10350
▁Minist	-10351
ribution	-10352
▁obesity	-10353
▁sharply	-10354
▁ideology	-10355
▁references	-10356
▁rip	-10357
▁Saudi	-10358
▁Stand	-10359
▁weird	-10360
▁unrest	-10361
▁blocked	-10362
▁destiny	-10363
▁lacking	-10364
▁peoples	-10365
▁readily	-10366
▁strikes	-10367
▁Northern	-10368
▁responded	-10369
▁engagement	-10370
▁ic	-10371
qing	-10372
shop	-10373
essim	-10374
▁Tian	-10375
▁Tony	-10376
▁flick	-10377
▁grape	-10378
▁Manche	-10379
▁artery	-10380
▁atomic	-10381
▁outward	-10382
▁tactics	-10383
▁accessible	-10384
▁generating	-10385
▁suggesting	-10386
▁suspension	-10387
▁magnificent	-10388
ozy	-10389
▁AD	-10390
pert	-10391
▁Div	-10392
▁Est	-10393
▁Nic	-10394
▁gum	-10395
▁Jeff	-10396
▁boil	-10397
▁cease	-10398
▁debts	-10399
iratory	-10400
through	-10401
▁pessim	-10402
▁Process	-10403
▁knocked	-10404
▁premium	-10405
▁backward	-10406
▁develops	-10407
▁morality	-10408
▁differential	-10409
rack	-10410
sman	-10411
think	-10412
▁Glob	-10413
▁sigh	-10414
▁alike	-10415
▁dairy	-10416
▁midst	-10417
▁repay	-10418
▁stolen	-10419
iliation	-10420
▁Goldman	-10421
▁lifting	-10422
▁summary	-10423
▁operated	-10424
▁directors	-10425
▁meditation	-10426
▁transmitted	-10427
▁uncomfortable	-10428
LA	-10429
uty	-10430
▁MP	-10431
aire	-10432
▁150	-10433
▁gru	-10434
ordan	-10435
▁Stan	-10436
▁cust	-10437
▁aspir	-10438
▁beast	-10439
▁realm	-10440
▁vocal	-10441
▁escaped	-10442
▁Ministry	-10443
▁orientation	-10444
▁approximately	-10445
seen	-10446
▁Dam	-10447
icism	-10448
▁clip	-10449
▁fires	-10450
▁gland	-10451
▁scept	-10452
eliness	-10453
▁ethics	-10454
▁immort	-10455
▁induce	-10456
▁virgin	-10457
▁farther	-10458
▁hitting	-10459
▁judicial	-10460
▁persuade	-10461
▁colleague	-10462
▁specially	-10463
▁stainless	-10464
uts	-10465
▁Yah	-10466
▁bun	-10467
▁pant	-10468
▁prud	-10469
semble	-10470
▁accent	-10471
▁empire	-10472
▁legacy	-10473
▁outlet	-10474
▁serial	-10475
▁hearted	-10476
▁steering	-10477
▁recovered	-10478
▁diagnostic	-10479
▁entrepreneurs	-10480
▁Bre	-10481
▁Wei	-10482
▁ber	-10483
▁cum	-10484
▁Camb	-10485
▁Head	-10486
▁Hung	-10487
uating	-10488
▁Daily	-10489
▁centr	-10490
▁fence	-10491
▁laund	-10492
▁march	-10493
▁olive	-10494
▁thorn	-10495
▁broker	-10496
▁guards	-10497
▁prolif	-10498
▁counsel	-10499
▁promoted	-10500
▁stimulate	-10501
▁unconscious	-10502
wed	-10503
▁pa	-10504
keys	-10505
view	-10506
▁Bon	-10507
▁Rem	-10508
▁Sha	-10509
▁sway	-10510
▁chill	-10511
▁intake	-10512
▁monkey	-10513
▁enabled	-10514
▁massage	-10515
▁silicon	-10516
▁survived	-10517
▁Manchester	-10518
▁celebration	-10519
▁overwhelming	-10520
▁SP	-10521
▁foam	-10522
▁woke	-10523
▁juris	-10524
▁posts	-10525
▁castle	-10526
▁divide	-10527
▁advised	-10528
▁lightly	-10529
▁pharmac	-10530
▁streams	-10531
▁addressed	-10532
▁consensus	-10533
▁curiosity	-10534
▁employers	-10535
▁socialist	-10536
▁classified	-10537
▁perfection	-10538
▁anniversary	-10539
oen	-10540
▁Buff	-10541
▁bend	-10542
▁slic	-10543
assium	-10544
▁Princ	-10545
▁audit	-10546
▁digit	-10547
▁insur	-10548
▁stagn	-10549
erences	-10550
▁deemed	-10551
▁solemn	-10552
▁listing	-10553
▁orchest	-10554
▁wherever	-10555
▁consuming	-10556
▁suppliers	-10557
▁collecting	-10558
▁enforcement	-10559
MS	-10560
dog	-10561
▁mm	-10562
ilib	-10563
▁Van	-10564
▁pix	-10565
▁Conc	-10566
▁epit	-10567
▁eyel	-10568
▁pand	-10569
▁seaf	-10570
monary	-10571
ugging	-10572
▁Moses	-10573
▁Putin	-10574
▁ambit	-10575
▁vigor	-10576
▁Argent	-10577
▁Little	-10578
▁append	-10579
▁verbal	-10580
▁congest	-10581
▁acquaint	-10582
▁commands	-10583
▁pipeline	-10584
▁premature	-10585
▁correction	-10586
▁curriculum	-10587
anz	-10588
orrh	-10589
▁Sup	-10590
▁ferv	-10591
▁jade	-10592
▁pose	-10593
▁Somal	-10594
▁batch	-10595
▁skirt	-10596
▁suits	-10597
▁vigil	-10598
▁secrets	-10599
▁synthes	-10600
▁cerebral	-10601
▁supplied	-10602
▁troubled	-10603
▁hopefully	-10604
▁requested	-10605
▁sustained	-10606
▁utilization	-10607
oser	-10608
▁Dub	-10609
aceut	-10610
aimed	-10611
▁assass	-10612
▁intens	-10613
▁planes	-10614
▁Tibetan	-10615
▁loyalty	-10616
▁earliest	-10617
▁focusing	-10618
▁kindness	-10619
▁liquidity	-10620
▁additionally	-10621
ffe	-10622
hell	-10623
zhen	-10624
▁Two	-10625
estion	-10626
▁decay	-10627
▁shear	-10628
▁shelf	-10629
▁detach	-10630
▁disint	-10631
▁propri	-10632
▁unfold	-10633
▁edition	-10634
▁gesture	-10635
▁municip	-10636
▁analyses	-10637
▁downtown	-10638
▁describing	-10639
▁transferred	-10640
▁concentrated	-10641
fty	-10642
oqu	-10643
bell	-10644
ccer	-10645
grim	-10646
oken	-10647
▁bug	-10648
▁voy	-10649
icken	-10650
inson	-10651
vable	-10652
ville	-10653
▁crust	-10654
amation	-10655
▁acoust	-10656
▁soccer	-10657
▁declare	-10658
▁episode	-10659
▁convince	-10660
▁heritage	-10661
▁intensive	-10662
▁indication	-10663
▁simplicity	-10664
▁convenience	-10665
▁complications	-10666
▁Luc	-10667
▁bay	-10668
maker	-10669
rator	-10670
▁brow	-10671
▁Iraqi	-10672
▁float	-10673
▁pyram	-10674
▁unpre	-10675
athetic	-10676
▁Resour	-10677
▁analog	-10678
▁cylind	-10679
▁testim	-10680
▁trains	-10681
▁erosion	-10682
▁planted	-10683
▁sadness	-10684
▁ornament	-10685
▁reminder	-10686
▁finishing	-10687
▁hospitals	-10688
▁ignorance	-10689
▁petroleum	-10690
▁categories	-10691
▁combustion	-10692
▁metabolism	-10693
▁compression	-10694
▁successfully	-10695
OD	-10696
▁4.	-10697
▁Ly	-10698
▁adul	-10699
▁anat	-10700
▁dock	-10701
▁mush	-10702
▁degen	-10703
▁corrid	-10704
▁endure	-10705
▁hypert	-10706
▁lively	-10707
▁novels	-10708
▁permit	-10709
▁plural	-10710
▁energet	-10711
▁receives	-10712
▁delighted	-10713
▁deployment	-10714
▁determines	-10715
▁incredibly	-10716
▁frustration	-10717
▁Os	-10718
verb	-10719
eling	-10720
erity	-10721
ifact	-10722
▁Fred	-10723
▁Wars	-10724
▁sexy	-10725
▁sket	-10726
▁slim	-10727
▁whit	-10728
giving	-10729
▁atoms	-10730
illance	-10731
▁beaten	-10732
▁dispar	-10733
▁galaxy	-10734
ountered	-10735
▁desktop	-10736
▁athletes	-10737
▁baseball	-10738
▁villages	-10739
▁substitute	-10740
▁CC	-10741
▁Cy	-10742
fold	-10743
ldom	-10744
nish	-10745
attan	-10746
▁bore	-10747
▁nood	-10748
▁blond	-10749
▁cache	-10750
▁swear	-10751
▁verte	-10752
ometric	-10753
▁honour	-10754
▁forcing	-10755
▁shadows	-10756
▁inclined	-10757
▁screening	-10758
▁invitation	-10759
▁prediction	-10760
▁capabilities	-10761
▁discrimination	-10762
arin	-10763
▁bib	-10764
rason	-10765
▁Adam	-10766
▁fren	-10767
▁kern	-10768
▁lapt	-10769
▁lakes	-10770
▁salad	-10771
▁spoon	-10772
lements	-10773
▁fitted	-10774
▁fusion	-10775
▁garlic	-10776
▁reflex	-10777
notation	-10778
▁bicycle	-10779
▁delayed	-10780
▁desires	-10781
▁joining	-10782
▁Contract	-10783
▁midnight	-10784
▁organize	-10785
▁severely	-10786
▁targeted	-10787
▁ambitious	-10788
▁decorated	-10789
▁Revolution	-10790
▁guidelines	-10791
▁cultivation	-10792
▁encountered	-10793
▁headquarters	-10794
VD	-10795
bag	-10796
omous	-10797
▁obey	-10798
▁orph	-10799
▁rage	-10800
arency	-10801
orable	-10802
teenth	-10803
▁graft	-10804
▁sheer	-10805
▁vapor	-10806
▁Arctic	-10807
▁Jordan	-10808
▁Arsenal	-10809
▁Twitter	-10810
▁chromos	-10811
▁rehabil	-10812
▁absorbed	-10813
▁singular	-10814
OC	-10815
ki	-10816
uo	-10817
erb	-10818
gon	-10819
orp	-10820
▁Vi	-10821
▁hood	-10822
▁lest	-10823
erving	-10824
oubted	-10825
writer	-10826
▁dolph	-10827
▁abrupt	-10828
▁neglig	-10829
▁wished	-10830
▁Foreign	-10831
▁magical	-10832
▁threads	-10833
▁calendar	-10834
▁implicit	-10835
▁stressed	-10836
▁combining	-10837
▁fashioned	-10838
▁microwave	-10839
▁narrative	-10840
▁separately	-10841
awa	-10842
uten	-10843
▁WHO	-10844
ourge	-10845
▁heap	-10846
▁horr	-10847
idated	-10848
▁ambig	-10849
▁amend	-10850
▁bloom	-10851
olester	-10852
▁kidney	-10853
▁paradox	-10854
▁theater	-10855
aceutical	-10856
▁terrorist	-10857
▁undoubted	-10858
▁reportedly	-10859
▁tsun	-10860
▁blunt	-10861
▁sunny	-10862
▁carved	-10863
▁humble	-10864
▁league	-10865
atherine	-10866
▁focuses	-10867
▁upgrade	-10868
operative	-10869
▁forehead	-10870
▁headache	-10871
▁inconven	-10872
▁abundance	-10873
▁sensation	-10874
▁improvements	-10875
TP	-10876
worm	-10877
▁Lar	-10878
▁Mun	-10879
▁jer	-10880
▁cerv	-10881
▁jury	-10882
▁lamb	-10883
▁tran	-10884
ussion	-10885
▁Color	-10886
▁balls	-10887
▁beard	-10888
▁draws	-10889
▁Oxford	-10890
▁evapor	-10891
▁lining	-10892
▁racing	-10893
▁Cameron	-10894
▁borders	-10895
▁dynasty	-10896
▁implant	-10897
▁sacrific	-10898
▁collapsed	-10899
▁incorrect	-10900
▁altogether	-10901
▁greenhouse	-10902
▁politician	-10903
▁32	-10904
▁DC	-10905
heet	-10906
▁Ter	-10907
▁ecc	-10908
▁nick	-10909
▁oven	-10910
idency	-10911
▁males	-10912
▁schema	-10913
▁seldom	-10914
astically	-10915
▁talented	-10916
▁commander	-10917
▁celebrated	-10918
▁Palestinian	-10919
▁Christianity	-10920
alls	-10921
▁vom	-10922
aware	-10923
▁glam	-10924
▁blend	-10925
▁cater	-10926
▁clamp	-10927
▁essay	-10928
▁imped	-10929
▁trump	-10930
assador	-10931
▁Golden	-10932
▁grammar	-10933
▁downturn	-10934
▁producers	-10935
▁restraint	-10936
▁submitted	-10937
▁terrorism	-10938
▁kilometers	-10939
▁constraints	-10940
▁distinctive	-10941
▁Ut	-10942
esome	-10943
▁When	-10944
▁sang	-10945
▁sess	-10946
ingham	-10947
▁repet	-10948
▁tanks	-10949
abulary	-10950
▁Garden	-10951
▁exotic	-10952
▁prejud	-10953
▁traits	-10954
▁receipt	-10955
▁seismic	-10956
▁squeeze	-10957
▁viruses	-10958
roduction	-10959
▁coupling	-10960
▁butterfly	-10961
▁comprises	-10962
▁partially	-10963
▁realization	-10964
ulin	-10965
▁dash	-10966
▁pays	-10967
▁pairs	-10968
▁scent	-10969
▁esteem	-10970
▁holder	-10971
▁judges	-10972
▁polite	-10973
▁cartoon	-10974
▁females	-10975
▁slipped	-10976
▁technic	-10977
ilization	-10978
▁drainage	-10979
▁faithful	-10980
IR	-10981
MB	-10982
ima	-10983
vol	-10984
wart	-10985
▁Tao	-10986
▁atom	-10987
▁gaze	-10988
▁Class	-10989
▁ingen	-10990
▁luxur	-10991
▁ranks	-10992
▁harass	-10993
▁recipe	-10994
▁redund	-10995
▁tragic	-10996
ilibrium	-10997
▁antagon	-10998
▁ceramic	-10999
▁carriage	-11000
▁equality	-11001
▁hopeless	-11002
▁reviewed	-11003
▁electronics	-11004
▁fascinating	-11005
aug	-11006
▁aug	-11007
▁ure	-11008
▁ruin	-11009
▁unve	-11010
iances	-11011
▁quote	-11012
▁tread	-11013
▁Energy	-11014
▁afflic	-11015
▁impose	-11016
▁makeup	-11017
▁voting	-11018
▁cameras	-11019
▁discipl	-11020
▁jumping	-11021
▁astronaut	-11022
▁countless	-11023
▁CS	-11024
▁Gre	-11025
▁Leg	-11026
▁bees	-11027
▁hits	-11028
▁Chief	-11029
▁bonus	-11030
▁inert	-11031
▁sixth	-11032
cedented	-11033
▁jewelry	-11034
▁stopping	-11035
▁incidence	-11036
▁offensive	-11037
▁medication	-11038
▁accumulation	-11039
▁administrator	-11040
▁unprecedented	-11041
una	-11042
▁Area	-11043
▁Blue	-11044
▁Matt	-11045
▁Serv	-11046
▁aster	-11047
ifiable	-11048
olation	-11049
uminous	-11050
▁Cambod	-11051
▁hatred	-11052
▁indoor	-11053
▁laying	-11054
▁underw	-11055
▁bubbles	-11056
▁signing	-11057
▁varying	-11058
▁billions	-11059
▁occupied	-11060
▁carcinoma	-11061
▁automobile	-11062
▁immigration	-11063
▁radioactive	-11064
▁dramatically	-11065
▁transparency	-11066
aque	-11067
hman	-11068
ucky	-11069
▁Dun	-11070
lical	-11071
▁blur	-11072
▁peer	-11073
▁Coast	-11074
▁accus	-11075
▁coeff	-11076
▁lobby	-11077
roscope	-11078
▁enzyme	-11079
▁feudal	-11080
▁visits	-11081
function	-11082
▁Reserve	-11083
▁avoiding	-11084
▁generator	-11085
▁predecess	-11086
▁fertilizer	-11087
▁underwater	-11088
▁coefficient	-11089
▁mathematics	-11090
▁surveillance	-11091
8.	-11092
hill	-11093
▁sid	-11094
▁unm	-11095
atism	-11096
ribly	-11097
▁unch	-11098
▁disgu	-11099
▁drift	-11100
▁greed	-11101
▁perse	-11102
ository	-11103
▁chains	-11104
▁Academy	-11105
▁graphic	-11106
▁miracle	-11107
▁potassium	-11108
▁stretched	-11109
▁synthesis	-11110
▁officially	-11111
nia	-11112
▁Ye	-11113
▁Let	-11114
eenth	-11115
▁Mess	-11116
▁Real	-11117
▁insc	-11118
esthes	-11119
▁opera	-11120
▁poems	-11121
▁umbre	-11122
▁urine	-11123
▁overlo	-11124
▁analyst	-11125
▁dealers	-11126
▁pension	-11127
▁placing	-11128
▁artifact	-11129
▁disposal	-11130
▁inserted	-11131
▁conditioning	-11132
TO	-11133
▁36	-11134
oise	-11135
igate	-11136
shire	-11137
venue	-11138
▁dazz	-11139
▁hipp	-11140
▁orch	-11141
▁toll	-11142
▁Angel	-11143
▁sizes	-11144
▁stems	-11145
uncture	-11146
▁enters	-11147
▁impart	-11148
▁anthrop	-11149
▁curtain	-11150
▁updated	-11151
▁useless	-11152
▁cellular	-11153
▁attitudes	-11154
▁triggered	-11155
▁discussing	-11156
▁approaching	-11157
▁collaboration	-11158
▁professionals	-11159
emia	-11160
seud	-11161
▁Dev	-11162
▁ana	-11163
ollen	-11164
▁verd	-11165
clipse	-11166
▁canal	-11167
▁genet	-11168
▁heels	-11169
▁stalk	-11170
anthrop	-11171
▁Palace	-11172
▁sunset	-11173
▁weekly	-11174
etheless	-11175
▁symptom	-11176
▁trusted	-11177
▁transcend	-11178
▁coordinate	-11179
▁systematic	-11180
▁inheritance	-11181
▁nonetheless	-11182
▁photography	-11183
▁Yao	-11184
▁rhe	-11185
indle	-11186
▁Hist	-11187
▁rehe	-11188
antern	-11189
▁calor	-11190
▁slept	-11191
▁homose	-11192
▁coupled	-11193
▁decides	-11194
▁flights	-11195
▁liberty	-11196
▁sensors	-11197
▁strings	-11198
▁ventric	-11199
▁epidemic	-11200
▁collision	-11201
▁profitable	-11202
▁purchasing	-11203
▁continually	-11204
▁consequently	-11205
afe	-11206
zes	-11207
▁):	-11208
unci	-11209
▁Rose	-11210
▁goss	-11211
▁lith	-11212
▁ripe	-11213
▁Civil	-11214
▁Medit	-11215
▁exclud	-11216
▁treaty	-11217
graduate	-11218
▁boiling	-11219
▁lighter	-11220
▁pigment	-11221
▁pretend	-11222
▁proport	-11223
▁seasons	-11224
▁shuttle	-11225
olesterol	-11226
▁imprison	-11227
▁outbreak	-11228
▁facilitate	-11229
▁functional	-11230
▁respiratory	-11231
▁ll	-11232
▁ego	-11233
idays	-11234
immer	-11235
rowth	-11236
▁Bear	-11237
▁whim	-11238
▁adorn	-11239
▁defic	-11240
▁postp	-11241
▁roast	-11242
▁shirts	-11243
▁supern	-11244
▁corners	-11245
▁adjusted	-11246
▁maturity	-11247
▁mentally	-11248
▁volatile	-11249
▁sanctions	-11250
▁witnesses	-11251
▁complaints	-11252
▁frustrated	-11253
▁Construction	-11254
▁displacement	-11255
▁independently	-11256
??	-11257
▁29	-11258
burn	-11259
hole	-11260
▁Bal	-11261
▁Cat	-11262
▁Oil	-11263
neath	-11264
▁Jean	-11265
▁Pear	-11266
▁flux	-11267
▁odds	-11268
riment	-11269
▁Nature	-11270
▁Square	-11271
▁ginger	-11272
▁impair	-11273
▁insuff	-11274
▁senses	-11275
▁throne	-11276
erranean	-11277
▁propose	-11278
▁civilian	-11279
▁disputes	-11280
▁graphics	-11281
▁sensible	-11282
▁comparing	-11283
▁discusses	-11284
▁explosive	-11285
▁legitimate	-11286
▁publishing	-11287
▁influential	-11288
▁developments	-11289
▁establishing	-11290
olar	-11291
▁Cai	-11292
▁NOT	-11293
▁Tro	-11294
▁cyn	-11295
orney	-11296
▁2000	-11297
▁Card	-11298
▁coin	-11299
▁fits	-11300
▁dough	-11301
▁roses	-11302
ameless	-11303
retched	-11304
roscopy	-11305
▁Valent	-11306
▁fibers	-11307
▁firing	-11308
▁renown	-11309
▁varied	-11310
▁Iranian	-11311
▁revenge	-11312
▁gorgeous	-11313
▁reciproc	-11314
▁accompany	-11315
▁investing	-11316
▁obstacles	-11317
▁passionate	-11318
▁distinction	-11319
▁breakthrough	-11320
bi	-11321
▁oh	-11322
▁awa	-11323
▁Fund	-11324
▁gown	-11325
▁ling	-11326
▁nons	-11327
▁rode	-11328
▁Trade	-11329
▁chips	-11330
▁sulph	-11331
▁Daniel	-11332
▁patron	-11333
▁Kingdom	-11334
▁insists	-11335
▁malaria	-11336
▁frightened	-11337
▁commodities	-11338
iro	-11339
▁Sud	-11340
▁mes	-11341
▁mim	-11342
▁sie	-11343
▁Navy	-11344
master	-11345
▁resil	-11346
▁risen	-11347
▁Shakes	-11348
▁garment	-11349
▁hostile	-11350
▁screens	-11351
▁hardship	-11352
▁ultrason	-11353
▁accidents	-11354
▁copyright	-11355
▁processor	-11356
▁Foundation	-11357
▁conception	-11358
▁helicopter	-11359
▁underneath	-11360
▁determining	-11361
bn	-11362
fu	-11363
hot	-11364
phy	-11365
usk	-11366
duct	-11367
roit	-11368
▁BBC	-11369
▁esp	-11370
chief	-11371
▁Camp	-11372
▁fork	-11373
▁crank	-11374
▁gover	-11375
▁sells	-11376
▁unint	-11377
▁misery	-11378
▁seated	-11379
esthesia	-11380
▁Iceland	-11381
▁Program	-11382
▁Senator	-11383
▁outrage	-11384
▁consumed	-11385
▁reminded	-11386
▁Different	-11387
▁desirable	-11388
▁attempting	-11389
▁measurements	-11390
▁Mediterranean	-11391
▁Kh	-11392
▁Sk	-11393
burg	-11394
card	-11395
hire	-11396
▁NAT	-11397
▁eld	-11398
▁neu	-11399
occup	-11400
▁pert	-11401
▁phon	-11402
▁temp	-11403
forest	-11404
▁Syria	-11405
▁enact	-11406
▁peers	-11407
▁popul	-11408
▁votes	-11409
herence	-11410
riction	-11411
▁coated	-11412
▁crowds	-11413
▁disinf	-11414
▁neural	-11415
▁worlds	-11416
▁Emperor	-11417
▁enlarge	-11418
▁execute	-11419
▁outline	-11420
▁Buddhist	-11421
▁flooding	-11422
ographical	-11423
▁obligation	-11424
▁destructive	-11425
▁institutional	-11426
▁disappointment	-11427
SP	-11428
irk	-11429
obe	-11430
ori	-11431
ader	-11432
obic	-11433
▁blo	-11434
▁Field	-11435
▁bombs	-11436
▁engra	-11437
▁loads	-11438
▁quart	-11439
▁actors	-11440
▁Reuters	-11441
▁cleaner	-11442
▁fighter	-11443
▁imports	-11444
▁nearest	-11445
▁adjacent	-11446
▁demanded	-11447
▁formerly	-11448
▁freezing	-11449
▁silently	-11450
▁smoothly	-11451
▁logistics	-11452
▁irrigation	-11453
▁cholesterol	-11454
▁involvement	-11455
▁deliberately	-11456
▁contributions	-11457
uh	-11458
arre	-11459
▁Max	-11460
chair	-11461
eland	-11462
viron	-11463
▁buzz	-11464
▁pige	-11465
▁seeks	-11466
▁thigh	-11467
▁wears	-11468
▁wives	-11469
▁freeze	-11470
▁indisp	-11471
▁panels	-11472
▁refres	-11473
▁strive	-11474
▁buttons	-11475
▁discern	-11476
▁sounded	-11477
itzerland	-11478
▁conclude	-11479
▁achieving	-11480
▁borrowing	-11481
▁nutrients	-11482
▁varieties	-11483
▁travelling	-11484
▁5.	-11485
herd	-11486
vity	-11487
▁API	-11488
▁gad	-11489
peare	-11490
▁Dong	-11491
▁dwar	-11492
▁Enter	-11493
ustomed	-11494
▁liquor	-11495
▁sleeve	-11496
▁visitor	-11497
▁distress	-11498
▁mushroom	-11499
▁offshore	-11500
▁portable	-11501
▁websites	-11502
▁Alexander	-11503
▁Guangzhou	-11504
▁complained	-11505
▁designated	-11506
▁vocabulary	-11507
▁photographer	-11508
ji	-11509
thy	-11510
amil	-11511
pple	-11512
avery	-11513
▁Cant	-11514
▁Sark	-11515
▁blew	-11516
▁fist	-11517
antine	-11518
▁Chair	-11519
▁cance	-11520
▁risky	-11521
▁trash	-11522
entions	-11523
▁tastes	-11524
▁consent	-11525
▁surplus	-11526
upuncture	-11527
▁alliance	-11528
▁doctrine	-11529
▁swelling	-11530
▁infectious	-11531
▁consistency	-11532
▁By	-11533
▁IBM	-11534
▁Sav	-11535
insic	-11536
luent	-11537
uffle	-11538
▁arth	-11539
▁stap	-11540
▁reign	-11541
▁trous	-11542
▁Corpor	-11543
▁boards	-11544
▁doubts	-11545
▁glucose	-11546
▁handled	-11547
▁relieve	-11548
▁terrain	-11549
▁stunning	-11550
▁bacterial	-11551
▁electromagnetic	-11552
EA	-11553
bel	-11554
enh	-11555
hea	-11556
hma	-11557
adic	-11558
amel	-11559
foot	-11560
▁Eve	-11561
▁Expl	-11562
▁Fact	-11563
▁lord	-11564
▁nurt	-11565
▁worm	-11566
ifully	-11567
▁Venus	-11568
▁Yahoo	-11569
▁awful	-11570
▁folks	-11571
▁reads	-11572
▁saliv	-11573
▁Darwin	-11574
▁blamed	-11575
▁bloody	-11576
▁buffer	-11577
▁killer	-11578
▁wilder	-11579
▁Islands	-11580
▁tsunami	-11581
▁Egyptian	-11582
▁failures	-11583
▁worrying	-11584
▁ancestors	-11585
▁animation	-11586
▁Switzerland	-11587
▁corporation	-11588
▁philanthrop	-11589
▁progressive	-11590
▁satisfactory	-11591
ila	-11592
iper	-11593
jing	-11594
▁Rog	-11595
▁rug	-11596
▁spy	-11597
ospel	-11598
▁Lind	-11599
▁beet	-11600
▁maps	-11601
▁oste	-11602
▁twin	-11603
▁Liber	-11604
▁artic	-11605
▁pipes	-11606
▁punch	-11607
▁toast	-11608
▁tremb	-11609
▁diesel	-11610
▁inward	-11611
▁Supreme	-11612
▁closest	-11613
▁lecture	-11614
▁Products	-11615
▁catalyst	-11616
▁prompted	-11617
▁associate	-11618
▁warehouse	-11619
▁calculating	-11620
▁stimulation	-11621
▁coordination	-11622
avil	-11623
eches	-11624
iotic	-11625
ratic	-11626
▁1980	-11627
▁chim	-11628
▁fict	-11629
▁jung	-11630
▁chase	-11631
▁landl	-11632
▁towel	-11633
section	-11634
▁Michel	-11635
▁Poland	-11636
▁puzzle	-11637
▁tackle	-11638
▁indefin	-11639
▁homework	-11640
▁molecule	-11641
▁threaten	-11642
▁Francisco	-11643
▁elaborate	-11644
▁hierarchy	-11645
▁preserved	-11646
▁accidentally	-11647
▁representatives	-11648
HP	-11649
iov	-11650
yle	-11651
gone	-11652
▁lect	-11653
▁sins	-11654
course	-11655
insula	-11656
▁Brook	-11657
thening	-11658
▁coward	-11659
▁guided	-11660
▁submar	-11661
▁Brother	-11662
▁honesty	-11663
▁addiction	-11664
▁observers	-11665
▁villagers	-11666
▁discretion	-11667
▁programmes	-11668
▁validation	-11669
▁credibility	-11670
▁feasibility	-11671
▁modification	-11672
▁authentication	-11673
IF	-11674
gian	-11675
▁Ari	-11676
raphy	-11677
▁Hand	-11678
▁Read	-11679
▁clam	-11680
abling	-11681
hattan	-11682
holder	-11683
linear	-11684
▁Guard	-11685
▁drank	-11686
▁etern	-11687
cession	-11688
▁banned	-11689
▁dishon	-11690
▁proves	-11691
▁repent	-11692
▁spouse	-11693
▁backing	-11694
▁preference	-11695
▁controversy	-11696
▁equilibrium	-11697
▁negotiation	-11698
▁residential	-11699
▁willingness	-11700
flu	-11701
▁3,	-11702
adow	-11703
comm	-11704
hend	-11705
▁Cur	-11706
▁hug	-11707
esium	-11708
oresc	-11709
▁Feng	-11710
▁Sand	-11711
▁borne	-11712
▁junior	-11713
▁prophe	-11714
▁Sarkozy	-11715
▁conceal	-11716
▁praised	-11717
▁symbols	-11718
▁gasoline	-11719
▁intimate	-11720
▁validity	-11721
▁batteries	-11722
▁evaluated	-11723
▁prototype	-11724
▁presidency	-11725
▁advertisement	-11726
care	-11727
econ	-11728
▁Ver	-11729
▁Carl	-11730
▁Coll	-11731
▁Helen	-11732
▁There	-11733
▁scram	-11734
▁aboard	-11735
▁inflic	-11736
▁sticks	-11737
▁sulfur	-11738
▁airline	-11739
▁balloon	-11740
▁tissues	-11741
▁barriers	-11742
▁rhetoric	-11743
▁speakers	-11744
▁teenager	-11745
▁traveled	-11746
▁conscience	-11747
▁dictionary	-11748
▁declaration	-11749
▁arrangements	-11750
▁confidential	-11751
hong	-11752
▁Att	-11753
▁Dig	-11754
▁piv	-11755
itime	-11756
▁Chap	-11757
▁heel	-11758
▁lane	-11759
▁lump	-11760
▁pean	-11761
▁visa	-11762
encing	-11763
▁bandw	-11764
▁feast	-11765
▁herbs	-11766
ersonal	-11767
inarily	-11768
▁bronch	-11769
▁sphere	-11770
▁capsule	-11771
▁peasant	-11772
▁colleges	-11773
▁obstacle	-11774
▁optimism	-11775
▁vitality	-11776
▁respected	-11777
▁Christians	-11778
▁configured	-11779
RL	-11780
hao	-11781
mal	-11782
▁IMF	-11783
▁sab	-11784
ipple	-11785
urate	-11786
ylene	-11787
▁pend	-11788
▁subm	-11789
▁fount	-11790
▁imbal	-11791
▁limbs	-11792
▁misle	-11793
▁moder	-11794
▁monot	-11795
▁paths	-11796
osphere	-11797
▁colours	-11798
▁inspire	-11799
▁potatoes	-11800
▁exchanges	-11801
▁attachment	-11802
▁journalist	-11803
▁loneliness	-11804
voc	-11805
▁cm	-11806
inqu	-11807
▁SOA	-11808
althy	-11809
▁Data	-11810
▁Home	-11811
▁Open	-11812
▁Pope	-11813
▁flap	-11814
▁frog	-11815
▁lungs	-11816
▁zones	-11817
▁Global	-11818
▁Hawaii	-11819
▁McCain	-11820
▁diving	-11821
▁flames	-11822
▁overth	-11823
▁spinal	-11824
▁starch	-11825
ogeneous	-11826
▁aggress	-11827
▁antenna	-11828
▁catalog	-11829
▁gastric	-11830
▁uranium	-11831
▁whoever	-11832
▁adoption	-11833
▁sympathy	-11834
▁textbook	-11835
▁societies	-11836
▁Shakespeare	-11837
▁Hug	-11838
▁Maj	-11839
aning	-11840
etric	-11841
▁Dark	-11842
▁ruth	-11843
othing	-11844
redict	-11845
▁hello	-11846
▁serum	-11847
ensable	-11848
▁anchor	-11849
▁extrav	-11850
▁kernel	-11851
▁portal	-11852
▁refine	-11853
▁crushed	-11854
▁impulse	-11855
▁assuming	-11856
▁horrible	-11857
▁minerals	-11858
▁missiles	-11859
▁residual	-11860
▁Manhattan	-11861
▁inconsist	-11862
▁mechanics	-11863
▁medicines	-11864
▁miserable	-11865
▁assumption	-11866
▁cultivated	-11867
▁quantities	-11868
▁wastewater	-11869
▁contributed	-11870
▁possibilities	-11871
bye	-11872
▁1:	-11873
▁191	-11874
▁Hyd	-11875
▁dug	-11876
▁ted	-11877
▁upt	-11878
adder	-11879
ansas	-11880
clock	-11881
▁Anne	-11882
▁Hait	-11883
escope	-11884
▁Psych	-11885
▁goose	-11886
▁nickn	-11887
▁penis	-11888
ceptive	-11889
western	-11890
▁evolve	-11891
▁floors	-11892
▁grains	-11893
▁sparse	-11894
▁wizard	-11895
▁bridges	-11896
▁fabrics	-11897
▁slavery	-11898
▁textile	-11899
▁Mountain	-11900
▁fragrant	-11901
▁predomin	-11902
▁abdominal	-11903
▁exquisite	-11904
▁offspring	-11905
▁struggled	-11906
igs	-11907
obi	-11908
▁FA	-11909
▁Spe	-11910
▁sib	-11911
overs	-11912
▁Four	-11913
▁Hard	-11914
▁mans	-11915
alling	-11916
▁Board	-11917
▁Stock	-11918
▁ankle	-11919
▁arist	-11920
▁forum	-11921
▁marsh	-11922
▁Nether	-11923
▁ascend	-11924
▁lament	-11925
▁tranqu	-11926
▁pricing	-11927
esthetics	-11928
▁scanning	-11929
▁accepting	-11930
▁equations	-11931
▁gratitude	-11932
▁possessed	-11933
▁strangers	-11934
▁translate	-11935
▁violation	-11936
▁supermarket	-11937
iy	-11938
mun	-11939
dong	-11940
▁Osc	-11941
▁bum	-11942
▁dew	-11943
▁lur	-11944
▁toe	-11945
state	-11946
phones	-11947
▁Antar	-11948
▁Cross	-11949
▁amuse	-11950
▁brace	-11951
▁nasty	-11952
▁renov	-11953
▁Public	-11954
appropri	-11955
▁printer	-11956
▁undergo	-11957
▁advances	-11958
▁clearing	-11959
▁converse	-11960
▁interven	-11961
▁sediment	-11962
▁stepping	-11963
▁requiring	-11964
▁algorithms	-11965
▁dependence	-11966
lene	-11967
rade	-11968
ston	-11969
▁600	-11970
▁pod	-11971
▁tut	-11972
onica	-11973
▁foul	-11974
▁perv	-11975
▁filed	-11976
▁groom	-11977
▁stern	-11978
▁Heaven	-11979
▁relate	-11980
▁scales	-11981
▁summon	-11982
▁restored	-11983
▁steadily	-11984
▁activated	-11985
▁energetic	-11986
▁favorable	-11987
▁magnitude	-11988
▁limitations	-11989
oto	-11990
whe	-11991
aron	-11992
llor	-11993
▁Ref	-11994
▁bip	-11995
▁iPh	-11996
▁lod	-11997
space	-11998
uckle	-11999
▁Leon	-12000
▁Line	-12001
▁NATO	-12002
▁rack	-12003
▁slog	-12004
sembly	-12005
▁bases	-12006
▁voted	-12007
▁cousin	-12008
▁gadget	-12009
▁runner	-12010
▁trivial	-12011
▁Services	-12012
▁midfield	-12013
▁minimize	-12014
▁optional	-12015
▁portrait	-12016
▁volcanic	-12017
▁afterward	-12018
▁inherited	-12019
▁suspicion	-12020
▁switching	-12021
▁convention	-12022
▁immigrants	-12023
▁reasonably	-12024
▁wilderness	-12025
▁accessories	-12026
▁ideological	-12027
▁demonstration	-12028
LC	-12029
TS	-12030
▁Sa	-12031
▁yo	-12032
oice	-12033
sole	-12034
inals	-12035
opoly	-12036
rosis	-12037
▁Merc	-12038
▁chef	-12039
▁mesh	-12040
▁wins	-12041
rehend	-12042
▁Laden	-12043
▁irres	-12044
▁Saturn	-12045
▁exting	-12046
▁orphan	-12047
▁purely	-12048
▁rebels	-12049
▁Environ	-12050
▁clarity	-12051
▁figured	-12052
▁sliding	-12053
▁defensive	-12054
▁consisting	-12055
▁occupation	-12056
▁obligations	-12057
iti	-12058
▁CH	-12059
▁biz	-12060
borne	-12061
▁canv	-12062
▁cows	-12063
▁unqu	-12064
▁acids	-12065
▁dealt	-12066
▁hosts	-12067
▁inequ	-12068
▁medal	-12069
▁seize	-12070
▁witch	-12071
manship	-12072
▁comply	-12073
▁shouted	-12074
▁Mongolia	-12075
▁contempt	-12076
▁gambling	-12077
▁holidays	-12078
▁secretly	-12079
▁sessions	-12080
▁splendid	-12081
▁symbolic	-12082
▁arbitrary	-12083
▁occasions	-12084
▁prisoners	-12085
▁cigarettes	-12086
▁constitute	-12087
▁undoubtedly	-12088
▁demonstrates	-12089
▁evolutionary	-12090
▁prescription	-12091
RC	-12092
▁BC	-12093
inea	-12094
sels	-12095
▁Ell	-12096
olves	-12097
phony	-12098
uddle	-12099
▁Gene	-12100
▁Penn	-12101
▁bias	-12102
▁bulb	-12103
▁zinc	-12104
ainted	-12105
ductor	-12106
nation	-12107
▁Siber	-12108
▁armor	-12109
▁farms	-12110
▁pseud	-12111
▁quake	-12112
▁assure	-12113
▁cheeks	-12114
▁comedy	-12115
▁dissem	-12116
▁grandp	-12117
▁hyster	-12118
▁videos	-12119
▁fastest	-12120
▁inquiry	-12121
▁pockets	-12122
▁solvent	-12123
▁updates	-12124
▁contacts	-12125
▁dissatis	-12126
▁goodness	-12127
▁complaint	-12128
▁disciples	-12129
▁exhausted	-12130
▁incentive	-12131
▁sincerely	-12132
▁assignment	-12133
▁peripheral	-12134
▁historically	-12135
▁architectural	-12136
ba	-12137
nedy	-12138
rawn	-12139
▁cob	-12140
▁lid	-12141
▁vow	-12142
ammed	-12143
▁envy	-12144
▁peas	-12145
▁aroma	-12146
▁patrol	-12147
▁Manager	-12148
▁logging	-12149
▁winding	-12150
▁celebrity	-12151
▁diagnosed	-12152
▁purchased	-12153
▁containers	-12154
▁relaxation	-12155
▁exceptional	-12156
opy	-12157
▁MS	-12158
amas	-12159
dess	-12160
ruce	-12161
▁dum	-12162
▁jaw	-12163
pherd	-12164
▁noun	-12165
▁pigs	-12166
▁subd	-12167
▁Plant	-12168
▁ammon	-12169
▁fatty	-12170
▁handy	-12171
▁saith	-12172
▁smugg	-12173
▁whale	-12174
ativity	-12175
▁binary	-12176
▁contag	-12177
▁heroes	-12178
▁hunter	-12179
▁speeds	-12180
▁uncomm	-12181
▁dangers	-12182
▁melting	-12183
▁sailing	-12184
▁unified	-12185
ationally	-12186
▁adhesive	-12187
▁disabled	-12188
▁dropping	-12189
▁elevator	-12190
▁glorious	-12191
▁incoming	-12192
▁packages	-12193
▁mortality	-12194
▁volunteer	-12195
▁analytical	-12196
▁compliance	-12197
▁reinforced	-12198
OP	-12199
▁Pu	-12200
▁Uk	-12201
▁DVD	-12202
▁bou	-12203
▁Kate	-12204
▁edit	-12205
▁elig	-12206
▁reef	-12207
▁Simon	-12208
▁china	-12209
▁pneum	-12210
▁tubes	-12211
iterate	-12212
rasound	-12213
▁Proper	-12214
▁Toyota	-12215
▁deduct	-12216
▁depths	-12217
▁kindly	-12218
▁ladder	-12219
▁locate	-12220
▁oscill	-12221
▁pestic	-12222
▁purity	-12223
▁refund	-12224
▁united	-12225
▁bending	-12226
▁ceremon	-12227
▁damages	-12228
▁refined	-12229
▁soluble	-12230
▁stadium	-12231
▁stuffed	-12232
▁Buddhism	-12233
▁pursuing	-12234
▁umbrella	-12235
▁undertake	-12236
▁insulation	-12237
▁acknowledged	-12238
▁experiencing	-12239
qi	-12240
aed	-12241
etown	-12242
▁oils	-12243
▁rape	-12244
rophic	-12245
▁allev	-12246
▁camps	-12247
▁incur	-12248
▁pause	-12249
▁sadly	-12250
▁slipp	-12251
▁Forest	-12252
▁advise	-12253
▁amazed	-12254
▁oppose	-12255
▁tablet	-12256
ensitive	-12257
▁cardiac	-12258
▁ensures	-12259
▁exhibit	-12260
▁pilgrim	-12261
▁reviews	-12262
▁torture	-12263
▁District	-12264
▁feathers	-12265
▁wildlife	-12266
▁Valentine	-12267
▁cooperate	-12268
▁influenza	-12269
▁policeman	-12270
▁substrate	-12271
▁prosperous	-12272
▁circumstance	-12273
II	-12274
hai	-12275
▁31	-12276
▁5,	-12277
▁Av	-12278
ubar	-12279
▁Circ	-12280
▁craw	-12281
▁glue	-12282
▁halt	-12283
▁odor	-12284
icking	-12285
igious	-12286
▁Jacob	-12287
▁torch	-12288
▁angels	-12289
▁adapted	-12290
▁cleared	-12291
▁conquer	-12292
▁theatre	-12293
▁whisper	-12294
▁Portugal	-12295
▁airplane	-12296
▁cultivate	-12297
▁pulmonary	-12298
▁selecting	-12299
▁allocation	-12300
▁expectation	-12301
▁interactions	-12302
▁subsequently	-12303
gas	-12304
▁Aud	-12305
▁Nep	-12306
▁pou	-12307
raine	-12308
▁Main	-12309
......	-12310
upiter	-12311
▁overd	-12312
▁slump	-12313
itating	-12314
▁Second	-12315
▁bronze	-12316
▁caring	-12317
▁differ	-12318
▁superf	-12319
▁Kennedy	-12320
▁renewed	-12321
▁Shenzhen	-12322
▁discourse	-12323
▁surroundings	-12324
core	-12325
kers	-12326
robe	-12327
▁Hem	-12328
▁Mah	-12329
▁jam	-12330
illes	-12331
isons	-12332
vance	-12333
▁Pent	-12334
▁bout	-12335
▁prag	-12336
inking	-12337
verted	-12338
▁burnt	-12339
▁hepat	-12340
▁rainy	-12341
▁spine	-12342
▁Sweden	-12343
▁brutal	-12344
▁bucket	-12345
▁builds	-12346
▁expose	-12347
▁nostal	-12348
▁shorts	-12349
▁amongst	-12350
▁manners	-12351
▁cautious	-12352
▁damaging	-12353
▁informal	-12354
▁resemble	-12355
▁emergence	-12356
▁motivated	-12357
▁pharmaceutical	-12358
50	-12359
rus	-12360
▁OR	-12361
engu	-12362
▁hid	-12363
▁Code	-12364
▁Word	-12365
▁haul	-12366
▁sixt	-12367
▁tram	-12368
▁yoga	-12369
▁demol	-12370
▁dwarf	-12371
▁insol	-12372
▁resum	-12373
▁tribe	-12374
keeping	-12375
▁Thanks	-12376
▁cherry	-12377
▁kicked	-12378
▁matched	-12379
▁trousers	-12380
▁physician	-12381
▁prevented	-12382
▁interfaces	-12383
▁temperament	-12384
▁manufactured	-12385
▁globalization	-12386
alo	-12387
oda	-12388
▁lex	-12389
ighed	-12390
▁limb	-12391
▁rupt	-12392
▁tatt	-12393
ricate	-12394
▁Kenya	-12395
▁boast	-12396
▁coral	-12397
▁ruler	-12398
▁swarm	-12399
▁wrist	-12400
instein	-12401
▁Arabia	-12402
▁consec	-12403
▁intact	-12404
▁pollut	-12405
ractions	-12406
▁Jupiter	-12407
▁ashamed	-12408
▁bizarre	-12409
▁strateg	-12410
▁colonial	-12411
▁deployed	-12412
▁emission	-12413
▁hometown	-12414
▁humidity	-12415
▁exploring	-12416
▁permitted	-12417
▁reflecting	-12418
▁temptation	-12419
iox	-12420
lies	-12421
ocal	-12422
▁Bol	-12423
▁Fox	-12424
▁zoo	-12425
store	-12426
▁Buck	-12427
▁Death	-12428
▁onset	-12429
▁Andrew	-12430
▁strand	-12431
▁trauma	-12432
▁Medical	-12433
▁arrives	-12434
▁defines	-12435
▁habitat	-12436
▁justify	-12437
▁laundry	-12438
▁ranging	-12439
▁turbine	-12440
▁Director	-12441
▁receiver	-12442
▁regulate	-12443
▁rotating	-12444
▁attacking	-12445
▁residence	-12446
▁vegetation	-12447
▁distinguished	-12448
ca	-12449
aya	-12450
hop	-12451
inn	-12452
vin	-12453
▁33	-12454
arma	-12455
▁Rub	-12456
burgh	-12457
▁Scar	-12458
▁fung	-12459
▁peel	-12460
▁cohes	-12461
▁comic	-12462
▁curse	-12463
▁maneu	-12464
▁ulcer	-12465
▁delete	-12466
▁loudly	-12467
▁plague	-12468
▁pollen	-12469
▁symmet	-12470
▁upside	-12471
oelectric	-12472
unciation	-12473
▁envelope	-12474
▁appearing	-12475
▁magazines	-12476
▁organisms	-12477
▁Leb	-12478
▁hoc	-12479
▁mul	-12480
comed	-12481
force	-12482
▁gour	-12483
▁neon	-12484
▁seep	-12485
▁syll	-12486
▁altar	-12487
▁antit	-12488
▁relay	-12489
▁teens	-12490
▁intrig	-12491
▁laptop	-12492
▁potent	-12493
▁subord	-12494
▁underp	-12495
▁extends	-12496
▁goodbye	-12497
▁sweater	-12498
▁exterior	-12499
▁reserved	-12500
▁Catherine	-12501
▁dismissed	-12502
▁impatient	-12503
▁privilege	-12504
▁ridiculous	-12505
▁traditions	-12506
▁confirmation	-12507
ano	-12508
anic	-12509
annel	-12510
bound	-12511
nosis	-12512
▁Pier	-12513
▁fade	-12514
▁glimp	-12515
▁asthma	-12516
▁faults	-12517
▁marvel	-12518
▁nerves	-12519
▁racial	-12520
▁gardens	-12521
▁reminds	-12522
▁cervical	-12523
▁confined	-12524
▁improves	-12525
▁shifting	-12526
▁welcomed	-12527
▁campaigns	-12528
▁researcher	-12529
▁Information	-12530
▁forgiveness	-12531
▁consistently	-12532
unks	-12533
▁Bry	-12534
itous	-12535
▁2006	-12536
▁Bell	-12537
▁Hell	-12538
▁Lisa	-12539
▁apex	-12540
▁dive	-12541
▁fuck	-12542
▁sect	-12543
▁soda	-12544
▁toug	-12545
▁unin	-12546
▁blows	-12547
▁rebel	-12548
▁whirl	-12549
▁Easter	-12550
▁Market	-12551
▁header	-12552
▁linger	-12553
▁marble	-12554
▁openly	-12555
▁versat	-12556
▁versus	-12557
▁endorse	-12558
▁glimpse	-12559
▁quarrel	-12560
▁advocate	-12561
▁elevated	-12562
▁prevents	-12563
▁releases	-12564
▁extending	-12565
▁ingredient	-12566
▁spacecraft	-12567
▁corporations	-12568
zo	-12569
itic	-12570
▁Coc	-12571
▁WTO	-12572
▁beds	-12573
▁bunk	-12574
▁dumb	-12575
▁flip	-12576
▁slot	-12577
▁vein	-12578
▁Sudan	-12579
▁mayor	-12580
▁naval	-12581
▁sober	-12582
▁unple	-12583
▁baking	-12584
▁conced	-12585
▁livest	-12586
▁shrimp	-12587
▁tariff	-12588
▁wounds	-12589
▁harness	-12590
▁basement	-12591
onsciously	-12592
▁graduates	-12593
▁reasoning	-12594
▁survivors	-12595
▁credential	-12596
▁incomplete	-12597
▁cooperative	-12598
▁philosophical	-12599
ept	-12600
you	-12601
▁2:	-12602
▁TO	-12603
▁hay	-12604
ingle	-12605
▁Lady	-12606
▁bolt	-12607
▁plag	-12608
▁puls	-12609
oscope	-12610
▁Hamas	-12611
▁Susan	-12612
▁clerk	-12613
▁overc	-12614
▁wrink	-12615
▁Confed	-12616
▁embark	-12617
▁joints	-12618
▁motive	-12619
▁rebell	-12620
▁smiles	-12621
▁trucks	-12622
▁unreal	-12623
▁conting	-12624
▁legally	-12625
▁sectors	-12626
▁thereof	-12627
▁viewing	-12628
▁wonders	-12629
▁defining	-12630
▁planting	-12631
▁authentic	-12632
▁electrode	-12633
▁nonlinear	-12634
▁purchases	-12635
▁rejection	-12636
▁specialist	-12637
▁ultrasound	-12638
IL	-12639
aky	-12640
pot	-12641
▁"?	-12642
▁SAR	-12643
▁cri	-12644
ceans	-12645
▁Tong	-12646
▁sarc	-12647
ermost	-12648
▁creep	-12649
▁fluor	-12650
▁lever	-12651
▁snaps	-12652
▁hiring	-12653
▁infilt	-12654
▁salmon	-12655
▁softly	-12656
▁therap	-12657
▁battles	-12658
▁greeted	-12659
▁longest	-12660
▁martial	-12661
▁optimum	-12662
▁blocking	-12663
▁fertility	-12664
▁livestock	-12665
▁unpredict	-12666
▁questioned	-12667
▁instability	-12668
▁technically	-12669
▁inflammatory	-12670
▁constitutional	-12671
▁specifications	-12672
SA	-12673
The	-12674
ati	-12675
mia	-12676
▁Age	-12677
▁Bul	-12678
▁Obs	-12679
▁Tay	-12680
▁ket	-12681
▁rou	-12682
emark	-12683
llers	-12684
▁Gaza	-12685
▁void	-12686
▁gauge	-12687
▁spoil	-12688
welling	-12689
▁Centre	-12690
▁Edward	-12691
▁archae	-12692
▁facult	-12693
▁learnt	-12694
▁unjust	-12695
▁crashed	-12696
▁grabbed	-12697
▁sinking	-12698
▁utterly	-12699
▁volcano	-12700
▁extravag	-12701
▁strongest	-12702
▁fermentation	-12703
esy	-12704
rer	-12705
▁SU	-12706
dney	-12707
nate	-12708
omon	-12709
enary	-12710
▁Balt	-12711
▁croc	-12712
▁sofa	-12713
▁unle	-12714
▁Agree	-12715
▁scrub	-12716
▁tales	-12717
▁pledge	-12718
▁scroll	-12719
▁shells	-12720
▁themes	-12721
▁keyword	-12722
▁engaging	-12723
▁appealing	-12724
▁permanently	-12725
▁representing	-12726
bury	-12727
ieth	-12728
ilem	-12729
▁civ	-12730
▁ours	-12731
▁rash	-12732
▁Titan	-12733
▁brass	-12734
▁inaug	-12735
▁insom	-12736
▁lunar	-12737
▁swamp	-12738
writing	-12739
▁garage	-12740
▁locals	-12741
▁storms	-12742
▁unload	-12743
▁Mexican	-12744
▁Muslims	-12745
▁fifteen	-12746
▁implies	-12747
▁motorcy	-12748
▁procure	-12749
▁contempl	-12750
▁hormones	-12751
▁metallic	-12752
▁uncommon	-12753
▁Guangdong	-12754
▁interfere	-12755
▁revealing	-12756
▁trademark	-12757
▁boundaries	-12758
▁classmates	-12759
▁Netherlands	-12760
ggy	-12761
hol	-12762
ova	-12763
sal	-12764
▁39	-12765
ocks	-12766
▁Mat	-12767
▁Opt	-12768
▁cuc	-12769
▁dur	-12770
▁lac	-12771
hedral	-12772
person	-12773
▁Blair	-12774
▁Table	-12775
▁admin	-12776
▁brake	-12777
▁hatch	-12778
▁noisy	-12779
▁pluck	-12780
▁cracks	-12781
▁relent	-12782
▁subway	-12783
▁slender	-12784
▁surpass	-12785
▁teenage	-12786
▁limiting	-12787
▁navigate	-12788
▁promptly	-12789
▁vascular	-12790
▁fortunate	-12791
▁deficiency	-12792
▁estimation	-12793
▁illustrate	-12794
▁yourselves	-12795
▁Constitution	-12796
▁Ni	-12797
▁Ok	-12798
igma	-12799
▁Emb	-12800
▁yen	-12801
thood	-12802
▁vamp	-12803
ricane	-12804
▁hoard	-12805
▁owing	-12806
▁scare	-12807
▁Access	-12808
▁Potter	-12809
▁balcon	-12810
▁cellul	-12811
▁colony	-12812
▁curved	-12813
▁edible	-12814
▁imagin	-12815
▁outfit	-12816
▁rooted	-12817
▁tricks	-12818
▁tumors	-12819
▁valves	-12820
▁conspir	-12821
▁grocery	-12822
▁realise	-12823
▁vinegar	-12824
▁Williams	-12825
▁enabling	-12826
▁perceive	-12827
▁sticking	-12828
ologically	-12829
▁agreements	-12830
▁devastating	-12831
▁disadvantage	-12832
▁insufficient	-12833
▁unexpectedly	-12834
imb	-12835
enez	-12836
iven	-12837
mare	-12838
quer	-12839
usse	-12840
▁ard	-12841
▁pic	-12842
oenix	-12843
▁skip	-12844
odynam	-12845
uggage	-12846
▁couch	-12847
▁crush	-12848
▁loses	-12849
▁proxy	-12850
▁unbel	-12851
▁Custom	-12852
▁clause	-12853
▁piston	-12854
velength	-12855
▁Turkish	-12856
▁cushion	-12857
▁enchant	-12858
▁cheerful	-12859
▁ensuring	-12860
▁infringe	-12861
▁overload	-12862
▁sweeping	-12863
▁underest	-12864
▁inability	-12865
▁municipal	-12866
▁negotiate	-12867
▁testimony	-12868
▁accelerate	-12869
▁economical	-12870
▁neighbours	-12871
▁reproductive	-12872
▁sufficiently	-12873
▁Ha	-12874
inee	-12875
ippi	-12876
▁Ray	-12877
▁gem	-12878
▁ram	-12879
ayers	-12880
▁Cond	-12881
▁HTML	-12882
▁fuss	-12883
▁solo	-12884
▁Heart	-12885
▁Stone	-12886
▁cyber	-12887
▁hover	-12888
▁plank	-12889
▁sweep	-12890
▁yards	-12891
▁Sydney	-12892
▁benign	-12893
▁cables	-12894
▁chairs	-12895
▁congen	-12896
▁curves	-12897
▁dental	-12898
▁superv	-12899
▁augment	-12900
▁broadly	-12901
▁warfare	-12902
itiveness	-12903
▁defeated	-12904
▁downward	-12905
▁suppress	-12906
▁upcoming	-12907
▁breakdown	-12908
▁collector	-12909
▁disintegr	-12910
▁eccentric	-12911
▁emphasize	-12912
▁unfortunate	-12913
▁enthusiastic	-12914
acon	-12915
▁Ret	-12916
▁rav	-12917
▁Arth	-12918
▁Chan	-12919
▁clot	-12920
▁crab	-12921
▁eyed	-12922
▁stam	-12923
ighted	-12924
▁metic	-12925
▁pains	-12926
▁scalp	-12927
▁spear	-12928
forward	-12929
▁awarded	-12930
▁lowered	-12931
▁featured	-12932
▁graceful	-12933
▁rainfall	-12934
▁slowdown	-12935
▁Pakistani	-12936
▁footprint	-12937
▁expressing	-12938
▁inappropri	-12939
▁microscope	-12940
▁propaganda	-12941
▁unpleasant	-12942
▁withdrawal	-12943
▁interactive	-12944
▁proliferation	-12945
CD	-12946
di	-12947
col	-12948
stru	-12949
ycle	-12950
▁192	-12951
▁Kat	-12952
▁dun	-12953
▁lik	-12954
mouth	-12955
▁Marc	-12956
▁matt	-12957
eering	-12958
iciary	-12959
iliary	-12960
ortune	-12961
▁Hindu	-12962
▁Motor	-12963
▁Where	-12964
▁chalk	-12965
▁lacks	-12966
▁shiny	-12967
▁velve	-12968
▁breach	-12969
▁courty	-12970
▁gossip	-12971
▁iPhone	-12972
▁spends	-12973
▁tended	-12974
orescence	-12975
▁Columbia	-12976
▁honestly	-12977
▁Europeans	-12978
▁activists	-12979
▁criterion	-12980
▁viewpoint	-12981
▁withstand	-12982
▁satisfying	-12983
▁Organization	-12984
▁investigators	-12985
▁eu	-12986
▁gn	-12987
▁Moz	-12988
▁Ori	-12989
ancer	-12990
ateau	-12991
▁Fort	-12992
▁chol	-12993
▁chur	-12994
ective	-12995
inance	-12996
iquity	-12997
▁Broad	-12998
▁mirac	-12999
parable	-13000
▁crunch	-13001
▁handic	-13002
▁persec	-13003
▁sewage	-13004
▁Stephen	-13005
▁cleaned	-13006
▁energies	-13007
▁nineteen	-13008
▁shipment	-13009
▁upstairs	-13010
▁Cambridge	-13011
▁conductor	-13012
▁governing	-13013
▁posterior	-13014
▁prolonged	-13015
▁compensate	-13016
▁supposedly	-13017
▁variations	-13018
▁degradation	-13019
▁practically	-13020
▁conversations	-13021
bro	-13022
▁Ash	-13023
▁Saf	-13024
▁Bure	-13025
▁pest	-13026
▁rang	-13027
making	-13028
▁Venez	-13029
▁cents	-13030
▁gloom	-13031
▁griev	-13032
▁jelly	-13033
▁peril	-13034
▁skies	-13035
avilion	-13036
▁Morgan	-13037
▁coarse	-13038
▁syntax	-13039
▁wander	-13040
▁rebound	-13041
▁schemes	-13042
▁abortion	-13043
▁leverage	-13044
▁paradise	-13045
▁retrieve	-13046
▁pressures	-13047
▁explicitly	-13048
▁guaranteed	-13049
▁succession	-13050
▁desperately	-13051
▁embarrassed	-13052
▁championship	-13053
due	-13054
fied	-13055
▁Jun	-13056
▁noon	-13057
▁owns	-13058
▁oxid	-13059
▁unim	-13060
aceous	-13061
static	-13062
▁Leban	-13063
▁jokes	-13064
▁lamps	-13065
▁peach	-13066
▁poult	-13067
▁rolls	-13068
▁snack	-13069
▁Athens	-13070
▁Norway	-13071
▁valued	-13072
▁voyage	-13073
▁categor	-13074
▁compuls	-13075
▁kilomet	-13076
▁travels	-13077
odynamics	-13078
▁Malaysia	-13079
▁concurrent	-13080
▁interviews	-13081
▁limitation	-13082
▁repository	-13083
▁subjective	-13084
▁businessman	-13085
▁fashionable	-13086
▁refrigerator	-13087
▁contamination	-13088
beit	-13089
eday	-13090
note	-13091
▁Arm	-13092
▁Eth	-13093
▁Fab	-13094
ocard	-13095
▁2005	-13096
▁erad	-13097
▁flop	-13098
▁idle	-13099
▁Labor	-13100
▁Point	-13101
▁caffe	-13102
▁linen	-13103
▁skate	-13104
▁stare	-13105
▁Lehman	-13106
▁oceans	-13107
▁remedy	-13108
▁routes	-13109
▁suited	-13110
izations	-13111
▁Swedish	-13112
▁generic	-13113
▁modules	-13114
▁ranking	-13115
▁someday	-13116
▁Jonathan	-13117
▁anterior	-13118
▁gradient	-13119
▁manually	-13120
▁notebook	-13121
▁detecting	-13122
▁sculpture	-13123
▁teenagers	-13124
▁compressed	-13125
▁translated	-13126
▁accommodate	-13127
▁Du	-13128
▁SS	-13129
edia	-13130
isal	-13131
▁Ark	-13132
alled	-13133
metry	-13134
osaur	-13135
▁Walk	-13136
▁clad	-13137
▁dele	-13138
verest	-13139
ysical	-13140
▁pulls	-13141
▁thief	-13142
▁woven	-13143
▁counse	-13144
▁ellipt	-13145
▁enjoys	-13146
▁jungle	-13147
▁solely	-13148
▁approve	-13149
▁secular	-13150
▁secured	-13151
▁twisted	-13152
▁Venezuel	-13153
▁dominate	-13154
▁decreases	-13155
▁enlighten	-13156
▁elementary	-13157
▁wavelength	-13158
▁definitions	-13159
FC	-13160
igm	-13161
lus	-13162
lyn	-13163
nty	-13164
▁Ram	-13165
▁Wan	-13166
aters	-13167
ilate	-13168
▁Cold	-13169
▁Corp	-13170
▁Cuba	-13171
▁Over	-13172
▁snap	-13173
▁bliss	-13174
▁brisk	-13175
▁disob	-13176
▁insec	-13177
▁stove	-13178
▁wires	-13179
▁Alaska	-13180
▁judged	-13181
▁render	-13182
▁robots	-13183
▁unanim	-13184
▁vulgar	-13185
regation	-13186
▁Detroit	-13187
▁freight	-13188
▁gradual	-13189
▁grandch	-13190
▁pirates	-13191
▁pouring	-13192
▁regards	-13193
▁Assembly	-13194
▁Carolina	-13195
▁interpre	-13196
▁merchant	-13197
▁optimize	-13198
▁sickness	-13199
▁Agreement	-13200
▁Resources	-13201
▁Treatment	-13202
▁believing	-13203
▁imperfect	-13204
▁oxidation	-13205
▁poisonous	-13206
▁publicity	-13207
▁workplace	-13208
▁intermediate	-13209
▁Si	-13210
▁iv	-13211
etts	-13212
uant	-13213
▁10,	-13214
▁Vis	-13215
▁dos	-13216
▁sou	-13217
backs	-13218
▁Duke	-13219
▁Gord	-13220
▁cuis	-13221
▁riot	-13222
essert	-13223
▁2010.	-13224
▁setup	-13225
▁sniff	-13226
▁spicy	-13227
▁unrel	-13228
▁veins	-13229
▁viral	-13230
uristic	-13231
▁admits	-13232
▁dement	-13233
▁jurisd	-13234
▁sprink	-13235
▁upload	-13236
▁whales	-13237
▁altered	-13238
▁dischar	-13239
▁mammals	-13240
▁rewards	-13241
▁hesitate	-13242
▁interval	-13243
▁marginal	-13244
▁pavement	-13245
▁sexually	-13246
▁stricken	-13247
▁eliminated	-13248
▁practition	-13249
▁neighboring	-13250
▁spontaneous	-13251
feit	-13252
▁CON	-13253
▁owe	-13254
achus	-13255
odies	-13256
oused	-13257
▁Disc	-13258
▁typh	-13259
▁Exper	-13260
▁demon	-13261
▁hated	-13262
▁recol	-13263
▁rocky	-13264
▁stays	-13265
▁Theory	-13266
▁labels	-13267
▁slower	-13268
▁dragged	-13269
▁exploit	-13270
▁marking	-13271
▁obscure	-13272
▁striker	-13273
▁Michigan	-13274
▁adaptive	-13275
▁attorney	-13276
▁memorial	-13277
▁mutually	-13278
▁outcomes	-13279
▁pathogen	-13280
▁renowned	-13281
▁seasonal	-13282
▁audiences	-13283
▁detriment	-13284
▁diplomacy	-13285
▁graduated	-13286
▁referring	-13287
▁salvation	-13288
▁atmospheric	-13289
▁importantly	-13290
▁economically	-13291
▁observations	-13292
▁organizational	-13293
▁Ah	-13294
▁Gh	-13295
oder	-13296
▁Low	-13297
▁Sky	-13298
▁ais	-13299
▁kit	-13300
▁wag	-13301
▁disl	-13302
▁tuck	-13303
apable	-13304
iotics	-13305
▁Alice	-13306
▁kings	-13307
▁wiped	-13308
▁denial	-13309
▁mascul	-13310
▁tribes	-13311
▁handles	-13312
▁poultry	-13313
▁rounded	-13314
iovascular	-13315
▁belonging	-13316
▁legendary	-13317
▁mentality	-13318
▁nightmare	-13319
▁stretching	-13320
▁acupuncture	-13321
▁indispensable	-13322
▁SM	-13323
agne	-13324
arel	-13325
rily	-13326
▁Ins	-13327
▁Whe	-13328
oping	-13329
uance	-13330
▁Fang	-13331
▁remn	-13332
▁sung	-13333
▁tray	-13334
affold	-13335
▁Nepal	-13336
▁backs	-13337
▁modes	-13338
▁tenth	-13339
▁attent	-13340
▁counts	-13341
▁frames	-13342
▁quoted	-13343
orcelain	-13344
▁lantern	-13345
▁perfume	-13346
▁Economic	-13347
▁Confucian	-13348
▁competent	-13349
▁competing	-13350
▁enjoyment	-13351
▁scenarios	-13352
▁accustomed	-13353
▁compelling	-13354
▁conviction	-13355
▁vegetarian	-13356
▁Thanksgiving	-13357
rac	-13358
▁4,	-13359
▁NO	-13360
lett	-13361
requ	-13362
▁Cre	-13363
▁Hua	-13364
▁omn	-13365
▁wob	-13366
elity	-13367
ilize	-13368
▁Hosp	-13369
▁Type	-13370
▁cass	-13371
▁chew	-13372
▁enum	-13373
▁Chile	-13374
▁expon	-13375
▁lotus	-13376
▁pumps	-13377
▁purse	-13378
▁theft	-13379
▁Taylor	-13380
▁devote	-13381
▁disarm	-13382
▁palate	-13383
▁glowing	-13384
▁margins	-13385
▁masters	-13386
▁neurons	-13387
▁rubbish	-13388
▁seventh	-13389
▁mounting	-13390
▁sporting	-13391
▁unstable	-13392
▁currencies	-13393
▁distribute	-13394
▁positively	-13395
▁tournament	-13396
▁ultrasonic	-13397
▁proposition	-13398
▁chemotherapy	-13399
▁organisation	-13400
▁recommendations	-13401
iki	-13402
▁Mom	-13403
▁hex	-13404
ridge	-13405
▁Herm	-13406
▁Rick	-13407
▁enqu	-13408
▁murm	-13409
▁sank	-13410
riages	-13411
▁codes	-13412
▁dilem	-13413
▁incub	-13414
▁merit	-13415
connect	-13416
ynchron	-13417
▁Invest	-13418
▁Mechan	-13419
▁Milton	-13420
▁Object	-13421
▁liable	-13422
▁miscon	-13423
heastern	-13424
▁Network	-13425
▁dessert	-13426
▁handler	-13427
▁posture	-13428
▁tempted	-13429
achusetts	-13430
▁homeless	-13431
▁integrate	-13432
▁malignant	-13433
▁occurring	-13434
▁provinces	-13435
▁inadequate	-13436
▁Massachusetts	-13437
▁substantially	-13438
EF	-13439
gie	-13440
▁Far	-13441
▁URL	-13442
▁rim	-13443
chers	-13444
lance	-13445
▁Mill	-13446
▁Thai	-13447
▁eagle	-13448
▁remed	-13449
▁trips	-13450
▁vitro	-13451
▁Agency	-13452
▁bundle	-13453
▁cycles	-13454
▁torque	-13455
▁Indians	-13456
▁athlete	-13457
▁dietary	-13458
▁leakage	-13459
▁altitude	-13460
▁definite	-13461
▁hydrocar	-13462
▁invested	-13463
▁extracted	-13464
▁libraries	-13465
▁surrender	-13466
▁Depression	-13467
▁competence	-13468
▁extinction	-13469
▁hypothesis	-13470
▁replication	-13471
▁ventilation	-13472
▁considerably	-13473
▁preservation	-13474
▁rehabilitation	-13475
US	-13476
▁uh	-13477
izza	-13478
▁Add	-13479
▁Ron	-13480
ports	-13481
▁ants	-13482
▁unsc	-13483
inator	-13484
▁Tunis	-13485
▁cited	-13486
▁coins	-13487
▁coven	-13488
▁hairs	-13489
▁tense	-13490
▁Temple	-13491
▁Wilson	-13492
▁agrees	-13493
▁apples	-13494
▁commem	-13495
▁spider	-13496
▁sticky	-13497
▁chaotic	-13498
▁console	-13499
▁filters	-13500
▁mercury	-13501
▁obliged	-13502
▁surgeon	-13503
▁dictator	-13504
▁plastics	-13505
▁receptor	-13506
▁revenues	-13507
▁smallest	-13508
▁confusing	-13509
▁platforms	-13510
▁likelihood	-13511
PC	-13512
dad	-13513
eur	-13514
▁eb	-13515
ilst	-13516
▁oct	-13517
▁rap	-13518
burse	-13519
icket	-13520
▁Gall	-13521
▁Mult	-13522
▁Sher	-13523
▁Town	-13524
▁carp	-13525
▁inte	-13526
▁pulp	-13527
▁tile	-13528
rators	-13529
▁Sarah	-13530
▁firef	-13531
▁hobby	-13532
▁juven	-13533
▁maize	-13534
▁parks	-13535
▁ports	-13536
▁token	-13537
▁yeast	-13538
ongyang	-13539
orption	-13540
▁offend	-13541
▁poorly	-13542
▁triple	-13543
▁furnish	-13544
▁judging	-13545
▁semicon	-13546
▁shelves	-13547
▁corridor	-13548
▁deciding	-13549
▁relieved	-13550
▁restruct	-13551
▁solitary	-13552
▁warnings	-13553
▁admission	-13554
▁allegedly	-13555
▁communist	-13556
▁databases	-13557
▁maintains	-13558
▁Parliament	-13559
▁verification	-13560
▁strengthening	-13561
▁DO	-13562
avia	-13563
▁Cro	-13564
▁Top	-13565
▁curb	-13566
▁foll	-13567
▁idol	-13568
▁numb	-13569
ouston	-13570
▁Colon	-13571
▁ditch	-13572
▁hered	-13573
usively	-13574
▁Libyan	-13575
▁cancel	-13576
▁lately	-13577
▁orgasm	-13578
▁stance	-13579
▁supreme	-13580
▁Children	-13581
▁Einstein	-13582
▁adopting	-13583
▁workshop	-13584
▁Mountains	-13585
▁battlefield	-13586
▁disturbance	-13587
▁prosecutors	-13588
▁prospective	-13589
ugu	-13590
cile	-13591
mail	-13592
moil	-13593
pler	-13594
▁Die	-13595
▁alg	-13596
▁haz	-13597
dling	-13598
▁Brad	-13599
▁Jedi	-13600
▁Rest	-13601
▁Turn	-13602
▁mall	-13603
tering	-13604
ulence	-13605
▁Chris	-13606
▁diarr	-13607
▁races	-13608
▁Determ	-13609
▁Yunnan	-13610
▁banana	-13611
▁bosses	-13612
▁scored	-13613
▁Houston	-13614
▁Perform	-13615
▁charism	-13616
▁costume	-13617
▁encrypt	-13618
▁hemorrh	-13619
▁luggage	-13620
▁offense	-13621
▁refresh	-13622
▁resting	-13623
▁coronary	-13624
▁deadline	-13625
▁republic	-13626
▁sandwich	-13627
▁unreason	-13628
▁vigorous	-13629
▁addresses	-13630
▁neglected	-13631
▁selective	-13632
▁voluntary	-13633
▁households	-13634
▁remarkably	-13635
▁beautifully	-13636
▁philosopher	-13637
▁cardiovascular	-13638
la	-13639
chem	-13640
rame	-13641
▁Lyn	-13642
ignty	-13643
rable	-13644
▁Beck	-13645
▁Hang	-13646
▁bush	-13647
▁cups	-13648
orical	-13649
▁ashes	-13650
▁humid	-13651
▁mines	-13652
limited	-13653
▁electr	-13654
▁gloves	-13655
▁nurses	-13656
▁petrol	-13657
▁rulers	-13658
▁tactic	-13659
▁Hillary	-13660
▁Mississ	-13661
▁ethanol	-13662
▁reorgan	-13663
▁Medicine	-13664
▁Scottish	-13665
▁claiming	-13666
▁farmland	-13667
▁prostate	-13668
▁sampling	-13669
▁civilians	-13670
▁underwear	-13671
▁convincing	-13672
▁distortion	-13673
▁persistence	-13674
▁positioning	-13675
▁embarrassing	-13676
▁6.	-13677
inar	-13678
▁Moh	-13679
▁Non	-13680
rophe	-13681
▁Ohio	-13682
▁blaz	-13683
▁goat	-13684
▁monk	-13685
▁navy	-13686
▁raid	-13687
▁Carib	-13688
▁fibre	-13689
▁grind	-13690
▁naive	-13691
▁scorn	-13692
▁stray	-13693
▁trait	-13694
▁wines	-13695
ogenous	-13696
oscopic	-13697
▁incarn	-13698
▁licens	-13699
measures	-13700
▁balcony	-13701
▁rainbow	-13702
▁transit	-13703
▁turmoil	-13704
▁coloured	-13705
▁greeting	-13706
▁recalled	-13707
▁Confucius	-13708
▁Pyongyang	-13709
▁disasters	-13710
▁northeast	-13711
▁tentative	-13712
▁traumatic	-13713
▁aggression	-13714
▁retrospect	-13715
▁convergence	-13716
EST	-13717
▁Es	-13718
▁UV	-13719
ophy	-13720
▁Nev	-13721
▁Jing	-13722
▁Wild	-13723
▁ally	-13724
▁athe	-13725
▁veil	-13726
▁Heath	-13727
▁Pearl	-13728
▁intol	-13729
▁nause	-13730
▁scold	-13731
▁wield	-13732
enhagen	-13733
▁Commer	-13734
▁blades	-13735
▁cooler	-13736
▁tribal	-13737
▁whilst	-13738
▁frankly	-13739
▁vibrant	-13740
▁volumes	-13741
▁caffeine	-13742
▁preoccup	-13743
▁prisoner	-13744
▁scaffold	-13745
▁situated	-13746
▁followers	-13747
▁presently	-13748
▁resonance	-13749
▁simulated	-13750
▁slaughter	-13751
▁brightness	-13752
▁suspicious	-13753
▁allegations	-13754
▁astronomers	-13755
▁exploitation	-13756
▁hypertension	-13757
mel	-13758
adel	-13759
rong	-13760
▁Pap	-13761
▁Pur	-13762
huang	-13763
▁Nazi	-13764
▁Snow	-13765
▁bugs	-13766
icuous	-13767
ilight	-13768
▁Imper	-13769
▁chunk	-13770
▁retro	-13771
▁socks	-13772
▁cosmic	-13773
▁franch	-13774
▁waking	-13775
▁Denmark	-13776
▁Germans	-13777
▁benevol	-13778
▁hopeful	-13779
▁torrent	-13780
▁charging	-13781
▁decisive	-13782
▁fighters	-13783
▁relating	-13784
▁stirring	-13785
▁Argentina	-13786
▁considers	-13787
▁linguistic	-13788
▁respective	-13789
▁inappropriate	-13790
▁righteousness	-13791
EG	-13792
owl	-13793
▁HR	-13794
aryn	-13795
bone	-13796
etus	-13797
▁ker	-13798
▁tyr	-13799
ioxid	-13800
▁Laur	-13801
▁anne	-13802
▁grin	-13803
▁knot	-13804
▁oath	-13805
▁tant	-13806
▁toes	-13807
izable	-13808
ritten	-13809
▁Wales	-13810
▁chore	-13811
▁lifel	-13812
▁scary	-13813
ocative	-13814
▁drawer	-13815
▁slaves	-13816
▁thrive	-13817
▁vendor	-13818
▁waiter	-13819
▁warmer	-13820
▁Machine	-13821
▁analyse	-13822
▁rebuild	-13823
▁acoustic	-13824
▁counting	-13825
▁maritime	-13826
▁tempting	-13827
▁alignment	-13828
▁magnesium	-13829
▁Copenhagen	-13830
▁compatible	-13831
▁geological	-13832
▁intentions	-13833
▁Mississippi	-13834
▁sovereignty	-13835
▁contaminated	-13836
▁manipulation	-13837
▁certification	-13838
ani	-13839
lee	-13840
▁TC	-13841
eric	-13842
irus	-13843
▁McD	-13844
atist	-13845
ieval	-13846
imens	-13847
thren	-13848
otechn	-13849
ployed	-13850
soever	-13851
▁Influ	-13852
▁Linux	-13853
▁empir	-13854
▁gates	-13855
▁mourn	-13856
▁onion	-13857
▁wrath	-13858
lerosis	-13859
ourable	-13860
▁Bureau	-13861
▁forbid	-13862
▁gastro	-13863
▁ideals	-13864
▁redeem	-13865
▁unlock	-13866
ilingual	-13867
incerity	-13868
▁apology	-13869
▁closure	-13870
▁monkeys	-13871
▁painter	-13872
ifference	-13873
▁Colorado	-13874
▁Electric	-13875
▁beverage	-13876
▁eurozone	-13877
▁geometry	-13878
▁mosquito	-13879
▁punished	-13880
▁unwanted	-13881
▁adjusting	-13882
▁alternate	-13883
▁objection	-13884
▁practiced	-13885
▁graduation	-13886
▁practicing	-13887
▁Philippines	-13888
▁computation	-13889
▁identifying	-13890
▁contradiction	-13891
▁precipitation	-13892
UT	-13893
zi	-13894
▁WS	-13895
neys	-13896
olas	-13897
rise	-13898
▁800	-13899
▁Chi	-13900
▁Dom	-13901
▁bos	-13902
▁wig	-13903
phalt	-13904
▁Nick	-13905
▁Ross	-13906
▁amen	-13907
▁carb	-13908
▁ethn	-13909
▁fanc	-13910
▁Night	-13911
▁Steel	-13912
▁unequ	-13913
▁wanna	-13914
culosis	-13915
▁boiled	-13916
▁canvas	-13917
▁closet	-13918
▁metaph	-13919
▁redist	-13920
▁timber	-13921
economic	-13922
ellation	-13923
▁Premier	-13924
▁beaches	-13925
▁contend	-13926
▁gallery	-13927
▁stagger	-13928
▁railroad	-13929
▁courtyard	-13930
▁porcelain	-13931
▁summarize	-13932
▁unlimited	-13933
▁networking	-13934
▁businessmen	-13935
▁shareholder	-13936
▁consultation	-13937
DS	-13938
iph	-13939
ook	-13940
▁Kn	-13941
gger	-13942
lvan	-13943
▁Lat	-13944
▁fry	-13945
▁Best	-13946
▁Rice	-13947
▁bang	-13948
▁coco	-13949
▁gust	-13950
▁lime	-13951
worthy	-13952
▁amate	-13953
▁booth	-13954
▁steak	-13955
▁Canton	-13956
▁Common	-13957
▁Howard	-13958
▁auster	-13959
▁donkey	-13960
▁enroll	-13961
▁fixing	-13962
▁interd	-13963
▁metrop	-13964
▁nutrit	-13965
▁overly	-13966
▁treats	-13967
▁impacts	-13968
▁premise	-13969
▁tablets	-13970
▁chloride	-13971
▁improper	-13972
▁tensions	-13973
▁conscient	-13974
▁forbidden	-13975
▁provincial	-13976
▁introducing	-13977
▁policymakers	-13978
▁competitiveness	-13979
dd	-13980
▁Ky	-13981
abby	-13982
iche	-13983
wall	-13984
▁clan	-13985
▁coil	-13986
▁fret	-13987
▁lull	-13988
▁slab	-13989
ancial	-13990
▁Arist	-13991
▁burns	-13992
▁chimp	-13993
▁genus	-13994
▁foster	-13995
▁packet	-13996
▁perish	-13997
▁viable	-13998
▁abdomen	-13999
▁bladder	-14000
▁flatter	-14001
▁methane	-14002
▁restart	-14003
▁analyzes	-14004
▁enduring	-14005
▁nonsense	-14006
▁answering	-14007
▁configure	-14008
▁replacing	-14009
▁criticized	-14010
▁positioned	-14011
▁prescribed	-14012
▁BM	-14013
▁TB	-14014
asse	-14015
dish	-14016
idth	-14017
ryst	-14018
▁Why	-14019
▁bew	-14020
otine	-14021
▁Abra	-14022
▁Comb	-14023
▁Pass	-14024
▁kidn	-14025
akable	-14026
▁2008.	-14027
▁Based	-14028
▁elong	-14029
▁fluff	-14030
▁fuels	-14031
▁pengu	-14032
▁reuse	-14033
▁shred	-14034
▁spawn	-14035
▁Jersey	-14036
▁Newton	-14037
▁dealer	-14038
▁lesser	-14039
▁riches	-14040
▁wasted	-14041
▁Gaddafi	-14042
▁Seattle	-14043
▁arguing	-14044
▁digging	-14045
▁teaches	-14046
▁veteran	-14047
▁deficits	-14048
▁operates	-14049
▁resolute	-14050
▁severity	-14051
▁tomatoes	-14052
▁anonymous	-14053
▁condemned	-14054
▁dictators	-14055
▁dedication	-14056
▁acceleration	-14057
▁encouragement	-14058
rin	-14059
agus	-14060
phal	-14061
▁Heb	-14062
▁bri	-14063
▁fax	-14064
ambur	-14065
iless	-14066
▁Exec	-14067
▁Self	-14068
rocess	-14069
▁arose	-14070
▁assim	-14071
▁panor	-14072
▁squat	-14073
▁swine	-14074
organic	-14075
▁Gordon	-14076
▁exempl	-14077
▁kissed	-14078
▁lasted	-14079
▁mortal	-14080
urbation	-14081
▁Nigeria	-14082
▁entries	-14083
▁footage	-14084
▁halfway	-14085
▁vicious	-14086
▁Mandarin	-14087
▁allergic	-14088
▁destined	-14089
▁landmark	-14090
▁rendered	-14091
▁semester	-14092
▁trillion	-14093
▁Brazilian	-14094
▁ambitions	-14095
▁privately	-14096
▁realizing	-14097
▁adaptation	-14098
▁comparable	-14099
▁superiority	-14100
▁notification	-14101
▁physiological	-14102
DL	-14103
▁Ur	-14104
opsy	-14105
▁Jen	-14106
▁hen	-14107
ariat	-14108
class	-14109
stage	-14110
▁Ariz	-14111
▁hull	-14112
reated	-14113
▁Blood	-14114
▁Burma	-14115
▁Delhi	-14116
▁chess	-14117
▁merge	-14118
▁prick	-14119
▁rains	-14120
▁safer	-14121
▁sixty	-14122
▁stole	-14123
▁widow	-14124
▁Labour	-14125
▁crises	-14126
▁deputy	-14127
▁doomed	-14128
▁grades	-14129
▁humour	-14130
▁poetic	-14131
▁titles	-14132
▁locally	-14133
▁slowing	-14134
▁warrior	-14135
▁Standard	-14136
▁arrogant	-14137
▁clusters	-14138
▁commence	-14139
▁detector	-14140
▁devotion	-14141
▁enclosed	-14142
▁monopoly	-14143
▁triangle	-14144
▁aggregate	-14145
▁apologize	-14146
▁intervals	-14147
▁recipient	-14148
▁routinely	-14149
▁screaming	-14150
▁authorized	-14151
▁conducting	-14152
▁Corporation	-14153
▁indifferent	-14154
▁nationality	-14155
▁restoration	-14156
▁reproduction	-14157
EP	-14158
kee	-14159
▁SA	-14160
aeda	-14161
ilia	-14162
inois	-14163
rafts	-14164
▁Iron	-14165
▁lent	-14166
▁rick	-14167
▁seab	-14168
▁alley	-14169
▁beams	-14170
▁elbow	-14171
▁slack	-14172
igraphy	-14173
▁banker	-14174
▁cruise	-14175
▁gloomy	-14176
▁rotate	-14177
▁origins	-14178
▁applause	-14179
▁arriving	-14180
▁finances	-14181
▁mattress	-14182
▁nutrient	-14183
▁simulate	-14184
▁vaccines	-14185
▁intercept	-14186
▁undermine	-14187
▁addressing	-14188
▁decorative	-14189
▁disturbing	-14190
▁researched	-14191
▁terrorists	-14192
▁unpredictable	-14193
dam	-14194
▁48	-14195
▁Ep	-14196
▁OS	-14197
lift	-14198
post	-14199
▁Jia	-14200
amous	-14201
heres	-14202
isers	-14203
▁misf	-14204
urated	-14205
▁Chong	-14206
▁pearl	-14207
▁skept	-14208
▁Region	-14209
▁adhere	-14210
▁burial	-14211
▁bypass	-14212
▁cinema	-14213
▁heroic	-14214
▁merger	-14215
▁regain	-14216
▁tricky	-14217
▁weaker	-14218
▁cracked	-14219
▁skating	-14220
▁Material	-14221
▁churches	-14222
▁defender	-14223
▁reliance	-14224
▁Caribbean	-14225
▁automated	-14226
▁retailers	-14227
▁safeguard	-14228
▁successor	-14229
▁automation	-14230
▁periodically	-14231
TC	-14232
ni	-14233
olk	-14234
▁Up	-14235
rost	-14236
▁Ali	-14237
▁Gas	-14238
▁Hur	-14239
▁NBA	-14240
▁Ted	-14241
▁aux	-14242
ragon	-14243
smith	-14244
▁Down	-14245
▁View	-14246
▁cath	-14247
▁cruc	-14248
▁raft	-14249
▁stun	-14250
erated	-14251
ussels	-14252
▁Oscar	-14253
▁Roose	-14254
▁bands	-14255
▁nasal	-14256
▁tones	-14257
▁accred	-14258
▁albeit	-14259
▁inland	-14260
▁Capital	-14261
▁cookies	-14262
▁depreci	-14263
▁dreamed	-14264
▁springs	-14265
▁Agricult	-14266
▁Princess	-14267
▁deserves	-14268
▁speeches	-14269
▁austerity	-14270
▁featuring	-14271
▁moonlight	-14272
▁providers	-14273
▁resembles	-14274
▁socialism	-14275
▁thoughtful	-14276
▁implementing	-14277
▁investigating	-14278
▁zo	-14279
boat	-14280
velt	-14281
▁Ast	-14282
▁Hay	-14283
▁caf	-14284
ellar	-14285
gebra	-14286
ounge	-14287
press	-14288
▁Bagh	-14289
▁Dise	-14290
▁bapt	-14291
▁font	-14292
▁lush	-14293
itored	-14294
ocious	-14295
▁Beach	-14296
▁Hunan	-14297
▁Saint	-14298
▁antiv	-14299
▁corne	-14300
▁dusty	-14301
▁eloqu	-14302
▁nails	-14303
▁skelet	-14304
▁traces	-14305
aluation	-14306
▁awesome	-14307
▁cherish	-14308
▁formally	-14309
▁founding	-14310
▁Roosevelt	-14311
▁assurance	-14312
▁malicious	-14313
▁subjected	-14314
▁exceptions	-14315
▁highlights	-14316
▁emotionally	-14317
▁accommodation	-14318
jin	-14319
rue	-14320
lace	-14321
vous	-14322
▁jog	-14323
acerb	-14324
ioned	-14325
urnal	-14326
▁Pitt	-14327
▁Sant	-14328
▁acre	-14329
▁asym	-14330
▁eats	-14331
▁hers	-14332
▁wary	-14333
iduous	-14334
▁Allen	-14335
▁Deleg	-14336
▁Maria	-14337
▁deple	-14338
▁donor	-14339
▁niche	-14340
▁retal	-14341
▁tasty	-14342
▁Arthur	-14343
▁Lakers	-14344
▁Napole	-14345
▁occupy	-14346
▁wallet	-14347
▁wholly	-14348
▁Baghdad	-14349
▁cuisine	-14350
▁exacerb	-14351
▁fertile	-14352
▁gaining	-14353
▁nucleus	-14354
▁unavoid	-14355
itational	-14356
▁Illinois	-14357
▁brethren	-14358
▁combines	-14359
▁ignorant	-14360
▁immunity	-14361
▁invasive	-14362
▁maternal	-14363
▁semantic	-14364
▁assembled	-14365
▁certainty	-14366
▁deflation	-14367
▁inspiring	-14368
▁northwest	-14369
▁sincerity	-14370
▁compliment	-14371
▁irrational	-14372
▁reconstruct	-14373
aki	-14374
izzy	-14375
▁Lew	-14376
▁Sem	-14377
ATION	-14378
andel	-14379
giene	-14380
▁Wolf	-14381
▁begg	-14382
▁isot	-14383
▁lure	-14384
ennium	-14385
▁aloud	-14386
▁genre	-14387
▁prose	-14388
▁shrub	-14389
▁solic	-14390
▁evenly	-14391
▁malign	-14392
▁multim	-14393
▁multin	-14394
▁drunken	-14395
▁durable	-14396
▁luckily	-14397
▁athletic	-14398
▁entities	-14399
▁fixation	-14400
▁juvenile	-14401
▁periodic	-14402
▁spelling	-14403
▁Financial	-14404
▁attending	-14405
▁intrinsic	-14406
▁southwest	-14407
▁pronounced	-14408
▁refreshing	-14409
▁regression	-14410
▁influencing	-14411
▁susceptible	-14412
heim	-14413
iors	-14414
▁Ott	-14415
▁YOU	-14416
▁awe	-14417
▁nin	-14418
▁Fair	-14419
aments	-14420
▁2008,	-14421
▁dared	-14422
▁penny	-14423
▁pizza	-14424
▁renal	-14425
▁sciss	-14426
▁harbor	-14427
▁trades	-14428
▁auditor	-14429
▁antioxid	-14430
▁dwelling	-14431
▁imposing	-14432
▁observer	-14433
▁weakened	-14434
▁advocates	-14435
▁dominance	-14436
▁electrons	-14437
▁generates	-14438
▁incidents	-14439
▁induction	-14440
▁placement	-14441
▁telescope	-14442
▁downstream	-14443
▁explaining	-14444
▁antibiotics	-14445
▁tuberculosis	-14446
▁differentiation	-14447
ta	-14448
▁CA	-14449
▁Na	-14450
onge	-14451
▁Sign	-14452
▁glor	-14453
▁lumb	-14454
▁mott	-14455
▁undo	-14456
commun	-14457
idious	-14458
illery	-14459
▁cloak	-14460
▁cured	-14461
▁inlet	-14462
▁rifle	-14463
▁texts	-14464
▁Madrid	-14465
▁demean	-14466
▁helmet	-14467
▁hydrox	-14468
▁supper	-14469
▁turtle	-14470
▁wolves	-14471
▁Captain	-14472
▁confine	-14473
▁dislike	-14474
▁flavors	-14475
▁insulin	-14476
▁longing	-14477
▁mandate	-14478
▁orderly	-14479
▁reddish	-14480
▁rescued	-14481
▁scoring	-14482
▁seafood	-14483
▁wasting	-14484
▁animated	-14485
▁proceeds	-14486
▁shocking	-14487
▁geography	-14488
▁monitored	-14489
▁waterfall	-14490
▁indicators	-14491
▁manipulate	-14492
▁presumably	-14493
HS	-14494
bird	-14495
stan	-14496
term	-14497
▁cod	-14498
▁dar	-14499
araoh	-14500
river	-14501
sover	-14502
▁Ball	-14503
▁brim	-14504
▁gras	-14505
▁heed	-14506
▁pets	-14507
ishers	-14508
people	-14509
▁baked	-14510
▁eject	-14511
▁unden	-14512
aternal	-14513
▁parade	-14514
▁slopes	-14515
▁Arizona	-14516
▁dresses	-14517
▁flavour	-14518
▁infants	-14519
▁tribute	-14520
▁Brussels	-14521
▁brightly	-14522
▁fountain	-14523
▁protects	-14524
▁realised	-14525
▁verified	-14526
▁applicant	-14527
▁iteration	-14528
▁southeast	-14529
▁specialty	-14530
▁chromosome	-14531
▁morphology	-14532
▁Engineering	-14533
▁permeability	-14534
jan	-14535
obia	-14536
reek	-14537
▁Amb	-14538
▁Len	-14539
▁Tar	-14540
▁osm	-14541
▁oun	-14542
bohyd	-14543
▁atop	-14544
▁brew	-14545
▁clut	-14546
▁pent	-14547
itives	-14548
▁ambul	-14549
▁debut	-14550
▁diary	-14551
▁poles	-14552
▁poses	-14553
▁searc	-14554
▁Hallow	-14555
▁plunge	-14556
▁radius	-14557
▁supers	-14558
▁counted	-14559
▁leaning	-14560
▁newborn	-14561
▁phrases	-14562
▁prophet	-14563
▁stained	-14564
▁polished	-14565
▁shepherd	-14566
▁shouting	-14567
▁benchmark	-14568
▁diffusion	-14569
▁discomfort	-14570
▁researches	-14571
▁compatibility	-14572
▁manifestation	-14573
coat	-14574
jian	-14575
▁hut	-14576
▁rew	-14577
ardon	-14578
irrel	-14579
orthy	-14580
phere	-14581
utiny	-14582
▁buys	-14583
▁tier	-14584
▁yell	-14585
iliate	-14586
▁Diana	-14587
▁comed	-14588
▁crypt	-14589
▁indec	-14590
▁intox	-14591
▁peaks	-14592
▁ridge	-14593
▁spike	-14594
▁tires	-14595
▁verse	-14596
ipation	-14597
▁angles	-14598
▁floods	-14599
▁hypocr	-14600
▁indign	-14601
▁poster	-14602
▁ruined	-14603
▁sprout	-14604
▁throws	-14605
▁towers	-14606
raviolet	-14607
▁sulphur	-14608
▁swollen	-14609
▁workout	-14610
▁Chairman	-14611
▁Hospital	-14612
▁sidewalk	-14613
▁skeleton	-14614
▁terribly	-14615
▁aluminium	-14616
▁criminals	-14617
▁filtering	-14618
▁recognise	-14619
▁submarine	-14620
▁surviving	-14621
▁admiration	-14622
▁preventive	-14623
▁anticipated	-14624
▁initiatives	-14625
▁superficial	-14626
▁straightforward	-14627
BI	-14628
RA	-14629
▁PD	-14630
▁ub	-14631
elle	-14632
▁Rod	-14633
▁Set	-14634
▁Tri	-14635
▁Var	-14636
▁tet	-14637
table	-14638
▁Anth	-14639
▁spit	-14640
lvania	-14641
ocular	-14642
▁bount	-14643
▁flush	-14644
▁havoc	-14645
▁hears	-14646
▁spice	-14647
▁Marine	-14648
▁drople	-14649
▁melody	-14650
▁stimul	-14651
▁superb	-14652
[...]
